, 2597245723
. 2289768280
် 734263331
् 569641257
" 523782245
@-@ 498039675
de 473923765
a 366234106
္ 337926711
் 333897985
- 320072234
့ 317099468
) 294176729
i 291124273
( 290524971
: 288246148
en 242366883
? 219987856
u 201069067
la 185935468
' 183252134
in 174404296
o 170005790
▁ 161466013
je 160544629
e 154274665
/ 153856539
્ 152259835
da 150616195
se 145678348
، 144848366
er 141335368
na 138529841
на 130629184
s 130433284
y 119718353
! 119265856
que 118990464
et 118214014
t@@ 112476399
z@@ 112190697
S@@ 110888002
t 109910712
un 107717257
in@@ 104952420
at 104517407
ja 102306720
to 99254669
c@@ 98611766
d@@ 98535576
s@@ 98482273
as 96264996
။ 95504179
es 93685065
k@@ 93115848
on 91686140
al@@ 89676403
en@@ 89499775
в 88971661
ne 87841632
ar@@ 87798765
... 87729563
an@@ 87025160
ta 86671104
و 86379792
ar 84434172
er@@ 84146890
di 83943525
u@@ 83725745
is 83690516
b@@ 82663520
и 82401153
te 81307109
al 81282222
re@@ 80113866
v 79863411
el 79726875
an 79677984
os 79564975
M@@ 79284151
K@@ 79175989
h@@ 79117020
at@@ 78821864
g@@ 78466289
l 78455681
B@@ 78165114
om 77968186
या 77447675
T@@ 76519272
n@@ 75601574
den 75375369
do 74816522
v@@ 74761782
A@@ 74693846
i@@ 73945594
m@@ 73877889
e@@ 73747812
y@@ 73677788
st@@ 72124861
le 72038627
l@@ 71611603
f@@ 71114910
त 70684712
j@@ 69906320
D@@ 69219975
der 68749117
o@@ 68582702
og 68168281
el@@ 67773124
H@@ 67523832
it@@ 66888384
li 66834604
的 66759722
the 66486434
is@@ 66309806
no 66146175
C@@ 65421395
z 65367875
N@@ 65311603
。 64681288
za 64035891
P@@ 63782040
да 63379496
de@@ 63231949
d 63024832
po@@ 62408584
.@@ 62389417
لە 62340940
des 62180699
کە 61897002
et@@ 61795608
ver@@ 61371846
G@@ 61129733
ri@@ 61117352
p@@ 61037041
L@@ 60984546
il 60964092
di@@ 60314776
em 60255729
1 60145143
း@@ 60036144
det 59917377
ti@@ 58764636
a@@ 58654746
ir 58619099
V@@ 57683728
us 57304261
на@@ 56959002
van 56705230
die 56479052
E@@ 56195230
k 56076709
r@@ 55887712
si@@ 55343131
ch@@ 55159029
2 55076569
à 54900353
не 54787169
on@@ 54347498
iz@@ 53861254
li@@ 53663351
F@@ 53388665
ra@@ 53302696
or@@ 53267542
n 53196296
si 53120049
ad@@ 52534141
es@@ 52254225
ka 52099938
som 51891697
ب@@ 51855315
ol@@ 51652621
vi@@ 51555464
il@@ 51393133
R@@ 51193111
の 51083396
im@@ 50843714
е 50533270
্ 50525521
、 50193247
; 50167542
w@@ 49728850
of 49674369
sa 49604973
O@@ 49408640
du 49319051
ing 49197430
é 49008316
ut@@ 48332597
és 48029063
š@@ 48024503
het 47934339
A 47834129
с 47340273
ro@@ 47298344
। 47296496
م 47005065
ne@@ 46930277
as@@ 46917462
am@@ 46910589
за@@ 46905476
ti 46489610
od@@ 46460140
ak@@ 46281453
3 46006176
， 45777586
که 45732318
प 45659870
و@@ 45647853
ni 45266501
с@@ 45217270
I@@ 45022901
і 44868995
l' 44858088
т 44479831
vi 44358003
ma 44295860
av@@ 44283104
у@@ 44122198
un@@ 44028464
по@@ 44025721
من 43932979
ni@@ 43884373
les 43345699
به 43165457
J@@ 43157285
for 43007593
ot@@ 42825507
က 42594019
med 42533808
us@@ 42425785
ik@@ 41890738
ob@@ 41856925
op@@ 41676461
ter@@ 41580938
о@@ 41546837
bi@@ 41542956
م@@ 41277240
me 41140985
pro@@ 41116933
am 41109438
я 40969764
ent@@ 40953909
and 40879928
ce 40867512
m 40746959
ve 40658748
ap@@ 40544772
á@@ 40501993
sk@@ 40313398
л 40248154
у 40161924
ki 40161106
um@@ 40157113
om@@ 40041362
за 40039705
ש@@ 39870574
I 39860949
ek@@ 39845106
w 39763641
ek 39734376
وه 39691399
ی 39567665
ل@@ 39288852
स 39268688
з@@ 39235284
är 39200672
su@@ 39088168
-@@ 38922237
מ@@ 38868918
che 38853460
ده 38738162
x@@ 38654362
och 38631200
ci@@ 38568534
т@@ 38548729
း 38456071
are 38372766
بۆ 38353593
em@@ 38316519
ر@@ 38132171
και 38100448
č@@ 38080474
ac@@ 38046962
su 37969398
på 37817895
for@@ 37690485
se@@ 37632569
၊ 37611223
に 37558861
м 37522094
ul@@ 37179400
it 37178188
% 37090739
att 37069426
в@@ 37059485
pre@@ 37048270
ur@@ 37039436
h 37022596
é@@ 36804957
4 36771599
del 36550263
ra 36482707
να 36470543
ali 36383875
не@@ 36329345
ကို 36311204
а@@ 36236487
ia 36127171
ра@@ 35929321
Z@@ 35692713
kan 35633291
5 35548638
mi@@ 35502142
ت@@ 35494667
ב@@ 35484242
re 35434697
ed 35324277
н@@ 35252440
של 35194661
له 35172943
mi 35146061
W@@ 35008026
til 34926569
س@@ 34906685
ist@@ 34802018
ab@@ 34764821
के 34676054
und 34551691
U@@ 34537733
й 34493262
te@@ 34492968
le@@ 34407529
؟ 34390140
af 34219763
ו@@ 34214284
ре@@ 34081834
ма@@ 33968434
ale 33863919
í@@ 33772536
ed@@ 33449763
to@@ 33417939
ج@@ 33399847
да@@ 33324778
par@@ 33311912
м@@ 33263625
kon@@ 33211474
та@@ 33160435
ל@@ 33122150
zi@@ 33079299
os@@ 32971444
ن 32894264
ي@@ 32845942
av 32772096
nie 32722753
ke 32683965
я@@ 32668420
pri@@ 32583297
بە 32439855
အ@@ 32416440
д@@ 32411051
ž@@ 32395757
आणि 32383664
men@@ 32379997
ai 32373152
ha 32346617
c 32332010
ن@@ 32266570
est@@ 32211328
ca 32160838
um 32054268
до@@ 32037717
tu@@ 31995973
い 31778454
ov@@ 31678907
or 31643197
та 31462311
ش@@ 31353570
b 31214738
ation 31180804
per@@ 31020815
aj@@ 30986069
ud@@ 30870004
は 30838724
з 30717042
في 30630953
е@@ 30610806
sp@@ 30595793
ta@@ 30524878
ئه 30506973
ag@@ 30413792
па@@ 30411328
una 30393719
ko@@ 30348559
र@@ 30346133
की 30332842
р@@ 30257012
ber@@ 30254061
ine 30207512
н 30181101
qu@@ 30174023
ви@@ 30024242
con@@ 29955032
ر 29934067
10 29886765
od 29743644
een 29730949
ت 29676097
dan 29585620
တော 29534285
p 29505176
ва@@ 29400612
ک@@ 29360101
har 29356445
ကျွန 29327501
ка@@ 29275882
pi@@ 29123585
do@@ 29092460
တစ 29045415
х 28992253
6 28970010
ku 28966805
ten 28950623
ف@@ 28808365
د@@ 28798276
sa@@ 28763753
क 28748329
ma@@ 28732830
ही 28699305
आहे 28686295
g 28666070
א@@ 28664927
eg@@ 28654877
се 28602506
ни@@ 28592148
р 28580565
tr@@ 28538700
az 28449070
ie 28343251
て 28326362
im 28326358
တယ 28311390
r 28266557
της 28206637
न 28185661
မ@@ 28180538
bir 28090627
para 28046534
q@@ 27911828
တဲ 27782164
ш@@ 27705216
ir@@ 27659128
た 27658055
а 27585097
ada 27578653
ina 27561146
を 27546499
ų 27521410
мо@@ 27491620
d' 27419736
ع@@ 27376753
의 27268106
í 27145117
ju 27128884
ka@@ 27123512
be@@ 27009437
է 26948703
ak 26917469
й@@ 26911028
f 26833823
נ@@ 26805841
С@@ 26766434
la@@ 26739434
ز@@ 26709327
к 26624872
ere 26621012
η 26530648
au 26437098
pl@@ 26436155
છે 26418999
me@@ 26394577
ou 26380356
ul 26379118
na@@ 26310130
ini 26308425
á 26230595
lu@@ 26227505
per 26216469
دا 26211711
los 26196370
ei 26177188
но 26156902
sz@@ 26151714
ter 26146747
л@@ 26084384
دە@@ 26047590
ە 26018226
x 26003185
ا 25968370
る 25903956
व 25843765
כ@@ 25831039
ó@@ 25807540
ku@@ 25767396
ни 25732475
ल 25701747
ä@@ 25678575
du@@ 25673746
ح@@ 25489631
gi@@ 25467628
את 25434737
ig@@ 25432524
ing@@ 25426818
म 25421399
th@@ 25399050
ро@@ 25394246
va 25367853
ate 25328581
со@@ 25285772
ك@@ 25236748
3@@ 25199462
so 25198336
し 25189739
7 25187473
ati 25159615
ą 25077257
ти@@ 25049897
ko 25046356
mo@@ 24949627
το 24873241
یان 24831163
स@@ 24829263
ه@@ 24820538
tal 24809620
で 24781330
یه 24775443
dat 24754566
ی@@ 24739778
ان@@ 24722394
к@@ 24613194
ev@@ 24602968
ki@@ 24545833
την 24446811
j 24368262
में 24364687
ў 24262452
य 24133293
ö@@ 24092688
ci 24073154
por 24027786
ти 23991970
ק@@ 23991315
и@@ 23976866
ru@@ 23968749
so@@ 23914939
af@@ 23910027
val@@ 23885906
А@@ 23842551
が 23729965
ба@@ 23707293
أ@@ 23695463
ite 23639052
ч@@ 23594391
ā@@ 23570034
이@@ 23441192
nu 23439956
aan 23387695
ко@@ 23364392
în 23319464
že 23310438
ge@@ 23292411
ili 23261845
ка 23192657
ق@@ 23162755
min@@ 23159754
ي 23139465
8 23087877
са@@ 22983281
est 22940872
या@@ 22938310
от 22936065
을 22909954
وە 22866581
ते 22856903
व@@ 22710694
ת@@ 22661728
פ@@ 22660069
4@@ 22642678
ju@@ 22636123
ने 22615847
но@@ 22609225
E 22528034
ă 22513376
ва 22484124
和 22481165
і@@ 22437271
ad 22428339
ین 22417267
του 22275074
da@@ 22268778
О@@ 22265446
г@@ 22258809
है 22240685
ان 22214746
ж@@ 22214441
ا@@ 22202041
र 22155256
id@@ 22152847
ли@@ 22151698
par 22136134
no@@ 22121516
ele 22101696
х@@ 22093623
var@@ 22019940
mu@@ 22003145
O 21986943
то@@ 21867497
con 21866734
bu@@ 21859518
ji 21803739
د 21786243
bu 21754477
रा@@ 21715546
2@@ 21682549
ā 21672484
tu 21668794
च 21659621
ve@@ 21649090
ú@@ 21625881
સ 21613454
п@@ 21580165
ga 21540029
ла@@ 21522401
by 21488167
đ@@ 21484960
ile 21480065
pa@@ 21447788
ע@@ 21434947
де@@ 21343813
ent 21312430
ado 21251203
ec@@ 21226141
га@@ 21221704
年 21196593
ئەو 21168214
com@@ 21090080
ü@@ 21087305
д 21059605
क@@ 21043906
tra@@ 21028759
те 21006773
ال@@ 20982643
= 20952659
vo@@ 20949225
про@@ 20942791
20 20901001
ח@@ 20852329
era 20847975
မ 20803893
das 20793852
iti 20771633
во@@ 20769173
este 20760373
ד@@ 20746682
var 20738667
ata 20736831
ala 20711910
ch 20652123
ο 20627828
ı 20622527
ه 20605954
ش 20596110
خ@@ 20589542
न@@ 20572575
ի 20551863
ş@@ 20545972
va@@ 20532803
ik 20497666
بە@@ 20495905
нь 20466922
आ@@ 20452259
ok@@ 20451298
က@@ 20429029
ס@@ 20409173
と 20403664
י@@ 20401912
Y@@ 20378717
og@@ 20318649
lo@@ 20309537
ل 20301798
ရ@@ 20271426
12 20240321
and@@ 20236872
ten@@ 20075058
au@@ 20071222
का 20053399
کی 20022742
ри@@ 19972277
से 19932010
על 19928255
9 19906070
man@@ 19869637
ant 19810696
گ@@ 19804001
ста@@ 19739734
な 19725579
ə@@ 19689985
ב 19685961
ge 19661636
vis@@ 19637560
ser 19596104
ez@@ 19526842
der@@ 19486348
ж 19436921
he@@ 19436248
st 19426131
ર@@ 19392659
نا@@ 19369387
mar@@ 19344861
të 19278610
ում 19273701
கள 19263051
ट 19253271
dis@@ 19251980
वा@@ 19235399
19@@ 19206357
las 19187756
ન 19174732
ho@@ 19157708
ke@@ 19151617
ה@@ 19151432
г 19132916
ut 19129106
هه 19117143
ung 19099658
에 19096446
eb@@ 19078893
5@@ 19078116
bi 19051035
An@@ 19022851
ча@@ 19017030
ż@@ 19013316
ပါတယ 19002757
б@@ 18991949
ant@@ 18971051
ic@@ 18942613
ज 18937689
kor@@ 18921840
이 18916607
för 18905378
kar@@ 18900610
kl@@ 18891617
म@@ 18871865
ला 18853917
del@@ 18830334
1@@ 18827191
por@@ 18803762
ات 18780011
be 18765479
ste 18750891
ہے 18730830
ک 18729208
men 18728409
din 18708791
op 18690854
az@@ 18685556
دو@@ 18658911
те@@ 18628814
ר 18621045
sch@@ 18579448
ەی 18577673
ó 18577465
ser@@ 18575801
ле@@ 18540336
الم@@ 18527010
co@@ 18521972
ру@@ 18500322
uma 18484927
ны 18469971
המ@@ 18458040
ty@@ 18453749
ми 18446434
ist 18442922
ur 18385901
مان 18348911
ex@@ 18348338
मी 18309688
lo 18283116
ze 18276609
né 18248580
ди@@ 18245156
ç@@ 18225502
ya 18208631
ဒီ@@ 18207363
о 18205917
non 18196394
για 18187171
़ 18170125
میں 18166311
پ@@ 18143043
yang 18142088
го@@ 18138644
လို 18121416
ang@@ 18096542
uk@@ 18041374
ana 18038263
ме@@ 18005140
pen@@ 17984425
6@@ 17981394
ä 17914770
15 17880995
ven@@ 17879423
şi 17871294
pr@@ 17867968
fi@@ 17865197
ત 17837148
မယ 17809560
vy@@ 17754713
што 17752386
pu@@ 17738501
ג@@ 17712748
жа@@ 17700929
க 17684872
при@@ 17676350
ပါ 17671172
tel@@ 17669033
ية 17659370
με 17653274
ве@@ 17596675
ust@@ 17571526
ल@@ 17568625
த 17545032
ခဲ 17534461
18@@ 17532677
ક 17525696
ran@@ 17525286
met@@ 17510752
त@@ 17509852
sl@@ 17490346
хо@@ 17479742
sen 17427123
Ch@@ 17423127
0@@ 17395601
ं@@ 17385468
bil@@ 17360840
των 17359966
vol@@ 17350130
ب 17347107
sen@@ 17346365
po 17334471
7@@ 17333244
που 17307077
io 17295730
pe 17280367
ē@@ 17266385
ל 17256039
य@@ 17254857
30 17251341
ī@@ 17235666
ente 17227889
प@@ 17193438
чи@@ 17139971
ર 17072265
น@@ 17070811
man 17054764
kom@@ 17048308
ми@@ 17045012
11 17035687
sh@@ 17026593
तो 17016626
ij@@ 17016401
| 17005652
կ@@ 16996603
Mar@@ 16974062
ר@@ 16939474
une 16910460
ێکی 16909515
एक 16900351
는 16894357
ह@@ 16875864
ní 16875859
cu 16823303
ки 16817794
ն@@ 16785624
ю 16753808
ть 16750490
ama 16739364
sam@@ 16724286
ba@@ 16694349
mu 16683068
би@@ 16665725
ba 16665128
ett 16643808
zu 16605789
ej@@ 16604901
Det 16579391
La 16576579
צ@@ 16557838
ні@@ 16546005
زۆر 16525984
လုပ 16518355
In@@ 16511463
ikke 16507432
tar@@ 16498732
je@@ 16485740
met 16480080
0 16475322
uz@@ 16473193
э@@ 16407881
cu@@ 16391460
ט@@ 16375731
8@@ 16371783
ست@@ 16370323
Al@@ 16355055
ႏ 16353603
& 16347794
ը 16318888
ħ@@ 16290349
tion 16290132
9@@ 16277874
mer@@ 16241296
one 16233347
ë 16232273
ան@@ 16220138
س 16209613
ao 16205549
ज@@ 16196431
ts 16164332
ning 16156912
ren@@ 16149232
ו 16144707
ky 16139984
ro 16064499
κ@@ 16048100
ə 16027630
all@@ 16007892
jo@@ 15972698
се@@ 15971569
ના 15910378
ene 15888112
ст@@ 15854702
из@@ 15849432
pa 15844173
י 15842837
gen@@ 15814895
De 15811592
ons 15795039
ى 15786723
ast@@ 15780559
ص@@ 15776445
ν@@ 15766171
在 15765883
мі@@ 15736641
ות 15728002
co 15727665
ila 15720801
Б@@ 15715744
ati@@ 15705070
za@@ 15699184
жи@@ 15690171
oc@@ 15669599
بوو 15667789
dem 15658566
ens 15658361
то 15655780
ць 15637297
वर 15623724
kan@@ 15605828
raz@@ 15581300
अ@@ 15574159
ту@@ 15566146
pe@@ 15565673
آ@@ 15545488
inter@@ 15539076
ost@@ 15487588
और 15480383
са 15475764
χ@@ 15464520
ط@@ 15457693
zi 15456988
ah@@ 15453092
ની 15438070
су@@ 15401714
ло@@ 15395215
ה 15383841
ato 15360950
ġ@@ 15345372
ang 15316869
માં 15308264
σ@@ 15307418
là 15304585
ક@@ 15292642
द 15280010
jo 15265718
को 15253122
dos 15253025
ні 15244163
ál@@ 15243299
کے 15231895
sam 15212772
مو@@ 15201655
န 15193824
तुम 15188533
ד 15184278
по 15177285
го 15169912
К@@ 15130802
မှာ 15123671
hi@@ 15122038
ที่ 15086876
ย@@ 15086173
bo@@ 15085932
ell@@ 15083725
π@@ 15075051
تو@@ 15021360
ri 15019508
ў@@ 14996155
pod@@ 14988115
ים 14980298
ေတာ 14959015
ล@@ 14932756
နဲ 14927480
का@@ 14920415
Т@@ 14915255
си@@ 14892589
ကို@@ 14881939
בי@@ 14873658
че@@ 14853683
ш 14848788
C 14842541
हे 14840032
des@@ 14778989
лі@@ 14776599
غ@@ 14748904
è 14727869
ן 14703836
ή 14701527
ali@@ 14690117
שי@@ 14687085
Д@@ 14658223
ды 14647841
ris@@ 14643442
ла 14639030
δ@@ 14609611
mon@@ 14600153
τ@@ 14595593
ха@@ 14572714
pan@@ 14561420
և 14535459
wy@@ 14531776
ita 14523579
ဖြစ 14515686
רו@@ 14506097
dé@@ 14504468
mal@@ 14497319
စ@@ 14494877
رو@@ 14432306
પ 14430287
ov 14405848
aj 14402123
sta 14336073
voor 14296036
μ@@ 14292317
ส@@ 14289233
ण 14285560
den@@ 14275699
ရဲ 14272163
ind@@ 14259395
де 14243225
ep@@ 14238517
care 14236529
ப@@ 14223644
вы@@ 14222217
ס 14215007
တ@@ 14195498
tak@@ 14164166
چ@@ 14163491
σε 14152879
ק 14149757
бо@@ 14144412
tal@@ 14141628
ал@@ 14135746
ł@@ 14126170
او@@ 14107060
han 14103424
să 14102481
В@@ 14097488
för@@ 14071295
ę 14064423
را@@ 14051972
वि@@ 14047395
ဟာ 14035717
ima 14002396
ەوە 13995787
ले 13985575
və 13966484
п 13953364
ती 13952378
ja@@ 13941810
sel@@ 13922483
ena 13921254
ske 13904070
kol@@ 13903979
τα 13897748
ι@@ 13889875
jeg 13861482
mis@@ 13851388
တွေ 13848233
раз@@ 13844430
Ver@@ 13842730
ay@@ 13840613
ben 13822800
بو@@ 13822221
મ@@ 13814996
ду@@ 13779430
å 13778643
ken 13770354
S 13728222
որ 13725083
zá@@ 13715399
ار@@ 13712869
ли 13706014
ת 13704828
ph@@ 13687770
tan@@ 13684557
tre@@ 13679710
ब@@ 13667035
00 13649832
पा@@ 13647545
ć 13637614
نه 13620818
nosti 13619146
ø@@ 13608895
င 13606420
ก@@ 13598697
ч 13590484
לי@@ 13581471
dan@@ 13579439
nu@@ 13570809
ний 13562963
pas@@ 13556973
ة 13530290
સ@@ 13501861
를 13477625
we 13471451
dit 13453591
ма 13447291
ม@@ 13434474
은 13431961
ako 13418310
over 13407431
） 13404623
.. 13391323
（ 13379485
ın 13361410
pre 13358774
ကြ@@ 13347191
ры@@ 13327751
ker@@ 13315240
γ@@ 13295537
пре@@ 13278755
ול@@ 13268307
æ@@ 13261668
car@@ 13252325
در 13249904
til@@ 13229345
ng@@ 13228485
ร@@ 13210316
_ 13206352
पर 13205877
த@@ 13197952
ها 13195482
מי@@ 13193113
دا@@ 13192317
တို 13191184
reg@@ 13190150
бу@@ 13181523
ვ 13169749
နိုင 13168424
her@@ 13164378
ג 13148551
bar@@ 13146875
یت 13146512
ग@@ 13140794
έ@@ 13116097
bl@@ 13105480
ska 13102318
ara 13099880
가 13084761
end@@ 13084067
مي@@ 13073146
بر@@ 13064501
れ 13045938
ano 13032143
ej 13027520
ку@@ 13025134
ша@@ 13016555
gel@@ 13014256
ari 13013980
ă@@ 13008428
ام@@ 13002042
λ@@ 12999080
му 12993660
ingen 12989844
eh@@ 12981369
री 12979329
ين 12970372
L 12965348
ami 12957930
14 12943606
tor@@ 12935417
lan@@ 12930330
ea 12925970
ρ@@ 12884233
લ 12872247
id 12868233
ז@@ 12861645
mo 12861518
ger@@ 12845980
ز 12844643
М@@ 12842858
વ@@ 12822150
ەکان 12819049
ар@@ 12815793
50 12810113
ū@@ 12804761
dar@@ 12804699
ન@@ 12801304
हा 12797610
pra@@ 12796727
tur@@ 12774914
ما@@ 12770373
ю@@ 12769990
։ 12743734
ع 12743422
ق 12732479
ción 12732220
ı@@ 12727362
до 12720609
ор@@ 12713494
pour 12709432
ία 12701871
ski 12700980
san@@ 12693616
ban@@ 12682618
από 12681414
Ar@@ 12667410
my 12657747
ré@@ 12635432
ny@@ 12634492
ला@@ 12613576
با@@ 12604614
ug@@ 12591903
leg@@ 12588785
っ 12587344
că 12581681
ani 12579909
tä@@ 12579704
gu@@ 12564649
ot 12538503
zn@@ 12532196
ել 12524311
ru 12516400
son 12512012
τη 12506158
ם 12503963
EU 12500179
जा@@ 12498731
پێ@@ 12487141
up@@ 12482063
ता 12471895
cia 12469216
ม 12464167
Е@@ 12461442
mor@@ 12459883
الأ@@ 12458631
dans 12458232
ئەوە 12456959
wi@@ 12455984
ния 12450711
ض@@ 12438948
ok 12434322
The 12429930
ε@@ 12415974
ટ 12413616
ega 12405561
מו@@ 12373265
16 12367603
naj@@ 12360704
ez 12355295
amo 12354278
च@@ 12344939
ah 12327342
ра 12316219
lig@@ 12315167
И@@ 12294969
во 12261068
25 12255719
tas 12249634
let@@ 12240334
۔ 12229938
tro@@ 12229292
ф@@ 12227381
akan 12219230
ڵ@@ 12211752
सा@@ 12211264
amente 12204701
வ@@ 12193646
vo 12188572
են 12180149
Г@@ 12180144
von 12173947
kas 12159231
ме 12143020
ئەم 12125095
ку 12124626
18 12121558
नि@@ 12114245
U 12107453
də 12104946
esta 12090324
ته 12090269
gra@@ 12085141
ێک 12073346
pon@@ 12072632
ता@@ 12068003
kal@@ 12057974
пра@@ 12049459
तर 12046086
roz@@ 12045350
ای@@ 12040516
ві@@ 12033667
that 12033659
kad 12029304
$ 12020152
ခု@@ 12019038
об@@ 12013009
ე@@ 12011764
sv@@ 12005239
P 11997469
että 11951952
تر@@ 11942469
کار@@ 11940115
ц@@ 11939139
என 11916647
iz 11910826
ów 11908781
eri@@ 11902572
ன 11895620
ما 11895229
-- 11887160
ար@@ 11873671
ες 11862237
시@@ 11860369
وا@@ 11859832
eri 11846924
als 11836904
° 11825989
တာ@@ 11824592
α@@ 11824330
θ@@ 11823430
सं@@ 11822830
się 11815896
cer@@ 11814901
ना@@ 11812460
tak 11810524
13 11806655
지@@ 11796123
mai 11784112
θα 11770488
사@@ 11758718
aux 11741059
vel@@ 11738181
لا@@ 11737318
અ@@ 11733793
eta 11730111
လိုက 11728192
sur 11704966
ון 11701723
hu@@ 11676437
տ@@ 11675407
V 11674065
ք@@ 11654445
como 11648401
ပြီး 11633580
ली 11632078
הא@@ 11629675
dom@@ 11624725
લ@@ 11622610
Europa 11615854
Den 11615389
X@@ 11613734
க@@ 11612238
Vi 11609298
ito 11604048
سه 11597995
मा@@ 11592416
પ@@ 11591618
انی 11584087
jed@@ 11572337
nov@@ 11559139
pat@@ 11558365
alle 11544510
her 11537897
기@@ 11536498
कि 11534201
ეა 11508373
ers 11501023
ül@@ 11500587
רי@@ 11496410
pol@@ 11488233
mat@@ 11480415
com 11477365
от@@ 11456579
oj@@ 11448154
enti 11431411
ret@@ 11420248
είναι 11403309
ને 11402335
ור@@ 11391312
・ 11390224
mit 11382511
van@@ 11374750
till 11374736
ación 11370872
ete 11370423
rec@@ 11352379
га 11347161
ف 11345090
ny 11333975
iv@@ 11324833
cz@@ 11324403
pentru 11307744
ရင 11305968
pos@@ 11304195
αν@@ 11302114
ά@@ 11291414
לו@@ 11280667
ud 11275068
post@@ 11271466
ի@@ 11270328
ك 11261303
della 11246613
kat@@ 11234619
ты@@ 11230902
meg@@ 11224187
så 11215113
ڕ@@ 11207100
گه 11190288
અને 11178678
vil 11168061
ა 11167342
아@@ 11165201
cel@@ 11156491
ť 11154031
ड 11143318
itu 11129997
श 11124918
ika 11115032
ใน 11114916
ai@@ 11102230
mas 11101164
Pro@@ 11092534
વા@@ 11088037
شت@@ 11080326
ados 11072154
ban 11067338
fra 11065034
ότι 11064577
ului 11064035
će 11056215
อ@@ 11055142
လာ@@ 11053685
ende 11038119
ini@@ 11030293
ef@@ 11023540
သ@@ 11008230
10@@ 11006850
ต@@ 11005020
19 11002661
ە@@ 10996386
ट@@ 10975335
บ@@ 10969521
月 10968848
alla 10961960
در@@ 10958396
000 10957512
ဖို 10952030
פי@@ 10905335
П@@ 10901857
नाही 10900456
ח 10894071
بێت 10892312
tá@@ 10871837
[ 10866257
ili@@ 10853301
از 10851377
aut@@ 10850440
зна@@ 10844462
ora 10840706
że 10828327
द@@ 10827880
На@@ 10818683
ás 10799335
कर 10791101
си 10786499
kel@@ 10781483
ว@@ 10775080
17 10770116
သူ@@ 10769859
fil 10768150
hogy 10762897
] 10762690
dia 10759209
مه 10757937
ő@@ 10754690
人 10751482
Il 10744749
ção 10744724
мен 10736934
ր@@ 10736766
fin@@ 10728682
סי@@ 10727062
қа@@ 10726959
ေ@@ 10726087
što 10721949
fer@@ 10718661
kt@@ 10707525
ais 10701177
إ@@ 10691508
ა@@ 10678803
ih 10667103
ži@@ 10659444
ну@@ 10646716
tek@@ 10636190
tin@@ 10634799
oj 10629530
ль@@ 10625668
Re@@ 10621278
ow@@ 10620556
+ 10614792
uje 10608267
ด@@ 10596880
تا 10589920
ئ@@ 10584777
ێت 10577627
ગ@@ 10576819
ді@@ 10572404
int@@ 10572205
Š@@ 10568896
הת@@ 10567684
sin@@ 10564019
ді 10551164
ەکە 10534562
ill@@ 10521956
Con@@ 10521626
nih 10513698
ista 10511443
ты 10506948
ט 10503060
ви 10492068
zijn 10491165
ი@@ 10486627
ப 10485268
στ@@ 10483356
لە@@ 10482850
بی@@ 10482666
inte 10478647
sal@@ 10473824
ava 10469690
hal@@ 10460721
เ@@ 10459911
rá@@ 10456045
ise 10454420
श@@ 10450860
sy@@ 10441427
리@@ 10424369
ement 10423501
是 10402515
ен@@ 10398969
En 10398323
ون 10396364
ho 10395576
ċ@@ 10393468
D 10378512
જ@@ 10376466
17@@ 10374973
ня@@ 10373896
ь@@ 10369624
ં@@ 10358782
α 10356817
ë@@ 10356067
tri@@ 10352688
ff@@ 10345206
rit@@ 10342932
ės 10336403
бе@@ 10318951
φ@@ 10315350
km 10307569
пи@@ 10295553
rel@@ 10290188
وال@@ 10287140
ست 10283695
մ@@ 10281731
դ@@ 10277933
iš@@ 10271235
ம@@ 10270667
tem@@ 10264055
ட 10263970
ně 10244554
sin 10241781
대@@ 10238370
ار 10231756
로 10220632
ment 10218923
了 10214139
թ@@ 10191662
ー@@ 10190730
har@@ 10185275
سے 10181001
bel@@ 10179004
ات@@ 10174042
же@@ 10173026
ש 10172381
ं 10170069
ے 10167227
min 10165283
או@@ 10155528
col@@ 10153303
ations 10147253
على 10142382
ہ 10132164
eller 10131122
tam@@ 10130258
ของ 10123697
eni 10090163
rat@@ 10083515
õ@@ 10072266
ė@@ 10068791
ս@@ 10064366
nya 10063293
한 10063134
બ@@ 10062306
ဘယ 10060234
jen@@ 10053759
Th@@ 10051317
edi@@ 10051199
ष 10047425
че 10041489
ပ@@ 10035871
có 10029245
သင 10021711
ग 10014090
בו@@ 10010521
โ@@ 10008716
نی 10003524
ာ@@ 10002489
съ@@ 10002098
một 9997574
انە 9995690
uz 9986638
გ@@ 9982183
ных 9973766
estas 9963603
24 9960519
aku 9957723
تر 9954144
ord@@ 9949968
चा 9948607
į 9945963
ů 9942161
lin@@ 9936535
zione 9935554
мен@@ 9933279
2016 9926898
بەڵام 9922509
W 9918609
دی@@ 9918277
ค@@ 9915535
ει 9913011
می 9911148
თ 9910663
تا@@ 9904092
র@@ 9903015
stan@@ 9902211
οι 9898912
ы@@ 9893231
ica 9891943
red@@ 9891503
ند@@ 9879823
sol@@ 9876539
ces 9868587
stat@@ 9858223
mel@@ 9856009
חו@@ 9854818
của 9842934
21 9836981
сі@@ 9823495
oz@@ 9810010
bes@@ 9802168
рі@@ 9801627
જ 9800454
ę@@ 9798523
และ 9794357
ação 9793979
מה 9793137
น 9790284
B 9772695
ին 9758373
Х@@ 9745208
cht 9744911
הע@@ 9735412
ние 9731376
הי@@ 9726863
té@@ 9725747
201@@ 9709928
จ@@ 9701088
די@@ 9699714
nem 9698542
ذ@@ 9693602
over@@ 9692771
الع@@ 9688952
بي@@ 9687700
сто@@ 9686760
sek@@ 9684717
במ@@ 9683458
આ 9677586
ჟ@@ 9675193
ί@@ 9654917
imo 9651219
was 9646463
ဘာ@@ 9637982
ha@@ 9637086
து 9633825
Pri@@ 9633155
oni 9632451
ور@@ 9623737
Ã 9620319
મ 9614798
vä@@ 9611932
qui 9609934
ales 9604356
lar 9591331
ची 9589056
für 9588672
אי@@ 9584119
הוא 9576729
бі@@ 9575904
ein@@ 9574276
Н@@ 9570005
ji@@ 9567746
ο@@ 9566343
22 9563623
nem@@ 9563380
કે 9560347
кі 9556340
ce@@ 9539864
β@@ 9539386
To 9527886
આ@@ 9527267
ice 9525273
हा@@ 9519405
ela 9517510
خو@@ 9510005
ğ@@ 9504472
ना 9499779
In 9495709
ās 9493885
kul@@ 9489333
ão 9487785
ये 9483297
age 9481876
oh@@ 9480601
가@@ 9472049
ני@@ 9470160
form@@ 9462831
ori@@ 9461478
เป็น 9452050
ئەوەی 9448331
koji 9446015
נו@@ 9443124
sta@@ 9441168
ér@@ 9438166
kur@@ 9418632
ω@@ 9410669
ө@@ 9399315
למ@@ 9395880
நான 9395044
스@@ 9385213
ף 9381653
نا 9376525
ő 9371832
aw@@ 9367086
گر@@ 9349092
res 9348026
ан@@ 9344836
ων 9343582
Qu@@ 9342687
લા@@ 9342332
sem@@ 9340061
ू 9338723
ona 9335083
ય@@ 9328067
も 9321935
ě 9317019
정@@ 9314794
pal@@ 9313934
20@@ 9310844
mak@@ 9308287
fl@@ 9307688
não 9306406
ונ@@ 9305300
25@@ 9303820
kt 9303327
ပါ@@ 9301692
nos 9299517
ά 9297505
ía 9289501
Par@@ 9289180
гу@@ 9287432
для 9286966
ს@@ 9277688
日 9277194
elle 9272481
M 9266041
ry@@ 9264055
200@@ 9263323
ши@@ 9262705
ного 9260547
res@@ 9258968
הש@@ 9258697
ura 9250476
100 9245830
ျဖစ 9245588
ό@@ 9243355
זה 9237851
उ@@ 9232637
ý 9231859
ин@@ 9226882
ών 9219534
ше@@ 9209317
kr@@ 9202491
ნ@@ 9201202
어@@ 9199023
बा@@ 9191838
kun@@ 9185049
40 9181715
cre@@ 9180748
niet 9177003
fel@@ 9176500
ես 9132192
سي@@ 9124159
στην 9121752
ć@@ 9116549
art@@ 9111483
मला 9109407
all 9107868
रे@@ 9101525
mer 9098835
գ@@ 9096045
고 9094301
ટ@@ 9092470
Pre@@ 9090657
נה 9089176
نی@@ 9086404
nap@@ 9083381
15@@ 9077456
mem@@ 9065091
ы 9058597
રા@@ 9055445
თ@@ 9053793
လ@@ 9051302
Α@@ 9050580
ř@@ 9049528
दे@@ 9043647
וב@@ 9035886
asi@@ 9034850
ומ@@ 9030656
자@@ 9030253
ယ 9021278
ver 9020322
ئە@@ 9017463
dra@@ 9015012
ту 9008586
하@@ 9000065
لل@@ 8998751
q 8997691
کو 8997266
ע 8994403
что 8990814
nas 8990540
fi 8987870
ەو@@ 8957087
ئێمە 8956842
ben@@ 8952988
اور 8951590
би 8948666
și 8937272
2010 8937117
ث@@ 8931055
ino 8930858
å@@ 8927667
lar@@ 8927425
lik 8921408
கு 8915033
nej 8912518
inen 8912120
pom@@ 8897679
ните 8892959
uri 8892511
än@@ 8888501
می@@ 8887592
ün@@ 8882537
ύ@@ 8882346
نے 8881008
လို@@ 8875923
è@@ 8871086
Я 8870139
go 8864498
לא 8862694
зи@@ 8861818
לה 8858974
ون@@ 8856235
ide@@ 8855556
ди 8853596
הו@@ 8840907
ға 8840367
ன@@ 8836856
sti 8834646
và 8816230
א 8815709
עם 8811020
iti@@ 8810154
kam@@ 8804422
ئەمە 8801757
רה 8800597
vá@@ 8792811
એ 8790610
ိုင 8788258
T 8778973
ě@@ 8776833
vin@@ 8776822
nost 8776706
dal@@ 8772848
ლ@@ 8772375
rin@@ 8770373
enie 8769085
დ@@ 8758939
ն 8752794
kli@@ 8746795
Ç@@ 8745929
nak 8745688
ง@@ 8742221
dy@@ 8741024
Di@@ 8739078
ین@@ 8738374
# 8732494
وت@@ 8731672
ras 8731500
ie@@ 8729355
cor@@ 8725645
ін@@ 8722094
ры 8720087
り 8716288
ker 8708586
קו@@ 8707971
וי@@ 8706369
سا@@ 8699256
gy@@ 8696262
ь 8694245
ци@@ 8689452
تی 8687408
ler 8687302
han@@ 8680348
ity 8677402
ј@@ 8672615
ہیں 8669527
တ 8669150
гра@@ 8663618
צי@@ 8659259
ger 8659084
ure 8657699
як 8653532
تی@@ 8651785
τις 8646308
gi 8646204
mas@@ 8623984
ري@@ 8614498
У@@ 8613867
سو@@ 8613346
רים 8612801
ung@@ 8609328
တွေ@@ 8606062
he 8601415
16@@ 8595849
сти@@ 8589217
F 8586655
лі 8584848
mil@@ 8580458
ခ 8579773
bol@@ 8577477
ակ@@ 8574441
υ@@ 8572629
ità 8570937
ost 8570857
št@@ 8570400
mə@@ 8568467
あ 8563490
ნა 8555484
ly@@ 8548997
פר@@ 8548950
ێ 8547861
nor@@ 8541658
ich 8539860
ป@@ 8539824
Li@@ 8533025
med@@ 8532853
рэ@@ 8527146
การ 8525574
bet@@ 8522341
В 8521633
vor@@ 8521603
ті@@ 8519916
23 8513851
τους 8512594
được 8509344
انه 8501844
سەر@@ 8500334
اس 8497487
mod@@ 8477195
Kon@@ 8476717
ната 8476326
ડ@@ 8475587
му@@ 8475440
ке@@ 8469079
mag@@ 8462489
هەیە 8461224
bo 8456297
ще 8455895
ত 8450160
مان@@ 8449557
ги@@ 8448912
гэ@@ 8448645
plan@@ 8448070
гі@@ 8447559
ett@@ 8446624
ση 8443128
це 8436102
จะ 8435944
ua 8428079
نو@@ 8425084
cie 8420444
tag@@ 8419359
vý@@ 8413393
ām 8411371
oč@@ 8411043
နေ@@ 8409827
ေတြ@@ 8408092
мы 8405287
tə@@ 8404495
ко 8401452
nar@@ 8392400
R 8390299
טי@@ 8375999
ner 8363290
jen 8344472
ад@@ 8337656
auf 8333858
ர@@ 8328197
لا 8327832
dig@@ 8326747
eren 8322373
ille 8321531
पण 8318905
що 8314967
ė 8311852
ých 8306491
ท@@ 8303642
bal@@ 8300785
ہ@@ 8298841
š 8298126
Bu 8296950
ह 8295967
인@@ 8295250
ly 8286911
सर 8285792
ante 8283560
hel@@ 8281858
UE 8277684
1.@@ 8275059
ná@@ 8268212
ج 8261163
far@@ 8260110
ри 8250492
28 8247556
พ@@ 8243834
პ@@ 8240864
ilo 8240118
Sch@@ 8234188
ari@@ 8233617
2015 8232245
Р@@ 8231402
े 8231367
of@@ 8230674
ú 8228613
الت@@ 8221311
ட@@ 8218317
κα@@ 8215839
इ@@ 8214632
ख@@ 8209399
کر@@ 8205193
12@@ 8196851
ای 8195693
વિ@@ 8194138
St@@ 8193926
smo 8188747
ब 8186722
ге 8186624
လူ@@ 8180351
եմ 8175739
ks 8174136
ore 8165866
ít@@ 8165244
esi@@ 8163654
zen 8159362
ပေါ 8159298
થી 8156029
တွေကို 8147041
הפ@@ 8145512
For@@ 8137601
Pol@@ 8130614
sobre 8123817
ның 8120566
ilor 8117246
전@@ 8116941
일 8113818
ય 8113518
προ@@ 8113259
τον 8111897
13@@ 8109607
gal@@ 8108255
ச@@ 8107928
sit@@ 8106718
주@@ 8097891
מש@@ 8096448
ვ@@ 8096090
gen 8094453
amos 8087962
သူတို 8085728
ပဲ 8083970
land 8083391
վ@@ 8079561
стра@@ 8075397
か 8072103
gr@@ 8067794
تو 8060168
স 8058587
မှု@@ 8048912
နှစ 8048890
دي@@ 8042205
зо@@ 8041455
سی@@ 8040895
ম@@ 8038728
mé@@ 8038706
uni@@ 8025546
ken@@ 8025184
စ 8020930
sti@@ 8020075
ır@@ 8019398
fil@@ 8018048
кі@@ 8015978
Ma@@ 8013510
ข@@ 8011743
եք 8007416
ht@@ 8004443
δι@@ 7999121
ité 7996061
یہ 7993156
ჲ@@ 7991603
रि@@ 7991358
lev@@ 7986779
בר@@ 7986698
bor@@ 7986146
ત@@ 7985710
isi 7984556
ego 7984207
hu 7983356
στο 7980445
ন 7977355
ки@@ 7968303
さ 7965382
pas 7959170
jet@@ 7956327
organiz@@ 7953884
ך 7952709
દ@@ 7948610
pār@@ 7947383
だ 7946218
रो@@ 7943560
בא@@ 7942753
ره 7942552
вы 7941021
oli 7940997
mit@@ 7938260
ной 7926533
ei@@ 7923223
medi@@ 7918474
nes@@ 7914608
مر@@ 7913390
mes@@ 7912750
ih@@ 7912620
ပြော@@ 7908728
sor@@ 7908211
án 7907912
યા 7901834
2008 7901431
ευ@@ 7898174
דה 7895526
vé@@ 7895332
યું 7893666
եր@@ 7891503
* 7888770
բ@@ 7887204
ား@@ 7886026
هم 7885518
len@@ 7882498
ner@@ 7880440
제@@ 7879601
ব@@ 7879373
stra@@ 7875646
نە@@ 7875096
aa 7873234
ری@@ 7867309
بۆ@@ 7857819
dei 7857421
હ@@ 7856013
ze@@ 7854023
ook 7847730
ก 7844145
चे 7841045
εν@@ 7834717
Đ@@ 7828226
kov@@ 7824190
sia 7823143
Ка@@ 7823071
에서 7822979
ет 7816764
dat@@ 7806463
ova 7804269
în@@ 7801676
oper@@ 7798346
ές 7797392
کرد 7794609
вер@@ 7793934
kom 7792725
आम 7788643
06 7787875
ıl@@ 7787233
ou@@ 7779739
mais 7776894
הק@@ 7776432
net 7775536
ல 7765657
แ@@ 7760990
không 7760374
ნა@@ 7759249
14@@ 7755236
má@@ 7754239
ნვ 7753456
vr@@ 7753033
2009 7744169
ky@@ 7742067
ო@@ 7740064
ole 7735491
enia 7733222
don@@ 7726840
go@@ 7726381
Fran@@ 7723748
လည 7723009
site 7720700
att@@ 7717160
દ 7714473
ības 7713832
apa 7703876
į@@ 7698571
す 7697174
δεν 7690094
هەموو 7689690
eli 7684258
2007 7683274
도 7682961
eni@@ 7677793
ი 7671672
Die 7668363
br@@ 7666974
ए@@ 7665006
一@@ 7664291
ер@@ 7663743
vid@@ 7661880
ga@@ 7661687
კ@@ 7660924
ว 7648685
այն 7648283
ێ@@ 7642591
we@@ 7636528
ında 7634186
dette 7631747
27 7631301
ši@@ 7628253
ier@@ 7627890
না 7626779
الح@@ 7622025
ол@@ 7621689
ရှိ@@ 7616134
လက 7612672
მ 7608524
dob@@ 7607020
mü@@ 7600973
ۆ@@ 7595262
शा@@ 7593435
nog 7593148
či@@ 7590098
nek 7589081
επ@@ 7588554
nych 7587742
लि@@ 7581323
sil@@ 7581247
ड@@ 7580730
ပ 7579347
għall 7569588
با 7565650
nad@@ 7552632
є@@ 7552406
ایک 7552210
ca@@ 7547797
• 7544584
бай@@ 7544389
ယ@@ 7542672
ध@@ 7540954
من@@ 7540363
پی@@ 7536514
jest 7535891
ando 7531348
sten 7530620
iem 7529567
ती@@ 7526842
še 7522819
fa@@ 7515987
ական 7509462
η@@ 7507367
asi 7507173
end 7505831
gar@@ 7500304
Jeg 7499407
ł 7498115
00@@ 7498000
ай@@ 7496113
дэ@@ 7489534
ību 7489417
них 7486757
son@@ 7485826
ကိုယ 7483009
પણ 7482619
أن 7474020
עי@@ 7473534
συν@@ 7465892
ein 7465061
K 7463452
ာ 7462001
ся 7460526
nik 7459771
għ@@ 7459608
тел@@ 7457719
blev 7456552
ля@@ 7453303
jel@@ 7452815
by@@ 7448421
စိတ 7447943
ե@@ 7447480
saya 7446670
일@@ 7446564
보@@ 7446086
ned@@ 7442250
Po@@ 7441495
ər@@ 7438549
dir 7424428
ու@@ 7419815
ori 7418860
으로 7416854
,@@ 7416308
수@@ 7415019
다 7413724
шы@@ 7413167
ше 7412710
yt@@ 7412345
2.@@ 7411280
З@@ 7408926
60 7408634
ン@@ 7405108
кон@@ 7400455
isi@@ 7395252
nije 7393139
vat@@ 7391665
є 7391054
ui 7380353
ենք 7377427
пер@@ 7375686
ध 7375111
हैं 7374027
emb@@ 7369558
rad@@ 7369424
US 7367049
ー 7366970
גי@@ 7364464
las@@ 7362053
ล 7352091
сы 7349200
Per@@ 7344478
ல@@ 7344131
հ@@ 7342852
uit@@ 7342072
net@@ 7340255
εκ@@ 7336186
חי@@ 7335268
র 7330924
Č@@ 7325111
nam@@ 7324912
kra@@ 7324480
નો 7323444
байна 7321914
mun@@ 7316637
लं 7315400
הר@@ 7311556
ím 7309426
ول@@ 7306767
आपण 7306684
kin@@ 7297202
ция 7292382
ได้ 7291275
ү@@ 7289093
ام 7287637
ฉัน 7287547
soci@@ 7286056
uj@@ 7283389
jan@@ 7274044
egy 7272292
ခင 7271007
pel@@ 7260673
fic@@ 7254190
und@@ 7253299
չ@@ 7250382
пе@@ 7249099
En@@ 7248022
2011 7242422
ま 7242332
ár@@ 7238455
ბ@@ 7236352
도@@ 7235221
그@@ 7233229
aby 7233083
कर@@ 7232834
Mi 7231955
you 7231689
ған 7228803
eine 7228498
2006 7224591
31 7220512
Vi@@ 7220179
tie 7218754
فر@@ 7218474
kā 7215530
آپ 7206518
N 7204251
Σ@@ 7203397
ES 7201160
аль@@ 7195268
স@@ 7192609
Ne 7190905
ထား@@ 7183385
nä@@ 7177658
나@@ 7176711
dr@@ 7175514
ης 7174797
сы@@ 7171092
တာ 7165869
ör@@ 7163974
gl@@ 7163906
në 7162516
kö@@ 7159252
eng@@ 7158274
نہیں 7156397
یە 7155263
dec@@ 7147830
ved 7147027
Ε@@ 7141156
ці 7133831
sm@@ 7127996
ks@@ 7127977
နည 7127329
isk 7127100
קי@@ 7126415
tos 7123552
რ@@ 7123178
zam@@ 7121446
ด 7115479
ст 7115437
sig@@ 7114107
pad@@ 7113008
trong 7110251
یا 7109486
ға@@ 7101778
Presidente 7100954
هە@@ 7099176
är@@ 7097146
with 7093235
کە@@ 7090708
İ@@ 7089542
inform@@ 7087163
pun@@ 7073909
εξ@@ 7069775
ovat 7069575
07 7068063
star@@ 7067142
Su@@ 7063876
26 7056547
За@@ 7056380
ว่า 7055117
erne 7048877
ン 7043829
kako 7033905
tai 7029710
Le 7028633
2014 7028083
G 7026833
ove 7026091
ნ 7017278
لێ@@ 7013044
ով 7012314
Ber@@ 7010164
nes 7007326
ң@@ 7003011
ск@@ 7000059
მ@@ 6996446
dol@@ 6994853
ел@@ 6992534
ց@@ 6991897
worden 6985997
pla@@ 6977332
pred@@ 6977014
кра@@ 6975611
کا 6974207
ron@@ 6971737
શ@@ 6968229
2012 6964615
29 6963395
ژ@@ 6962986
լ@@ 6961718
ný 6961395
ری 6961172
မွာ 6957414
לי 6943733
eti@@ 6941702
pak@@ 6941638
ese 6939629
maj@@ 6939502
ια 6935665
қ@@ 6929120
תו 6929042
vet@@ 6927605
jas 6925510
sec@@ 6923705
sé@@ 6922746
Com@@ 6918781
Aku 6917391
ame 6917278
ική 6917114
£ 6909648
kre@@ 6906154
ून 6906015
ने@@ 6903457
ώ@@ 6900513
הנ@@ 6897307
ەکانی 6896594
בע@@ 6894301
ew@@ 6893479
lig 6891255
ո@@ 6890304
fuq 6888456
Kar@@ 6886009
ဆို@@ 6882063
ön@@ 6879432
ထ@@ 6876886
ή@@ 6872200
ίας 6866695
مع@@ 6859466
մի 6856142
lam@@ 6854799
う 6853895
ну 6852307
тер@@ 6851810
ungen 6851645
ा 6847821
ற 6846014
gro@@ 6842744
لي@@ 6841954
ից 6839752
sig 6839332
ü 6837551
inti 6834574
تم 6834260
وی@@ 6827539
kop@@ 6819608
neg@@ 6819526
ץ 6818987
ပေး@@ 6818953
ien 6816703
tes 6816502
کان 6816102
indi@@ 6812861
мі 6811852
É 6806312
ەی@@ 6806103
ح 6804939
ய@@ 6801092
huwa 6800052
nev@@ 6799904
ire 6798361
lá@@ 6797821
ont 6796740
רות 6795937
გა@@ 6794345
שה 6793716
ကျ@@ 6792770
ပြ@@ 6790986
untuk 6789528
มี 6788544
भी 6788417
επι@@ 6788023
У 6783992
Ф@@ 6772066
ol 6769957
Ш@@ 6768913
ุ@@ 6768375
biex 6767843
rz@@ 6764446
пла@@ 6763034
کی@@ 6759140
kau 6758986
رو 6755100
आपल 6753302
lu 6752887
skal 6751510
મા@@ 6747575
הג@@ 6746554
ισ@@ 6746338
rer 6744191
лу@@ 6744178
า 6740240
kri@@ 6736789
કા@@ 6732844
کۆ@@ 6732826
mill 6726617
ї 6726606
hen@@ 6721962
tidak 6719340
ไป 6710737
č 6709432
ουν 6706830
хэ@@ 6706801
ง 6706328
کہ 6705514
ซ@@ 6704658
中 6704335
pli@@ 6704314
kh@@ 6703080
कार 6697489
пі@@ 6695780
ής 6692021
दि@@ 6690830
ll@@ 6689972
խ@@ 6688077
ர 6688053
sc@@ 6687332
ற@@ 6685992
ät@@ 6685612
यात 6684687
ды@@ 6683078
ә@@ 6682867
2013 6678704
ella 6678419
ain@@ 6677492
тэ@@ 6668088
seg@@ 6655220
esi 6654941
ချ@@ 6652576
Mon@@ 6652535
קה 6649570
né@@ 6649469
más 6646355
0.@@ 6644395
আমি 6644262
can@@ 6641819
ii 6641079
jer@@ 6639580
пере@@ 6638992
առ@@ 6638915
تێ@@ 6633622
תי 6633486
пу@@ 6632971
қы@@ 6630907
тай 6629076
zo 6628296
wa 6628182
फ@@ 6627657
minist@@ 6624446
चा@@ 6623133
नी 6621761
oma 6620752
lik@@ 6618313
aliz@@ 6610705
ace 6609621
շ@@ 6602355
ει@@ 6602081
sar@@ 6601102
थ@@ 6600727
ца@@ 6600612
Μ@@ 6597617
је 6592340
ատ@@ 6588063
Na 6587182
ust 6586762
ڵ 6586391
wa@@ 6580290
emos 6579928
bat@@ 6578391
át 6573862
aju 6571549
ช@@ 6567923
Π@@ 6567914
б 6564649
ija 6563808
Parlamento 6563768
ení 6563389
भा@@ 6561501
pag@@ 6557909
yar@@ 6551093
sav@@ 6550390
दा@@ 6545532
мы@@ 6537983
ئێستا 6534529
tig@@ 6531917
По@@ 6529660
нэ@@ 6528880
sat@@ 6526176
chi@@ 6526042
աց@@ 6525838
ند 6525449
bur@@ 6523456
ž 6519707
کردنی 6518044
ları 6515264
som@@ 6514473
सु@@ 6514000
kk@@ 6513700
sá@@ 6510140
iş@@ 6507774
סו@@ 6507582
الج@@ 6507024
nen 6501413
ства 6498065
led@@ 6497660
إلى 6496623
mes 6495246
지 6488499
це@@ 6486803
dell' 6486505
ξ@@ 6485067
ဒါ@@ 6484327
lat@@ 6483912
pré@@ 6483793
န@@ 6481364
כי@@ 6479235
ოჲ@@ 6475680
ents 6475392
ေန@@ 6472078
हाला 6468827
री@@ 6466134
mos 6465970
הח@@ 6461937
poz@@ 6460173
มา 6459058
تۆ 6456973
ု@@ 6447642
fac@@ 6446512
кө@@ 6446451
ler@@ 6446433
kao 6438043
бол@@ 6434942
ции 6431195
или 6426343
ći 6425084
ό 6423476
ิ@@ 6417781
अस@@ 6413755
ய 6411052
ue 6410144
alis@@ 6406605
ach 6403457
პა@@ 6394502
ig 6391789
უ@@ 6389299
Ek 6381633
1,@@ 6376452
ष@@ 6375893
ချင 6373958
لة 6372777
होते 6372333
А 6365680
ক 6365480
फ 6364952
mm 6363754
တာက 6358189
נים 6357805
τα@@ 6357359
area 6351045
24@@ 6350604
する 6349416
юм 6348964
også 6348412
ques 6345682
dar 6339763
str@@ 6338125
ast 6336539
مە@@ 6332016
nav@@ 6329901
ay 6328127
ەر@@ 6327987
خۆ@@ 6327611
イ@@ 6326626
sko 6323401
anje 6321520
aan@@ 6321442
သွား@@ 6319620
اری 6312239
ئەگەر 6310371
80 6310118
bre@@ 6307095
ване 6303559
প@@ 6297926
bek@@ 6297357
энэ 6295781
uta 6293865
ses 6290195
wer@@ 6289390
ane 6288687
부@@ 6287708
ón 6283972
הצ@@ 6283801
رة 6279964
კა@@ 6276658
الق@@ 6275270
mis 6274719
ख 6272991
ကောင 6272319
有 6271814
nek@@ 6270902
hor@@ 6263814
યો 6258341
pres@@ 6257892
entre 6257154
μα 6253349
နောက 6253053
anda 6252800
גם 6252565
არ@@ 6252315
nat@@ 6251304
ги 6245402
vai 6244332
ડ 6240256
len 6238496
¿ 6238485
لو@@ 6238361
inā@@ 6236322
ား 6235573
vz@@ 6234131
> 6227897
اب@@ 6224450
ху@@ 6223470
beg@@ 6222932
ظ@@ 6222099
под@@ 6221015
isen 6217428
سی 6214345
ქ@@ 6212350
vil@@ 6212061
যা@@ 6209812
ति@@ 6207759
வி@@ 6204423
dev@@ 6203003
fon@@ 6199362
Ко@@ 6198150
ավ@@ 6196371
nh@@ 6195581
01 6188702
তে 6188138
اس@@ 6184622
plat@@ 6184263
nicht 6182460
ရာ@@ 6181337
구@@ 6179407
해@@ 6176976
הכ@@ 6174635
â@@ 6169531
မဟုတ 6168929
ges@@ 6163301
lag@@ 6161677
ved@@ 6161418
tiv@@ 6161210
гэта 6159826
aus 6159404
ू@@ 6152622
denne 6151455
Se@@ 6151055
гэж 6150328
tom@@ 6144356
ғы@@ 6140689
have 6136893
тра@@ 6135241
πο@@ 6133192
esti 6132873
sono 6130257
din@@ 6129157
းက 6121672
¾ 6119259
Car@@ 6119043
Ма@@ 6115708
X 6113202
ningen 6112960
alt@@ 6112918
vir@@ 6112743
आहेत 6112214
गा@@ 6112053
동@@ 6109896
szer@@ 6106672
ႈ 6105945
år 6105554
nim 6103219
ပို@@ 6100652
bas@@ 6098912
၁@@ 6098848
2005 6097814
או 6097477
зу@@ 6091795
Q@@ 6087828
ના@@ 6082952
ই 6082946
不@@ 6082763
Bar@@ 6082393
ert 6080404
tran@@ 6079498
сво@@ 6078895
Κ@@ 6078492
öl@@ 6077366
தி@@ 6073633
нд 6070297
лю@@ 6068659
लिए 6068083
상@@ 6065250
ке 6064507
ные 6063460
aus@@ 6062911
ema 6062821
nis@@ 6062460
set@@ 6062084
ım 6059519
uv@@ 6056892
lem@@ 6054665
ەیەکی 6051716
δια@@ 6049646
रा 6049300
ամ@@ 6044241
kil@@ 6043553
amento 6040195
kap@@ 6039208
لەسەر 6038867
דים 6038669
对 6037942
aik@@ 6036879
alt 6032906
「 6031500
ţ@@ 6031034
azione 6030828
मि@@ 6029980
ty 6029202
」 6026906
တကယ 6025293
？ 6023493
απ@@ 6021276
ye 6020625
એ@@ 6019917
tö@@ 6015805
तात 6010183
ın@@ 6008857
lis@@ 6008491
ς 6007646
Mo@@ 6006950
ač@@ 6005738
už@@ 6003084
2000 6002804
minn 5999376
သိ@@ 5998996
ι 5998019
entes 5997202
lj@@ 5994938
ρο@@ 5993467
وي@@ 5993454
able 5991978
Ж@@ 5988728
यक 5987744
sion 5985305
ন@@ 5984788
ľ@@ 5984619
ą@@ 5983287
ede 5982859
会 5981060
sim@@ 5980021
tar 5979856
요 5977084
olog@@ 5972049
ros 5971997
пры@@ 5970844
ала@@ 5970610
bev@@ 5970181
oss 5969543
hy@@ 5967139
પર 5965367
nos@@ 5964127
היה 5962551
ဝ@@ 5951842
ná 5951058
nom 5950046
jer 5949336
tre 5948363
ա 5948056
tem 5943105
ს 5935393
תי@@ 5934022
Man@@ 5933369
avi@@ 5931405
its 5930837
jy 5927035
usi 5925819
הס@@ 5925636
fik@@ 5924973
meng@@ 5922532
pri 5922047
ала 5921065
לא@@ 5920718
ဆ@@ 5918500
תו@@ 5917398
lé@@ 5917376
પા@@ 5917168
jem 5916999
く 5916760
ံ@@ 5914949
ola 5913614
ase 5912849
kommer 5912552
Er@@ 5910307
under 5909263
бол 5909136
No 5908139
قا@@ 5906720
ێن@@ 5905208
بەر@@ 5896629
ին@@ 5892303
ەیە 5892255
ધ@@ 5891935
ən 5889895
אר@@ 5887720
το@@ 5886397
jak 5886263
ті 5882570
ве 5882115
વ 5881673
ng 5880542
ळ@@ 5880264
ess@@ 5875766
大@@ 5873915
tot 5869990
คุณ 5868711
마@@ 5866846
라@@ 5865000
nal@@ 5863407
ங 5861389
ஒரு 5859368
כל 5858059
ment@@ 5856734
vien@@ 5854185
நீங 5853526
ဘူး 5848323
ным 5847693
לו 5847445
ασ@@ 5846163
pro 5844550
eva 5838835
dari 5838104
лы@@ 5837885
απο@@ 5836778
parti@@ 5832915
H 5829857
megjelenítése 5829741
دەر@@ 5827831
maar 5824641
vis 5824263
ခြင 5823803
sur@@ 5823617
רת 5823266
Ex@@ 5823241
ભ@@ 5823205
պ@@ 5822413
ল 5821109
Л@@ 5812531
ство 5811492
ach@@ 5811357
dad 5807128
ç 5805573
আ@@ 5804012
ષ@@ 5802837
고@@ 5802031
cam@@ 5801765
הם 5800611
parte 5800395
stav@@ 5800114
cent@@ 5799788
polit@@ 5797437
pot@@ 5795811
과 5795306
werden 5793285
dengan 5792624
որ@@ 5791785
ण@@ 5789867
produ@@ 5789621
ння 5788699
put@@ 5787871
ဆိုရင 5785271
Та@@ 5784761
sak@@ 5784630
ჟვ 5783097
př@@ 5782534
này 5777707
ся@@ 5777596
gre@@ 5777545
ento 5776752
fol@@ 5772001
ကိန 5771272
Ter@@ 5770931
ige 5765893
તા 5763958
org@@ 5763427
国 5762318
jav@@ 5758280
ပိုင 5757207
ard 5756154
ais@@ 5755447
کاتێک 5754326
eti 5753322
tôi 5752110
chen 5751061
ဂ@@ 5750318
ال 5749562
alo 5749353
ီ@@ 5748452
मध 5745477
בת@@ 5744893
¡ 5743774
best@@ 5742018
вя@@ 5735382
ё@@ 5735319
Non 5734627
Be@@ 5733605
ερ@@ 5733123
ute 5733099
ür@@ 5730306
া 5728857
وەک 5728485
ade 5723283
์ 5723034
ள@@ 5721501
Bi@@ 5721343
sie 5718089
hat@@ 5717120
કર@@ 5716813
ကြည 5709906
لی@@ 5709894
Bo@@ 5709168
nel 5709165
bud@@ 5708027
ու 5703227
ائ@@ 5700579
աս@@ 5699361
ných 5696654
asa 5695379
ক@@ 5693889
성@@ 5693854
ят 5692107
اد@@ 5691773
ning@@ 5691727
Τ@@ 5691485
het@@ 5691352
lä@@ 5690873
تان 5688341
بن@@ 5686637
għal 5684835
ně@@ 5683347
fe@@ 5682566
ż 5680592
ong 5677961
To@@ 5677294
vu 5673448
sich 5671705
fun@@ 5663830
kes@@ 5663279
ée 5662211
Sie 5661580
tot@@ 5661460
sty@@ 5661103
ա@@ 5660935
ties 5660819
kaj 5660630
Ez 5658937
dig 5658561
poč@@ 5656777
ني@@ 5655961
زی 5655157
năm 5651352
plus 5648905
cho 5648505
ду 5648454
ะ 5642863
Ti@@ 5637672
iki 5637450
ရှင 5634587
ω 5631517
μα@@ 5630893
sub@@ 5630864
El 5630791
dzi@@ 5630514
กับ 5627298
än 5626137
war@@ 5622532
let 5621488
dz@@ 5617005
तील 5616312
if@@ 5614667
так 5612703
від@@ 5611692
ले@@ 5608213
இ@@ 5606448
ε 5605781
ये@@ 5600823
கு@@ 5600667
elt 5599052
spor@@ 5598695
ovo 5595573
نج@@ 5595161
ota 5594748
dur@@ 5594265
ener@@ 5594194
žen@@ 5592727
ের 5592391
tin 5590450
чы@@ 5590172
zu@@ 5585899
있@@ 5581380
hod@@ 5580507
være 5579997
อ 5579912
ys 5579867
ô@@ 5575989
ني 5575267
Э@@ 5574643
યા@@ 5572070
ந 5571486
tra 5567138
umu 5564558
Не 5562395
ყ@@ 5559676
enti@@ 5558289
sto 5556724
aci@@ 5555538
मु@@ 5554036
לים 5551474
Kom@@ 5547686
nou 5545307
же 5544893
2004 5543347
хи@@ 5543075
याला 5540770
θε@@ 5537425
tul@@ 5536086
bil 5536017
νο@@ 5535891
nj@@ 5534836
انەی 5534494
bra@@ 5533673
မိ@@ 5531232
ტ@@ 5530163
cija 5529144
bed@@ 5529053
מא@@ 5527459
adas 5525871
hom 5523523
भ@@ 5521665
ime 5520405
up 5520022
شت 5520009
다@@ 5519890
yra 5518655
წ@@ 5517534
Ac@@ 5514359
чу@@ 5512613
kas@@ 5511902
▁่ 5511861
دان@@ 5508284
ות@@ 5506896
land@@ 5505371
لەگەڵ 5504344
90 5504325
را 5501502
წ 5500029
aka 5499263
એક 5496566
issa 5496365
pet@@ 5495689
nego 5495208
ft 5491854
lich 5490249
ไ@@ 5487231
로@@ 5485822
ဖ@@ 5485718
الك@@ 5483361
jew 5481161
સા@@ 5481110
ဆက 5478648
zy@@ 5476813
eg 5475798
fost 5474009
पूर 5473713
ania 5473118
ร 5472332
wie 5472237
էր 5470972
this 5466512
од 5465890
า@@ 5464315
мо 5463061
ဒါက 5462888
Եվ 5462790
ڕو@@ 5461186
ん 5460763
این 5460538
not 5459734
ထပ 5459416
அ@@ 5456618
장@@ 5455668
lige 5454748
samo 5454714
ে@@ 5454037
най 5451891
Uni@@ 5451534
ry 5451278
მა@@ 5450932
vu@@ 5450213
الإ@@ 5449904
ઇ@@ 5448495
者 5445989
үү@@ 5438038
bru@@ 5436427
ગ 5436261
यासाठी 5436052
waar@@ 5435669
سە@@ 5435523
тал@@ 5434583
сан 5434199
qu' 5433488
esto 5433409
сь 5433223
yn@@ 5432272
vas 5432139
08 5428140
bun@@ 5424922
delle 5424501
baş@@ 5421863
ба 5420920
он 5420517
ખ@@ 5420243
ab 5420066
gener@@ 5416519
في@@ 5413953
ઓ@@ 5411731
voor@@ 5409243
ों 5407764
一 5407749
inc@@ 5407681
ط 5406481
ster@@ 5405539
\ 5402577
રિ@@ 5402540
uri@@ 5399639
ության 5399499
cio 5398624
ဘ@@ 5398155
第 5397328
cht@@ 5397120
arī 5396492
dass 5391878
tako 5391161
ქ 5390304
ck@@ 5388085
dos@@ 5386127
meg 5381305
কর@@ 5377490
ους 5374338
кла@@ 5374140
εί@@ 5372295
fl 5372153
ပုံ@@ 5371769
नहीं 5370172
uto 5370078
ကြီး@@ 5368295
Hotel 5367171
ते@@ 5364440
пред@@ 5364117
टी 5361589
די 5361411
bli@@ 5360698
kun 5359910
ml@@ 5358822
crawl 5356056
î@@ 5355449
ву@@ 5353296
rig@@ 5350873
pkoehn 5350177
היא 5349804
nas@@ 5345307
czy@@ 5344871
ır 5342288
ден@@ 5341697
он@@ 5341473
ś@@ 5340980
रे 5340033
Het 5336822
کو@@ 5336803
Si@@ 5336802
eno 5336781
ovan@@ 5329512
tut@@ 5328454
ē 5326270
मे@@ 5325689
Or@@ 5320543
egy@@ 5319210
yk@@ 5318811
ұ@@ 5318602
од@@ 5317845
ış@@ 5316347
গ@@ 5315877
공@@ 5313323
مة 5313229
hə@@ 5310532
κο@@ 5310061
ફ@@ 5308118
து@@ 5306571
person@@ 5306104
ajo 5305598
چی 5302133
ەک@@ 5297436
ён 5296551
ည 5296490
عة 5294452
ז 5293392
3.@@ 5292516
מת@@ 5292225
הב@@ 5291007
לכ@@ 5290544
ուն@@ 5290494
ос@@ 5289953
မွာ@@ 5282421
zar@@ 5280478
svar@@ 5280130
ני 5279182
÷ 5278232
70 5277235
ڕۆ@@ 5275885
ran 5274682
get@@ 5273878
دم 5273087
bat 5271687
Så 5270369
ря@@ 5269507
ло 5265121
lai 5263376
num@@ 5262785
Bel@@ 5258321
eden 5252014
kot 5250117
કરી 5249968
ნვ@@ 5249196
sə@@ 5247634
not@@ 5247207
vot@@ 5246255
الس@@ 5244911
ဒ@@ 5243918
ိ@@ 5242256
сте@@ 5240302
ள 5239696
上 5238391
းေ@@ 5236863
হ@@ 5236254
ket 5232124
বা@@ 5231879
ء 5231667
enta 5230487
რვ 5230091
行 5228385
ζ@@ 5228104
Min@@ 5227810
4.@@ 5227803
ца 5227328
Se 5226590
ké@@ 5225633
ো@@ 5224831
iden 5224495
cri@@ 5223722
ını 5222433
から 5222123
ვე@@ 5219887
tun@@ 5219865
esz@@ 5217609
ต 5216543
ý@@ 5209050
ech@@ 5208600
Her@@ 5207433
वे@@ 5207055
פו@@ 5206992
ss@@ 5204181
vit@@ 5202000
થ@@ 5201835
ъ@@ 5201545
uč@@ 5201380
osti 5200324
35 5199427
І@@ 5198487
دەبێت 5198265
И 5197262
းကို 5196556
று 5184312
hol@@ 5183582
αρ@@ 5182955
2018 5181352
زان@@ 5178300
》 5177133
گە@@ 5176750
《 5176269
ծ@@ 5175674
ico 5175594
য@@ 5175090
კჲ@@ 5174986
bet 5173805
ische 5168088
lad@@ 5165261
Z 5164335
fri@@ 5162701
ယူ@@ 5161510
हो@@ 5161112
રે@@ 5160243
spre@@ 5160048
vod@@ 5159677
リ@@ 5159503
ına 5158466
منداڵ@@ 5155152
ira 5152106
nen@@ 5151787
pis@@ 5150802
iske 5149395
ек@@ 5149368
Ž@@ 5148964
зі@@ 5146090
está 5143071
အတွက 5142242
Por 5140680
거@@ 5140577
hebben 5139928
ass@@ 5138927
mnt 5138039
acc@@ 5136645
႔@@ 5135265
તો 5132912
Ik 5131415
בין 5130509
को@@ 5130132
دن 5129933
tab@@ 5129194
гүй 5125889
การ@@ 5121520
چه 5120829
ssd 5120520
کیا 5118244
Ne@@ 5117049
det@@ 5116623
mě@@ 5113367
Az 5112667
בה 5112240
antes 5110264
фи@@ 5108193
၀@@ 5107189
fra@@ 5103668
Nor@@ 5101733
ono 5100233
كه 5100190
· 5099619
nam 5099466
дел@@ 5098634
يا 5096171
हो 5095239
ets 5093952
2017 5090946
法 5090612
Ü@@ 5089497
đã 5086097
为 5085630
של@@ 5080247
almente 5079201
lər 5077185
use 5077114
काही 5076068
माझ 5075986
спа@@ 5075783
Og 5075683
Est@@ 5072655
زی@@ 5072612
ई 5071837
اوە 5069026
તા@@ 5068943
여@@ 5064810
fu@@ 5064443
Reg@@ 5063873
мал@@ 5062498
Podujatia 5061087
wat 5060991
jā@@ 5059973
deze 5058111
מים 5055621
zvolený 5055569
هێن@@ 5051779
daha 5045844
ļ@@ 5045251
के@@ 5045121
mad@@ 5045108
են@@ 5044770
deò 5043994
мер@@ 5043480
ši 5042099
ем 5041973
яго 5041904
speci@@ 5039440
ден 5039041
שו@@ 5038035
մենք 5035930
eks 5035094
AN@@ 5034606
ott 5033838
elles 5033501
ј 5030479
sn@@ 5029473
спо@@ 5027540
ે 5026065
לק@@ 5025900
én 5025471
ခ@@ 5024940
ா@@ 5024274
ores 5023895
hat 5023456
hi 5023417
oš@@ 5022588
ા 5021108
dag 5020709
mal 5019468
िक 5019033
ligt 5016889
Ч@@ 5016318
09 5016103
vb 5013978
경@@ 5013085
iku 5012944
ლთ 5012745
စာ@@ 5010875
Dan 5008622
cit@@ 5007449
دی 5006994
Eiropas 5005320
taa 5003345
uc@@ 5002851
ví@@ 5002516
નું 5002506
ও 5002093
کرد@@ 4999155
원@@ 4991716
ア@@ 4991556
koje 4989886
ություն 4989060
tt 4988754
מע@@ 4988437
това 4986230
ห@@ 4985677
па 4984886
ρι@@ 4981524
nin 4979486
هەڵ@@ 4978440
ở 4973305
роз@@ 4972944
anie 4971466
ance 4969798
jos 4968566
anja 4966019
vor 4964410
ნჲ 4964129
ル 4962565
ら 4960689
tam 4958015
ero 4957975
ル@@ 4956412
ี 4953426
שנ@@ 4951154
heeft 4949081
미@@ 4946938
Le@@ 4946636
вам 4946444
ный 4943473
ру 4941139
като 4936021
mot@@ 4933187
յ@@ 4932058
دروست 4931389
Val@@ 4930919
ber 4929586
eda 4928576
ો 4926198
오@@ 4925439
situ@@ 4921992
inde 4921184
નિ@@ 4918965
amb@@ 4916910
কে 4914251
եր 4913177
fal@@ 4911325
ত@@ 4910194
՞ 4906626
थ 4903878
သူ 4902292
था 4900560
այ@@ 4900112
cin@@ 4898891
פה 4898621
sem 4896835
ουμε 4894943
ste@@ 4894214
ν 4893346
πα@@ 4890864
ß@@ 4890653
وا 4889400
mog@@ 4885300
ски 4883574
ey@@ 4883125
کردن 4882831
zak@@ 4882656
와 4881456
projek@@ 4880899
till@@ 4880797
kita 4879529
kov 4877829
vet 4877555
uti 4876662
bio 4875365
נו 4873196
চ@@ 4871299
તે 4870969
's 4870964
kum@@ 4870260
hin@@ 4869496
için 4868195
性 4867244
τη@@ 4866407
azzjoni 4866188
anti@@ 4865889
ચ@@ 4865048
сэн 4864557
pir@@ 4864347
હતી 4863029
يه 4862136
ラ@@ 4861679
dre@@ 4859885
wir 4859092
dien@@ 4853079
их 4853037
eu 4852645
ĉ@@ 4851632
גו@@ 4851586
دوو 4851537
pil@@ 4849789
ess 4847869
moet 4847195
invest@@ 4844909
dade 4843686
ா 4839658
႕@@ 4839133
유@@ 4837801
မှာ@@ 4837413
бы@@ 4837103
கா@@ 4836694
য 4834264
فا@@ 4832297
ার 4831957
dru@@ 4828682
kit@@ 4827543
jag 4827530
ံ 4826961
ê 4825949
ering 4825938
의@@ 4823810
ে 4822485
оло@@ 4820990
чи 4819552
тре@@ 4815130
વી 4815029
ň@@ 4814464
到 4813436
čno 4812705
üçün 4811587
23@@ 4809818
Evrop@@ 4806706
လေ 4805871
list@@ 4805107
بار@@ 4804005
জ@@ 4802973
nej@@ 4802799
ရေး@@ 4802422
inst@@ 4801815
जो 4798790
tā 4798387
ανα@@ 4797196
တာပါ 4797091
tis@@ 4796427
bro@@ 4795478
اون 4793372
ative 4787550
بر 4787034
koh@@ 4786803
λι@@ 4786267
če 4786019
log@@ 4784350
דו@@ 4784152
jak@@ 4782363
teh@@ 4781441
ศ@@ 4780890
më 4780634
ပါဘူး 4779557
ekonom@@ 4777203
dy 4776942
tis 4770007
よ 4769022
ici 4766457
ایی 4766385
ნთ@@ 4763969
prí@@ 4763354
조@@ 4762252
นี้ 4761944
ွ@@ 4760388
ura@@ 4758709
선@@ 4755031
ã@@ 4754269
প 4753360
onder@@ 4750457
جو@@ 4749845
eš@@ 4748880
бра@@ 4748664
sist@@ 4748663
ี@@ 4747202
taj@@ 4747011
iss@@ 4745096
وہ 4744546
တည 4742785
άν@@ 4741462
IN@@ 4739549
소@@ 4737740
ু@@ 4737559
auch 4737435
শ@@ 4735153
inten@@ 4733696
via 4733211
ност 4732378
той 4732294
Pi@@ 4732162
mod 4731178
Ab@@ 4729221
တန 4728803
05 4726370
الش@@ 4726367
pit@@ 4725200
دة 4724785
ones 4724178
ş 4723886
tive 4723815
sab@@ 4723495
μια 4722599
нда 4720194
uli@@ 4720046
บ 4718912
သက 4716533
dim 4716332
ێر@@ 4715639
Inter@@ 4715542
pada 4714486
ी@@ 4712740
است 4711100
under@@ 4711096
abil@@ 4711035
দ@@ 4710290
जि@@ 4710252
người 4709437
מצ@@ 4709231
come 4707064
Co@@ 4706251
ہم 4705618
Ö@@ 4703281
rop@@ 4703245
ան 4701682
וא@@ 4700696
kir@@ 4697067
इस 4696741
ću 4696245
အဲဒီ@@ 4693723
اف@@ 4691563
ագ@@ 4691465
ц 4690485
રી@@ 4689528
teg@@ 4687960
сти 4684339
nia 4684243
sont 4683085
လဲ 4681466
cul@@ 4678395
тель@@ 4677342
ス 4677325
यांना 4676405
हि@@ 4675998
Ja 4675360
дер@@ 4675102
με@@ 4672174
Térkép 4672097
वा 4671496
עה 4670542
टी@@ 4670095
ence 4669544
loc@@ 4669085
ват 4668458
ге@@ 4665284
ще@@ 4664188
תה 4663063
Sz@@ 4662779
Bal@@ 4662365
ခံ@@ 4658692
ประ@@ 4657890
اد 4655293
ئەوەیە 4655193
45 4654894
mí@@ 4653887
ض 4652282
xi 4650485
டும 4650296
اي@@ 4648777
tion@@ 4647999
دەکات 4646547
याच 4646114
uk 4646097
që 4644681
anh 4644674
อา@@ 4642776
မြင 4641181
200 4641081
بال@@ 4640831
τρ@@ 4640348
માટે 4640344
bir@@ 4640294
imp@@ 4639316
ڕا@@ 4637968
است@@ 4637700
aş@@ 4637475
זי@@ 4636950
אנ@@ 4635670
عل@@ 4635575
өө@@ 4634304
бер@@ 4633946
ให้ 4633586
Europese 4632252
tit@@ 4632172
hed 4631608
ी 4628792
26@@ 4627385
ิ 4627366
© 4625315
ি 4624592
ці@@ 4623554
위@@ 4622941
eme 4622502
nel@@ 4622463
zem@@ 4622262
서@@ 4620798
စား@@ 4620148
מי 4619723
regul@@ 4617602
El@@ 4614394
بوون 4612686
ds 4612392
Da 4610710
טו@@ 4609533
ικ@@ 4609211
tek 4606176
AR@@ 4606124
ικά 4605604
ck 4604913
Ц@@ 4604574
우@@ 4601163
ների 4600924
ble 4600865
сла@@ 4599928
áz@@ 4599738
щ@@ 4596351
کار 4596307
ল@@ 4595181
tor 4593154
ခု 4590345
hy 4589582
ario 4589317
ère 4586999
ာက 4585092
மு@@ 4585009
कारण 4584442
ych 4583836
수 4578247
және 4578126
ေ 4578119
ées 4577176
ंच 4576649
huma 4576393
sus@@ 4576336
aire 4573562
ված 4572249
بن 4570815
કે@@ 4570319
ချက 4565822
zel@@ 4564680
uy@@ 4559650
מח@@ 4559533
zioni 4559062
jal@@ 4555951
ско@@ 4555003
기 4554547
իր@@ 4554163
zt@@ 4550952
ως 4550791
Jag 4549331
ým 4549202
રો@@ 4549123
गोष 4548556
inin 4547531
ောက 4546629
ပါပဲ 4546567
զ@@ 4546190
国家 4540098
વર 4539180
forma 4538848
ই@@ 4537813
ул@@ 4535025
게 4532033
liber@@ 4530891
2003 4529427
कि@@ 4529377
aktar 4527944
ները 4527061
tik@@ 4526621
ном 4525704
ստ@@ 4525105
рын 4524410
bude 4522696
مي 4522057
بێ@@ 4521578
ax@@ 4520657
bə@@ 4520512
મો@@ 4519467
စု@@ 4516799
eli@@ 4516435
گو@@ 4516054
းက@@ 4513326
Les 4512304
C. 4512060
32 4512040
dir@@ 4512001
所 4511038
كان 4510464
adi@@ 4509878
bilo 4507272
બ 4506587
Tra@@ 4506412
essa 4506075
regi@@ 4506026
Å 4504996
هذا 4504145
קר@@ 4504128
こと 4503152
dav@@ 4502889
Te@@ 4502424
કો@@ 4499948
dis 4499901
शी 4497705
ળ@@ 4495636
či 4495313
калі 4494355
δο@@ 4492580
વા 4491715
olan 4490330
ная 4488488
öz@@ 4484163
tat@@ 4484142
мя@@ 4482685
adalah 4480906
Ki@@ 4480424
radi@@ 4480274
ара@@ 4479918
iska 4479086
mul@@ 4477717
rov@@ 4477650
دار@@ 4477200
सम@@ 4476481
mus@@ 4474376
ник 4474232
κατα@@ 4473370
ზ@@ 4472584
ông 4472196
imi 4471779
құ@@ 4470799
ғы 4470557
ფ@@ 4470417
비@@ 4470410
ára 4466493
direc@@ 4464909
Saya 4463378
gli 4462258
ants 4462157
שב@@ 4460141
ła 4460037
aria 4459830
Я@@ 4458642
મે@@ 4457558
มัน 4455762
гі 4455484
παρ@@ 4454688
ող@@ 4453483
parlament@@ 4453422
ности 4451827
ја 4451744
tet 4450223
πρέπει 4450134
зе@@ 4449288
iji 4448267
nost@@ 4445857
ஆ@@ 4443846
ορ@@ 4442394
yer@@ 4440748
来 4439746
काय 4439051
eder@@ 4438591
Gu@@ 4436211
Sa@@ 4435283
શ 4434394
στη 4434270
дің 4433850
door 4433163
Tur@@ 4432658
ха 4432089
تۆ@@ 4431103
my@@ 4428469
સં@@ 4427829
është 4425690
atu 4424658
ستی 4424066
5.@@ 4421318
€ 4419194
fo@@ 4418162
تە 4418108
jin@@ 4415764
کر 4415106
شا@@ 4413932
ны@@ 4413709
più 4413259
sk 4412058
jih 4411164
ίες 4410094
중@@ 4408349
シ@@ 4408057
aš@@ 4407757
су 4405224
ฟ@@ 4403596
ίσ@@ 4403526
pi 4402598
але 4401531
ჟრ@@ 4400574
ჱ@@ 4399230
¤ 4395586
ம 4394489
ade@@ 4392874
år@@ 4392448
lab@@ 4390750
liga 4390375
një 4388855
ské 4387102
қ 4386209
energi@@ 4384624
² 4384346
لەو 4383643
sob@@ 4382116
sus 4381476
peri@@ 4380248
هیچ 4379490
उत 4378912
dro@@ 4377936
eve 4376464
Ð 4374593
zat@@ 4374534
해 4373402
하는 4373379
ад 4372149
ير 4369691
णा@@ 4368772
Մ@@ 4368746
ჱა@@ 4367983
dades 4367048
Euroopan 4366906
pren@@ 4363105
cion@@ 4362781
bez@@ 4362548
ım@@ 4361801
нда@@ 4361137
eur 4360108
pen 4360006
tic@@ 4359728
דות 4359295
dov@@ 4359134
खा@@ 4359051
ति 4358062
gru@@ 4355867
ထုတ 4355581
eč@@ 4352707
ên 4351640
2002 4351391
els 4351161
پر 4350872
как 4350117
هەر 4349193
esa 4348932
سر@@ 4346168
biti 4346059
cen@@ 4344836
nö@@ 4344833
टा@@ 4344832
ця@@ 4344382
pří@@ 4343549
dən 4342268
ike 4339332
tir@@ 4339000
याचा 4338279
ပဲ@@ 4338118
500 4337987
prz@@ 4336622
moeten 4335913
Y 4335290
cy 4334284
upp@@ 4334254
ներ 4332243
euro 4331849
financi@@ 4331595
eb 4330947
مح@@ 4329751
णार 4328742
ो 4327717
dere 4325820
efter 4324885
于 4324572
จาก 4324400
αυτό 4323784
hun 4323660
לע@@ 4323400
ses@@ 4322236
कु@@ 4321363
wor@@ 4320929
New 4320610
վում 4319786
શે 4319714
kien 4319376
дан 4319148
prav@@ 4318927
том 4318003
дың 4315271
： 4314052
ön 4313812
disse 4312041
ος 4311711
яна 4310518
地 4309967
ઈ@@ 4307793
περι@@ 4306707
لی 4306592
bare 4304790
most 4304291
ας 4303642
σης 4303561
слу@@ 4301675
ní@@ 4301444
lı 4301372
sum@@ 4298652
ac 4297869
ք 4296905
finan@@ 4296538
tā@@ 4296471
ād@@ 4296224
ının 4294000
illa 4293827
ကၽြန 4292513
جی@@ 4292284
trans@@ 4291457
L' 4289678
aga 4288404
bin@@ 4287900
0,@@ 4285769
tik 4285240
йн 4284120
04 4284014
သုံး@@ 4283788
ακ@@ 4282378
De@@ 4281423
jako 4281292
ου@@ 4280062
Энэ 4279422
osi@@ 4278659
ถ@@ 4278012
ген 4277826
Ä 4277175
ส 4276958
ဲ@@ 4275000
ٹ@@ 4274079
Es 4273960
לש@@ 4273851
ور 4272999
ans 4271894
રી 4271555
ઉ@@ 4269586
alg@@ 4267309
μας 4265495
các 4265363
무@@ 4263511
ηση 4261990
Не@@ 4260738
sal 4259400
oy@@ 4259277
195@@ 4258825
יה 4258345
from 4257467
vel 4256589
τι@@ 4255752
သြား@@ 4255689
এ@@ 4255347
DE 4253296
어 4252588
дал@@ 4252197
မင 4250496
ligger 4249679
ħ 4249328
više 4248795
वी 4247538
ेल 4246291
été 4245495
εται 4245249
zer@@ 4244196
өг@@ 4243467
वे 4242933
өр@@ 4242847
دەی@@ 4241403
شە@@ 4241392
2001 4241370
sve 4241295
sind 4240462
Dan@@ 4238672
ικό 4235772
تع@@ 4235762
μο@@ 4235464
At@@ 4235362
연@@ 4235163
dit@@ 4234944
тын 4231277
ip@@ 4230964
arti@@ 4230778
ελ@@ 4230521
8.@@ 4230200
ência 4230038
ே 4228420
Са@@ 4227503
مع 4227341
های 4226831
تح@@ 4226176
szá@@ 4224872
cije 4222918
ջ@@ 4221628
قو@@ 4218714
yh@@ 4215054
ذلك 4214757
oa 4214711
ის 4214365
stran@@ 4211836
ult@@ 4211544
ään 4211095
ေး@@ 4210174
dio 4209632
Har@@ 4209565
ket@@ 4208087
ogra@@ 4207293
uh@@ 4206808
aug@@ 4206433
जी 4206033
ဒီတော 4204940
bei 4204342
tas@@ 4202755
sag@@ 4202529
dı 4201429
~ 4199412
ઘ@@ 4199105
assa 4198239
ća 4195879
bij 4195731
Un@@ 4195626
asta 4195070
यांच 4193405
Mi@@ 4193172
レ@@ 4192090
ব 4191757
vě@@ 4190699
ผม 4190103
करण 4188456
டு@@ 4187701
бү@@ 4186797
tudi 4186680
lahko 4185352
چو@@ 4184668
בשנת 4184376
જે@@ 4183888
နဲ႔ 4182136
ၾက@@ 4182109
ite@@ 4176859
lov@@ 4176307
مار@@ 4174465
धा@@ 4174430
interes@@ 4174149
kti@@ 4172472
թե 4172003
Ph@@ 4171895
कल 4170237
consider@@ 4169868
ové 4168312
נות 4167652
pp@@ 4167525
гла@@ 4165548
nt 4163635
dic@@ 4163172
국@@ 4160321
அவர 4159888
anti 4159795
ém 4159339
लाग@@ 4158716
કર 4158593
எ@@ 4157161
லை 4155732
ee 4155559
သည 4154122
ناو 4153908
ič@@ 4152678
세@@ 4152622
сі 4149734
किया 4147956
Mal@@ 4147645
họ 4147282
ağ@@ 4146871
چۆن 4146594
Estados 4142522
ս 4141858
akt@@ 4138795
33 4138454
تەنها 4137941
ို@@ 4136611
koja 4135696
mente 4134738
cij@@ 4133730
έρ@@ 4133535
ас 4131099
화@@ 4130422
rik 4130158
çox 4129716
ká@@ 4129503
тро@@ 4127062
दी 4126424
zad@@ 4125138
ել@@ 4123010
与 4122268
emo 4120974
out@@ 4119891
skih 4119871
းအ@@ 4119057
kat 4118828
lə@@ 4118757
hom@@ 4118673
për 4118366
post 4118292
Sam@@ 4118102
မတို 4117314
aten 4117054
naš@@ 4116685
anche 4116661
া@@ 4116196
Ho@@ 4115918
ār@@ 4114471
ings@@ 4114402
Ми@@ 4112827
art 4112755
้@@ 4112194
♫ 4111872
ناو@@ 4111248
dam@@ 4110955
दा 4110184
निर 4108148
aja 4107094
bak@@ 4106258
bila 4104245
ќе 4104207
цца 4104188
тар@@ 4103614
定 4103468
άσ@@ 4103239
გ 4102761
याची 4102652
ef 4102553
ic 4100125
цен@@ 4099866
hvor 4099613
εί 4099311
ီး@@ 4098052
များ@@ 4098032
лэ@@ 4097094
cur@@ 4096522
이다 4096422
ven 4095819
27@@ 4094768
ئی@@ 4092543
け 4092509
Ad@@ 4092353
nica 4091758
신@@ 4091734
kä@@ 4091347
hand@@ 4090630
شه 4090240
모@@ 4090187
מות 4088860
program@@ 4086865
Ա@@ 4086304
mist@@ 4085307
الن@@ 4084898
iko 4083564
ші@@ 4083045
לב@@ 4082114
É@@ 4078199
usk@@ 4077876
dag@@ 4077359
strateg@@ 4077050
tura 4076956
개@@ 4076542
ec 4076534
่า 4075517
god@@ 4075190
دي 4074731
дз@@ 4074410
partner@@ 4074297
ins 4073858
یەک@@ 4073311
ık 4072523
जे 4072239
ئا@@ 4072196
было 4072128
ั@@ 4071426
ande 4071094
với 4070823
три@@ 4070631
dt 4070288
natur@@ 4070221
άρ@@ 4070146
tav@@ 4068945
ģ@@ 4065258
jou 4065113
சி@@ 4064222
pat 4062325
еле@@ 4061781
tions 4060055
שים 4059479
ხ@@ 4057871
ovi@@ 4057720
må@@ 4056870
skri@@ 4055817
ပြန 4054251
ונה 4053636
Ο@@ 4050848
из 4050571
Lu@@ 4049527
top@@ 4048893
stre@@ 4047420
事 4046628
andre 4046617
itu@@ 4046484
2,@@ 4046031
घ@@ 4044857
uit 4044729
λογ@@ 4044605
ствен@@ 4044404
ەکەی 4043125
02 4041794
관@@ 4041358
ű@@ 4040281
can 4039497
பு@@ 4039496
Im@@ 4036834
лен@@ 4035724
finns 4035694
ovi 4034555
կարող 4034529
köz@@ 4033302
בית 4033107
iten 4032550
แล้ว 4032218
เขา 4031177
ாக 4030483
ئێ@@ 4030314
ট@@ 4028546
այս 4026296
ွစ 4024442
我 4022137
вал@@ 4021620
сть 4020243
वी@@ 4020040
já@@ 4019862
했@@ 4019470
nie@@ 4018430
tol@@ 4014541
בר 4014430
ス@@ 4013561
ռ@@ 4012409
cat@@ 4011855
jon@@ 4010915
بل@@ 4010544
αν 4010329
лық 4008773
alit@@ 4008693
36 4008629
סט@@ 4008237
03 4005288
ြ@@ 4005186
rij@@ 4004484
بکەین 4004304
زیاتر 4004301
रत 4003279
ורה 4001875
הד@@ 4001290
सि@@ 4000205
ए 3998843
ُ@@ 3998570
І 3998570
համար 3997515
geb@@ 3997000
hav@@ 3996385
kar 3995744
მვ 3994629
၂@@ 3992932
ث 3992148
щи@@ 3992046
али@@ 3991672
Mil@@ 3991536
Commissie 3990947
zab@@ 3987189
vaj@@ 3987146
stvo 3985766
जर 3985512
Du@@ 3984112
fre@@ 3984046
서 3983925
nega 3983080
todos 3982389
ться 3982261
rac@@ 3980842
문@@ 3980841
Po 3980119
ένα 3978009
get 3977614
ھ@@ 3977509
းစ@@ 3977189
nag@@ 3976465
тө@@ 3975441
produc@@ 3975318
kem@@ 3974551
מת 3973975
isk@@ 3973648
Про@@ 3973501
ras@@ 3973427
IS@@ 3972225
人@@ 3971117
tig 3970656
တင 3970134
ေတြ 3970126
хү@@ 3969272
တိုင 3968411
လောက 3968394
viet@@ 3968163
nit@@ 3967266
nje 3967089
נית 3966574
bon@@ 3966371
نە 3965616
ահ@@ 3965344
jam 3963313
pä@@ 3963141
ッ@@ 3962449
და 3962283
ো 3962161
นา@@ 3960597
ã 3959626
ен 3959624
ак@@ 3959393
Sh@@ 3956553
importante 3955429
بکه 3954034
nad 3953593
რ 3953396
Pod@@ 3953232
ண@@ 3952443
ciones 3952364
ens@@ 3952361
дар@@ 3951592
roku 3950849
ย 3949521
dot@@ 3949199
aq@@ 3948436
เรา 3947262
oder 3946391
року 3946213
байгаа 3942821
หน@@ 3942095
spo@@ 3940293
tanto 3939827
vez@@ 3939429
itt@@ 3938432
dal 3937589
detta 3937533
한@@ 3937197
kos@@ 3935674
ली@@ 3933597
kin 3933320
Kol@@ 3932335
lim@@ 3929441
ઝ@@ 3928574
ста 3927902
kaz@@ 3927625
ċi 3925977
ச 3924420
dá@@ 3924217
ster 3924057
zzjoni 3922786
gaan 3922483
ide 3922038
ությունը 3921624
او 3921484
Mor@@ 3921124
които 3919905
yb@@ 3919521
bez 3916095
gem@@ 3915859
လေး@@ 3915841
gan@@ 3915301
wij 3914811
will 3914783
bul@@ 3913953
nika 3913813
ț@@ 3912004
ہو 3910991
uni 3909718
ria 3909196
has 3904195
ého 3903839
उन 3900698
Canada 3900502
ठ@@ 3899995
über 3899941
کاری 3899003
ّ@@ 3898350
လုံး@@ 3898346
dor@@ 3893413
ပြီးတော 3893054
wird 3892151
pt@@ 3892059
قة 3890934
žel@@ 3888770
אה 3888436
چەند 3887986
oi 3887472
bit@@ 3887215
nic@@ 3886585
႔ 3886065
ային 3885171
जा 3884498
toim@@ 3884189
ën 3883866
য় 3883671
பி@@ 3883585
他 3883537
avec 3882648
เธอ 3881906
pes@@ 3881355
ရွိ@@ 3880793
³ 3880582
உ@@ 3879115
Со@@ 3878670
ჟ 3878458
questo 3878273
från 3877267
Ser@@ 3877225
со 3876321
عام 3875543
ních 3874679
ked@@ 3874309
ไม่ 3874304
aki 3872530
անում 3872376
था@@ 3871254
kod@@ 3871007
ţi 3870717
æn@@ 3865877
tiegħek 3865253
ી 3864570
On@@ 3864419
से@@ 3864354
ભા@@ 3863994
กล@@ 3863567
委员会 3862222
Gi@@ 3861642
сло@@ 3861599
sü@@ 3860131
προσ@@ 3859448
ур@@ 3859399
εύ@@ 3858224
מס@@ 3856394
Bu@@ 3855705
명@@ 3855249
də@@ 3855048
用 3854594
6.@@ 3853500
ções 3853454
dod@@ 3851168
מפ@@ 3851039
շատ 3847799
фі@@ 3846072
ရမယ 3845734
Der 3845579
port@@ 3844902
ща@@ 3843576
็@@ 3840804
อยู่ 3839601
dhe 3838398
Ú@@ 3834337
સાથે 3831977
жы@@ 3831890
एका 3831128
yan@@ 3830539
ativ@@ 3830461
子 3830289
ဟ@@ 3830081
部 3828657
ют 3828394
ထက 3828214
هاو@@ 3828097
ғ@@ 3827486
ġġ@@ 3825398
We 3824800
मो@@ 3823468
ंग 3823294
ەدا 3823288
tat 3822020
yap@@ 3821854
II 3821721
ဗ@@ 3821440
ク@@ 3820989
♪ 3819991
ူ@@ 3819540
אני 3818402
ալ@@ 3817562
ंड@@ 3816401
जे@@ 3816369
ယောက 3814200
Ş@@ 3813889
ton 3813649
े@@ 3813276
出@@ 3813262
خان@@ 3812336
ams 3812151
institu@@ 3810244
see 3807509
шу@@ 3807497
هو 3807130
အား@@ 3805457
rat 3805399
Mat@@ 3804899
르@@ 3803141
ня 3801200
EN 3800888
ինչ 3800578
ym@@ 3799933
리 3799310
ple@@ 3798980
ft@@ 3798417
ap 3798044
عن 3797785
realiz@@ 3794632
ম 3792203
கி@@ 3792107
sau 3791668
сер@@ 3789260
jem@@ 3788016
чно 3786665
econom@@ 3786454
الخ@@ 3785993
най@@ 3785525
.com 3784973
ρα@@ 3784892
wil 3784393
endo 3783796
तु@@ 3783795
¼ 3783666
inu 3779988
ιστ@@ 3778743
ша 3777067
ικής 3775393
ljudi 3775139
đó 3774642
lav@@ 3774166
لم 3773768
nom@@ 3773328
အကြောင 3772142
え 3771487
ell 3765204
בס@@ 3765086
توان@@ 3764746
드@@ 3764232
हणजे 3763104
تە@@ 3763097
зы@@ 3763093
ောင 3761666
यु@@ 3759044
dik 3758870
organis@@ 3757635
લે@@ 3756113
ค 3755173
زي@@ 3755092
体 3754159
jat@@ 3753668
ê@@ 3753094
sua 3752510
αλ@@ 3751998
bar 3751077
hier 3750300
problem@@ 3749825
செய 3749607
Ali 3749495
ator@@ 3746897
▁้ 3746669
כי 3745548
Қ@@ 3745358
frem@@ 3743384
য়@@ 3742818
وە@@ 3741447
heid 3740679
ald@@ 3739522
ær@@ 3739308
exist@@ 3739262
शि@@ 3738474
ort 3738151
кри@@ 3738140
यों 3738127
তুমি 3736664
EN@@ 3733664
شو@@ 3733254
sú 3732204
જા@@ 3730648
شر@@ 3729781
ného 3727468
fat@@ 3726522
Ви@@ 3726403
sis@@ 3726054
לאחר 3725842
ევ@@ 3725473
lang@@ 3725021
டு 3725015
stabil@@ 3724559
vad@@ 3724130
并 3722717
Cor@@ 3721872
ним 3720915
pero 3720501
Ge@@ 3720075
Jo@@ 3718941
כנ@@ 3718902
होती 3718362
ns 3716967
nym 3716462
ლა@@ 3713748
ība 3713273
жен@@ 3712670
وں 3710509
υπο@@ 3709762
دان 3709604
မျိုး@@ 3709092
شی 3708179
onen 3707889
Je 3707694
AL@@ 3707214
인 3707193
Mer@@ 3706167
الف@@ 3706074
tv@@ 3705845
nyt 3703505
नव 3703082
yor 3702744
شتێکی 3702636
Γ@@ 3702351
ந@@ 3701793
defin@@ 3701719
ска 3701280
ู 3701258
šanas 3700963
계@@ 3700408
ပတ 3700317
vir 3699831
28@@ 3699099
fir@@ 3698857
αγ@@ 3698693
ै@@ 3698402
这 3697230
iš 3697083
vez 3696739
нии 3696339
ί 3695592
igen 3695075
pak 3694054
לות 3693653
هی@@ 3693598
nut@@ 3692947
Ob@@ 3691875
ણ@@ 3691820
； 3691508
europea 3691106
از@@ 3690842
cal@@ 3688428
مل@@ 3687789
其 3687713
тив@@ 3687407
inger 3687203
kak@@ 3686142
нэг 3684637
အောင 3684552
ી@@ 3684496
ament 3683750
ก็ 3683689
ού@@ 3682354
და@@ 3681961
将 3681664
ym 3680628
गु@@ 3680555
гийн 3680351
До@@ 3678632
dalam 3678417
gest@@ 3678086
Si 3677791
gran@@ 3677773
acji 3677703
တွေဟာ 3677575
خوا@@ 3677097
¸ 3676938
zah@@ 3676494
영@@ 3674949
pap@@ 3672688
கும 3672549
rå@@ 3671835
orang 3667613
ہوں 3666821
ül 3666406
લી 3666226
ле 3665731
מנ@@ 3665708
už 3665578
vam 3665089
боло@@ 3664663
val 3664365
yi 3663605
אל 3663104
hab@@ 3662339
ș@@ 3660020
คร@@ 3659616
ષ 3658969
ि@@ 3657592
жу@@ 3657550
Мо@@ 3656173
ەم 3655236
tap@@ 3654150
आता 3653253
prost@@ 3651101
rak@@ 3649800
bri@@ 3647183
यां@@ 3646188
ထင 3646015
하고 3645390
usi@@ 3644952
ris 3644374
ロ@@ 3641825
לח@@ 3641398
қо@@ 3639965
Iz@@ 3638439
만@@ 3636364
ธ@@ 3634699
aires 3634209
TE@@ 3632386
ידי 3631425
vent@@ 3630543
რა@@ 3629482
سەر 3629326
ლვ@@ 3626513
ux 3625623
پار@@ 3623579
yaş@@ 3622445
То@@ 3622198
34 3621960
skulle 3621720
လား 3621502
गी 3620785
تەوە 3620693
ack 3620335
Ես 3619927
ave 3619476
قي@@ 3619317
ре 3617857
сь@@ 3617325
ئەوان 3616349
ιν@@ 3615337
ου 3615027
होता 3614960
nak@@ 3614834
cial 3613313
Çá@@ 3612441
myös 3611029
မှု 3611009
έχει 3610331
ண 3610086
ums 3608070
আমার 3607127
фор@@ 3607077
ər 3606105
လှ@@ 3605726
شی@@ 3604326
ิน 3604010
வேண 3602634
пера@@ 3600281
ска@@ 3600262
Ni@@ 3600090
Ap@@ 3599992
دەکەن 3599119
él@@ 3598109
Minist@@ 3596267
الر@@ 3596012
eo 3595578
ıq 3593683
问题 3593574
ør@@ 3593110
όλ@@ 3592776
เด@@ 3591143
ئێمه 3590492
gé@@ 3589612
ჱა 3589215
stā@@ 3587968
али 3586301
fis@@ 3585994
zin@@ 3585541
éjszaka 3585103
oti 3583375
αι@@ 3582433
tan 3582347
लक 3581576
الص@@ 3579898
sis 3578391
сты@@ 3578283
ை@@ 3577971
ern 3576366
ome 3576276
rar 3575623
ї@@ 3575366
ар 3575138
ної 3574211
zap@@ 3573639
يد 3573311
дол@@ 3570851
tim 3569879
ौ@@ 3568992
aq 3568947
рас@@ 3568878
tim@@ 3568666
პვ@@ 3568292
Do 3568231
politi@@ 3567423
üt@@ 3566746
اب 3564588
ран@@ 3564460
aff@@ 3564349
ผ@@ 3563765
เล@@ 3562410
דר@@ 3562328
rav@@ 3562286
ရယ 3561898
ლთ@@ 3560523
ret 3559837
odi@@ 3559072
ई@@ 3557954
memb@@ 3557206
ๆ 3556976
έν@@ 3556663
Ro@@ 3556499
až@@ 3554074
s' 3553915
jar@@ 3553767
gör@@ 3552748
liv@@ 3552561
pris@@ 3551799
nuk 3551407
dla 3550058
အေ@@ 3549636
હતો 3548594
test@@ 3546492
ૂ@@ 3546444
ဒါပေမဲ 3546148
باشە 3543179
ღ@@ 3542929
dest@@ 3542037
რთ 3540074
proc@@ 3539887
ŝ@@ 3539756
تق@@ 3539080
dě@@ 3538575
টা 3538551
ուս@@ 3538262
iju 3537947
gu 3537788
bij@@ 3537423
ုပ 3537392
षा 3536973
バ@@ 3536679
스 3535427
доб@@ 3535198
publi@@ 3535014
wordt 3534704
över 3534267
اوه 3534137
ော 3533932
ң 3533809
äm@@ 3533139
ró@@ 3532998
inf@@ 3532981
gt 3532801
stri@@ 3532628
нің 3531953
מן 3531336
38 3531036
دەست@@ 3530204
ונות 3528898
pod 3527934
ில 3527069
sul@@ 3527069
இல 3526958
လ 3526922
Kau 3526694
там 3526396
ların 3524867
最@@ 3522971
ჟთ 3522812
šanu 3522734
Kor@@ 3522042
Ang@@ 3521685
ont@@ 3520404
evi@@ 3520212
방@@ 3518708
အ 3518134
pul@@ 3517639
ိမ 3516370
uh 3516230
29@@ 3515921
前 3515012
1. 3513942
unha 3513655
տես@@ 3513256
ိုး@@ 3512902
1999 3512215
คน 3511060
πλ@@ 3509881
ում@@ 3509497
હા@@ 3509187
असे 3508412
gang 3506432
дзі@@ 3504422
ський 3504209
ram@@ 3503141
सी 3502977
וע@@ 3502328
Komis@@ 3501090
டி@@ 3500893
لئے 3500437
پێ 3500036
gev@@ 3499838
երի 3498973
التي 3497651
ি@@ 3497086
ॉ@@ 3497008
adop@@ 3496803
რჲ 3496510
aç@@ 3496200
Hol@@ 3495968
ၾကည 3495334
Men 3494557
sun@@ 3493748
alar@@ 3492443
ဘက 3491838
छ@@ 3491688
不 3491200
wo@@ 3490648
חה 3489046
krit@@ 3488880
ंग@@ 3488528
מר 3487575
অ@@ 3486917
મુ@@ 3486324
ER@@ 3486274
nik@@ 3485835
eer@@ 3484513
ספ@@ 3483285
들@@ 3482536
לת 3481741
ઈ 3481081
sunt 3479563
бы 3477875
ін 3477793
За 3476696
եկ@@ 3476531
svo@@ 3476411
ելու 3476329
ရတယ 3476109
байсан 3475501
เก@@ 3475487
გთ@@ 3475411
kim@@ 3474626
ڕاست@@ 3474104
ét@@ 3473671
பா@@ 3471911
هي 3470903
ဟာ@@ 3470858
ڤ@@ 3468724
マ@@ 3468467
kunnen 3466105
zas@@ 3465843
vom 3465056
းမ@@ 3463839
usta 3462656
रक 3460899
تم@@ 3460870
아 3459814
רי 3459185
સે@@ 3458009
ności 3457469
بین@@ 3456237
månaden 3455798
isa 3455054
hos 3454742
Pal@@ 3454684
може 3454192
بة 3452960
εις 3452955
রা@@ 3452799
komis@@ 3452692
Am@@ 3452496
δε@@ 3451898
tur 3450344
খ@@ 3450092
તી 3449183
lak@@ 3448981
vast@@ 3447097
成 3446801
ין 3446652
Comisión 3445581
وو@@ 3445423
ord 3443870
रु@@ 3442467
mək 3441485
き 3441451
On 3440779
กัน 3439919
өн@@ 3438970
τική 3438242
چی@@ 3436216
rt@@ 3435928
stor@@ 3435856
3,@@ 3434067
մի@@ 3433383
าย 3432682
ece 3432505
दु@@ 3432083
สา@@ 3431408
کەواتە 3431055
இருக 3431006
သား@@ 3430551
ார 3428085
hija 3426464
झ@@ 3426074
9.@@ 3425876
lí@@ 3425472
ဆုံး@@ 3425239
шо@@ 3424992
会议 3424807
être 3424216
byg@@ 3423341
کەس@@ 3422463
بعد 3422295
jev@@ 3422176
ည@@ 3422024
カ@@ 3420495
ren 3419867
υπ@@ 3419447
46 3419369
دەست 3418112
مج@@ 3417712
dut 3416514
alist@@ 3416219
ċċ@@ 3416200
nice 3415394
Col@@ 3414966
دەک@@ 3413819
साठी 3411897
่ง 3410475
nə@@ 3409122
ean 3408823
дека 3408414
ίου 3408318
сва@@ 3408132
oga 3407912
ischen 3407835
ဒီ 3407749
公@@ 3407604
ե 3406799
gan 3406696
erna 3405796
出 3405735
ساڵ@@ 3405174
ার@@ 3405125
ને@@ 3404656
άλ@@ 3402965
כן 3402780
7.@@ 3402720
大 3402141
ť@@ 3401889
Η 3400516
כה 3399673
тэй 3399352
37 3399100
lon@@ 3398780
mereka 3398778
set 3397890
ான 3397507
ώς 3397189
encia 3396991
בח@@ 3396840
დჲ 3396372
גר@@ 3396305
osa 3395899
Aus@@ 3395765
Pra@@ 3395663
Comissão 3395256
uns 3393851
ေနာက 3393720
רא@@ 3391616
लो 3391433
ñ@@ 3391348
awak 3391278
לפ@@ 3390309
אי 3390198
ат@@ 3388668
หล@@ 3388022
Па@@ 3387132
ψ@@ 3386452
ського 3385096
نگ@@ 3385008
ပြောင 3383175
maq 3382679
zon@@ 3381638
သံများ 3381450
ində 3380796
mó@@ 3380053
sul 3379934
երը 3379862
यह 3379268
ích 3379186
Á@@ 3377948
בי 3376127
tahu 3375934
todo 3375202
نیە 3375031
trakten 3373519
itev 3372607
yl@@ 3371752
ধ@@ 3371537
ите 3371186
king 3367969
فی@@ 3367370
Հ@@ 3366597
Бо@@ 3366392
کانی 3366097
Europos 3365105
48 3364951
kuri@@ 3364754
ျပ@@ 3363938
zj@@ 3363240
זו 3362508
झा@@ 3362317
Ν@@ 3361812
bli 3359373
Tu@@ 3357955
час 3357848
С 3356960
သာ@@ 3356938
นะ 3356742
На 3354970
przez 3354457
მჲ@@ 3351956
ES@@ 3351869
при 3351232
ată 3350302
ความ@@ 3349379
ното 3349289
mek@@ 3347507
चं 3346769
TV 3346419
ö 3345942
Men@@ 3345436
atie 3345327
ail@@ 3344333
ئاس@@ 3342947
ကတော 3342896
cas 3342433
mä@@ 3341547
cap@@ 3341243
enza 3341197
ì 3340655
ိန 3339420
sent@@ 3339285
קים 3338840
ette 3338684
אם 3338328
idi 3337062
个 3335819
ছ@@ 3333766
مت@@ 3333656
συ@@ 3333516
any 3332932
以 3331733
55 3331167
रति@@ 3330197
דו 3330056
wij@@ 3328761
Sal@@ 3328297
هێ@@ 3327657
uno 3327565
AT@@ 3326174
တွေက 3325393
unu 3325157
Euroopa 3324105
stva 3323341
טה 3323226
kis@@ 3322357
ts@@ 3321723
hem@@ 3320538
치@@ 3319319
өл@@ 3319188
لەم 3318966
át@@ 3318865
oje 3317019
ijiet 3315307
inden 3315267
အရာ@@ 3314874
ók 3313948
много 3312563
や 3311609
নি@@ 3311082
sistema 3310863
زه 3310837
esti@@ 3310633
lap@@ 3310215
Des@@ 3309989
сэ@@ 3309053
вання 3308793
aks 3305637
anya 3305608
काम 3304095
शक 3301874
णी 3301575
ville 3301304
কি 3300218
informa@@ 3298040
ト@@ 3297221
بیر@@ 3296180
ves 3296162
ныя 3296157
× 3295922
生 3294287
َ@@ 3293945
այդ 3293671
haben 3292399
ဆင 3292081
ły 3291975
это 3290529
მვ@@ 3290409
Naj@@ 3289129
klu@@ 3288456
כך 3288262
मार 3288028
στις 3284356
ген@@ 3283107
GMT 3282288
વે@@ 3281703
nol@@ 3281484
دوای 3280349
эр@@ 3278702
Δ@@ 3276802
று@@ 3276750
há@@ 3275070
від 3274300
kada 3274102
Por@@ 3272359
გვ@@ 3271812
ئەو@@ 3271586
гу 3271103
발@@ 3270863
нас 3270257
países 3269887
Ба@@ 3269768
ترین 3269369
ms 3268961
वास 3268582
itel@@ 3268527
ало@@ 3268402
בש@@ 3268376
kami 3267760
ဝင 3267577
problema 3267014
ઓ 3266142
מר@@ 3264975
eż@@ 3264197
vide@@ 3263750
üz@@ 3262846
sẽ 3262835
ေရ@@ 3262305
면 3261865
AS@@ 3261670
말@@ 3261575
kel 3260937
အင 3260563
Do@@ 3260175
které 3260155
ív@@ 3259968
ші 3259871
טר@@ 3258881
edil@@ 3258285
ann@@ 3258232
ळ 3257813
sas 3257635
रात 3256081
О 3255518
einen 3254810
ume 3254484
kui 3254356
েন 3254018
kai 3253021
แต่ 3252835
จ 3252257
delen 3252143
даг 3252017
iç@@ 3251903
sni@@ 3250695
elő@@ 3249936
বে 3247413
kamu 3247365
region@@ 3247191
cir@@ 3246083
わ 3246009
ram 3245665
ונים 3244650
လဲ@@ 3243032
યુ@@ 3242125
ლ 3241415
måste 3240858
ally 3240061
以@@ 3238821
ე 3238189
ટે@@ 3237147
करा@@ 3236876
wel@@ 3235994
όν@@ 3235920
kontro@@ 3235704
ganger 3235210
học 3235159
mere 3233784
Rom@@ 3233446
இந 3233135
ဆိုတာ 3232539
dop@@ 3230199
نها 3229586
Tar@@ 3229008
أن@@ 3228819
دۆ@@ 3228524
port 3228483
meter 3228235
իր 3228156
jä@@ 3226840
شتی 3226257
vak@@ 3225702
лы 3225474
stro@@ 3224388
mē@@ 3223834
Би 3222184
यास 3221933
оро@@ 3221755
tia 3221629
હતું 3221592
lit@@ 3221452
эр 3220886
ငါ@@ 3220277
gada 3217940
пад@@ 3217478
ції 3217405
ian 3216753
time 3216449
Sel@@ 3215127
It 3214694
هذه 3214424
шы 3213354
apro@@ 3211456
כו@@ 3211255
ینی 3210904
ší 3208866
نس@@ 3207977
све@@ 3207976
бид 3207219
άλλ@@ 3206903
پا@@ 3206564
अर 3206408
tid 3206111
gia 3204524
દી@@ 3204428
thể 3204040
sli@@ 3202566
փ@@ 3201658
ığ@@ 3201193
maz@@ 3201104
ığı 3201005
hov@@ 3199777
ktoré 3199133
sid@@ 3198673
sú@@ 3197992
ကြောင 3197475
դա 3197227
tad 3196620
せ 3196352
یں 3195674
нен@@ 3195670
گ 3195636
einer 3195440
tant 3194877
ary 3194871
તે@@ 3194728
စစ 3194019
th 3193904
ръ@@ 3193653
Ger@@ 3193131
цы 3192890
בק@@ 3192344
zia 3192286
popul@@ 3192083
lot@@ 3191348
ktor@@ 3191337
làm 3190626
ose 3190577
گی 3190543
conc@@ 3189088
עו@@ 3188111
ός 3188080
leri 3187797
jas@@ 3186212
ایە 3185388
ting 3185087
่@@ 3183525
fé@@ 3183421
બા@@ 3183215
đi 3183062
oike@@ 3181893
ež@@ 3181877
દા@@ 3181862
veik@@ 3181186
tä 3181143
europ@@ 3180498
hr@@ 3179472
दर 3179153
ht 3178795
inclu@@ 3178577
안@@ 3178528
पु@@ 3178391
હતા 3178120
cji 3176552
લિ@@ 3176010
eret 3175476
바@@ 3175433
هات@@ 3175028
tica 3174828
بک@@ 3173384
aba 3172921
پێکەنین 3172415
kez@@ 3172362
ნთ 3172293
īg@@ 3171866
жа 3169975
bag@@ 3169929
ation@@ 3169786
အတ@@ 3169454
၅ 3169425
ાર@@ 3169366
รา@@ 3169300
મિ@@ 3167634
Се@@ 3166557
Ban@@ 3165932
our 3165483
án@@ 3165399
kə@@ 3164589
יו@@ 3163857
উ@@ 3163202
چ 3163050
loài 3161981
أو 3160820
မြ@@ 3157349
ικών 3157259
hum@@ 3157085
ard@@ 3155223
ał 3154316
տար@@ 3154223
resp@@ 3153940
သတ 3151930
lep@@ 3151776
המו@@ 3151622
lus@@ 3151603
which 3150954
kimi 3150481
Ва@@ 3150452
politik@@ 3150292
лар 3149853
हशा 3148349
bū@@ 3147727
tri 3146653
etti 3146401
sö@@ 3146177
əy@@ 3145406
So@@ 3145255
ương 3144910
ကြ 3143205
עד 3142431
få 3142348
お 3141902
fa 3141901
üh@@ 3141721
regist@@ 3138966
بع@@ 3138927
ido 3137941
nici 3137858
joni 3137463
Ku@@ 3137298
iste 3135692
লে 3135055
צו@@ 3134345
كل 3134239
לג@@ 3133908
Tôi 3133685
dü@@ 3132291
ním 3131659
ever@@ 3130064
हण@@ 3129545
چونکە 3129326
šie 3129146
ill 3129083
przy@@ 3128754
ется 3128418
ħafna 3128194
ও@@ 3128022
הן 3127544
Han 3127403
tet@@ 3127269
jek@@ 3126605
ကမ 3125640
strat@@ 3125413
yle 3125318
eit@@ 3125144
ڕێ@@ 3124992
йы@@ 3124767
prez@@ 3123469
יותר 3123392
política 3122861
דת 3122761
glob@@ 3122558
내@@ 3122275
klar@@ 3121871
τικά 3121717
turi 3121409
ပြီး@@ 3120399
uden 3120215
foi 3119427
στα 3119136
ро 3118653
شار@@ 3118599
տ 3118039
xa 3117256
meer 3116700
мэ@@ 3116599
ци 3116163
צה 3115969
यावर 3114253
yw@@ 3113658
āk@@ 3113442
aciones 3112111
има@@ 3111505
ท 3111326
сын 3111004
தை 3110913
发展 3110786
တူ@@ 3109900
ร์ 3109744
ոն@@ 3109171
прави@@ 3108351
anos 3108206
ất 3106865
yen 3104510
진@@ 3104186
Parlement 3102434
também 3101629
USA 3100166
مە 3099216
šo 3099151
کات@@ 3097893
ရာ 3097659
ting@@ 3096595
یدا 3095468
sä@@ 3095424
ich@@ 3095311
sku 3094015
stud@@ 3093816
тя@@ 3092004
ەیەک 3090532
živ@@ 3090118
வா@@ 3089145
ัน 3088734
Dia 3087571
दल 3087227
မှ 3087103
but 3086940
단@@ 3084794
학@@ 3084738
ovať 3082169
پێش@@ 3081931
자 3081856
tym 3081270
שר 3081128
zav@@ 3080810
uf@@ 3080319
ць@@ 3079367
گا 3079195
١@@ 3079138
بات 3078569
အစ@@ 3078365
šta 3077268
तक 3076954
inių 3076702
જો@@ 3075951
tere 3075792
чо@@ 3075621
51 3073527
īgi 3073481
بخ@@ 3071579
้ 3071524
нов@@ 3071463
מו 3070753
كي@@ 3070664
Ре@@ 3069775
ща 3069506
form 3069160
actu@@ 3069112
спе@@ 3068391
Sen@@ 3068209
ரி@@ 3067311
nis 3066112
75 3065992
կան@@ 3065857
alebo 3065714
44 3064570
အလုပ 3064330
Union 3064147
ей 3063786
hit@@ 3063733
prin@@ 3063553
тү@@ 3062915
kla@@ 3062456
нан 3059332
pozi@@ 3059114
ეა@@ 3058769
პთ@@ 3057560
.... 3056116
度 3056059
Ñ 3055568
сел@@ 3055056
servi@@ 3053731
ĝ@@ 3052298
ється 3052080
ુ 3050748
тур@@ 3050579
σι@@ 3050034
없@@ 3049572
करने 3049472
טים 3049013
bili 3048669
apo@@ 3046217
회@@ 3045003
מק@@ 3044142
것@@ 3043961
сці 3042407
сам 3042044
lø@@ 3041797
ણ 3041571
ո 3041396
Ра@@ 3041075
ule 3040478
发@@ 3039339
حي@@ 3038509
کان@@ 3038367
ân@@ 3037080
ڈ@@ 3036061
tiva 3034833
جێ@@ 3034496
خوار@@ 3033746
تص@@ 3033122
ric@@ 3032912
ோ@@ 3032823
ုတ 3032785
kab@@ 3032079
elo 3031929
fran@@ 3031894
मान 3031498
છ@@ 3031433
տա@@ 3031241
industri@@ 3030698
ડિ@@ 3030626
каб 3029952
ড@@ 3029514
Parlament 3028924
zie 3028785
stu 3028476
つ 3027792
ար 3027442
교@@ 3027193
integ@@ 3026893
poli@@ 3026576
@ 3026413
નથી 3026133
uro@@ 3025766
ката 3022684
runt 3022498
Pet@@ 3022378
kad@@ 3021988
परि@@ 3021684
ani@@ 3021421
Aut@@ 3020706
pie@@ 3020703
anc@@ 3020472
باش@@ 3020433
الي@@ 3020029
હો@@ 3019961
الث@@ 3019721
હે@@ 3019710
Β@@ 3019573
برا@@ 3016835
ွင 3015258
할 3014945
ár 3014759
Gar@@ 3014716
έσ@@ 3014255
ճ@@ 3012877
pus@@ 3012298
Gal@@ 3012061
سل@@ 3011799
ခြ@@ 3011791
kro@@ 3011704
äl@@ 3011581
타@@ 3011008
svoje 3010597
сре@@ 3010518
خه 3010027
ট 3009525
ڵی 3008643
trat@@ 3008160
dur 3007208
วิ@@ 3006384
ؤ@@ 3005489
بد@@ 3004967
von@@ 3004845
႕ 3004787
іх 3004677
dwar 3004518
بچ@@ 3004232
nan@@ 3004148
waż@@ 3002460
בו 3002160
پر@@ 3000382
الط@@ 3000022
CO@@ 2999856
ညီ@@ 2999514
गया 2999075
sad@@ 2998936
ida 2998428
לה@@ 2998265
તિ@@ 2996580
fak@@ 2995845
ंना 2995480
dėl 2995062
tul 2994543
ton@@ 2994355
data 2994149
gri@@ 2993920
ło 2993045
工作 2993010
iga 2992869
алы@@ 2990962
fron@@ 2990608
લી@@ 2989935
ăm 2989679
Ι@@ 2989256
hvis 2988726
Me@@ 2987476
plan 2987160
ON@@ 2986399
zač@@ 2986086
国际 2985731
ello 2985366
시 2984672
problem 2983907
ết 2983037
sion@@ 2981767
istä 2980593
present@@ 2980554
đầu 2980391
gj@@ 2980034
сал@@ 2979919
เพ@@ 2979683
spe@@ 2979496
posl@@ 2978133
lat 2976961
posi@@ 2976568
อง 2976192
Vol@@ 2976021
트@@ 2975956
פי 2974883
ەیان 2974172
Tran@@ 2973480
more 2972868
Бі@@ 2972851
그 2971986
စက 2971465
ழ@@ 2971361
īt 2971336
생@@ 2971046
લા 2970357
گۆ@@ 2969910
ەن@@ 2969892
بێ 2969882
بکەن 2969849
eten 2968933
рабо@@ 2968857
生@@ 2968801
European 2968731
42 2968620
ורי@@ 2968407
ဒါကို 2967996
фе@@ 2967631
все 2966822
mut@@ 2966755
Na@@ 2965984
He@@ 2965707
վեր@@ 2965350
期 2965175
सी@@ 2964111
ा@@ 2962786
fici@@ 2962634
çok 2961693
خۆش@@ 2961256
زۆر@@ 2961210
下 2961173
nur 2961146
html 2961052
Res@@ 2960842
Med@@ 2960218
geen 2959890
ją 2959547
тоа 2958751
ilə 2958511
นั้น 2958315
गे@@ 2957902
има 2957796
ி 2956937
dige 2956013
Un 2955809
қта@@ 2955353
Ĉu 2954209
iu 2954150
zal 2953571
षा@@ 2953244
ိ 2952249
§ 2951842
تھا 2951806
यंत 2951662
ız@@ 2951620
хгүй 2950987
all' 2950969
년 2950737
ure@@ 2950515
Ste@@ 2950499
नी@@ 2950448
बि@@ 2950161
sistem@@ 2949666
რვ@@ 2949646
lja 2949307
चित 2949284
Pr@@ 2949160
ીને 2948920
ından 2947445
like 2947149
lui 2947085
zy 2946774
naar 2946272
ไม่@@ 2945569
ღვ 2945422
חות 2945417
իկ@@ 2945273
сының 2944899
contribu@@ 2944360
aci 2944292
xe 2944248
Od@@ 2943811
ân 2943791
રહ 2943429
uda 2943380
кел@@ 2942786
vre@@ 2942521
essere 2941359
praw@@ 2940743
اً 2940517
Де@@ 2939759
rez@@ 2939466
deres 2938723
ав@@ 2938342
lah 2938310
chúng 2937136
ys@@ 2937010
Dit 2935076
किंवा 2934934
၂ 2934692
vē@@ 2933936
هەر@@ 2931049
ەوەی 2931038
olla 2930175
гру@@ 2930037
300 2929208
fut@@ 2929020
அவ@@ 2928954
ası 2928194
э 2928054
၁ 2927658
Gre@@ 2926945
ڕێگ@@ 2926715
dö@@ 2925545
uw@@ 2925535
сында 2925277
力 2924798
уда@@ 2924780
bija 2924369
اء 2923428
сно 2923299
ەوێت 2922427
ရပ 2922419
ဆိုတာ@@ 2922390
বল@@ 2921659
ham 2921115
каз@@ 2920107
voj@@ 2918993
жда@@ 2918407
wen@@ 2918037
proced@@ 2917554
uš@@ 2917312
ეჲ@@ 2917279
μου 2917078
Ben@@ 2916301
angan 2916284
בצ@@ 2916142
py@@ 2915690
ral 2914911
อน 2914400
เป็น@@ 2914018
elu 2912864
цэ@@ 2912570
θεί 2912054
Ko@@ 2909652
obi@@ 2908227
दोन 2908162
خ 2908090
пы@@ 2907392
onu 2907352
ů@@ 2907009
हणून 2906829
зда@@ 2906712
شي@@ 2906099
kot@@ 2906071
ър@@ 2905962
elen 2905569
ী@@ 2905279
وەر@@ 2905213
zal@@ 2904842
λο@@ 2904409
内 2904138
são 2903982
гле@@ 2903977
им 2903191
ரு@@ 2902958
cil@@ 2902136
่า@@ 2902084
Chú 2901387
cep@@ 2899677
amis@@ 2899498
daar@@ 2899223
სა@@ 2898648
ří@@ 2898346
שי 2897997
डि@@ 2896681
ações 2896341
жо@@ 2896184
מכ@@ 2895358
tom 2895269
õ 2895228
ีย@@ 2895206
vad 2894279
τε@@ 2893473
ு@@ 2892720
ะ@@ 2892565
분@@ 2890960
ફ 2890441
стро@@ 2890273
لي 2890247
ау@@ 2890175
тен@@ 2889834
同@@ 2889640
spra@@ 2889305
ük 2888853
también 2888480
ۆ 2888241
int 2888216
مق@@ 2888211
ıs@@ 2887906
พระ@@ 2886272
gö@@ 2886258
ві 2886029
arg@@ 2885782
syn@@ 2885600
재@@ 2885164
hä@@ 2884912
나 2884580
报告 2883856
Pa@@ 2883470
isti 2883449
jon 2882314
Unie 2882269
okol@@ 2881986
իմ 2881159
вата 2881072
enen 2880213
არა 2879602
UN@@ 2879331
ں 2878927
blo@@ 2878624
ед@@ 2878492
ń@@ 2878197
ať 2877790
ged@@ 2877051
ņ@@ 2877049
adi 2876703
30@@ 2876694
בות 2875912
ÿÿÿÿ 2875194
ိတ 2875123
一个 2874996
کێش@@ 2874943
vær@@ 2874935
し@@ 2874636
гар@@ 2874102
aw 2873732
शिक 2873408
物 2872979
viol@@ 2872526
中@@ 2872330
ком 2871965
samme 2870975
Commissione 2870937
بڕ@@ 2870726
યારે 2870686
rea 2869360
OKtext 2869050
nog@@ 2868936
lji@@ 2868934
vid 2867019
contra 2866432
یەک 2866382
يم 2865859
zor@@ 2865661
هر@@ 2865481
மா@@ 2863697
당@@ 2863666
ag 2863570
дру@@ 2863514
רכ@@ 2863359
نەوە 2862068
ڵام 2862050
vagy 2861641
डा@@ 2860628
εσ@@ 2859996
чна 2859944
rod@@ 2859686
মা@@ 2858624
ઠ@@ 2858376
入 2858351
ા@@ 2857895
zt 2857772
41 2857379
aca 2856548
ित 2856538
nə 2856042
方 2855838
산@@ 2855674
ún 2855588
کات 2855324
אים 2854972
Europ@@ 2854625
ned 2854134
mia 2853477
জন 2852526
նում 2852469
slut@@ 2851585
Parlament@@ 2851088
Ө@@ 2850558
tempo 2850259
هەروەها 2849130
လမ 2848812
اين 2847927
nič@@ 2847396
ds@@ 2847333
χρ@@ 2846689
eig@@ 2845941
フ@@ 2845161
ि 2843297
sed@@ 2843079
jū@@ 2842090
رف@@ 2841899
등@@ 2840517
ib@@ 2840244
spē@@ 2839893
ખા@@ 2839352
кар@@ 2839127
Unione 2837804
n' 2837332
kw@@ 2837156
болно 2836815
तुमच 2836554
¬ 2836537
cer 2836355
inim@@ 2836101
́ 2834921
49 2834522
καλ@@ 2832421
svet@@ 2832306
65 2832198
мет@@ 2831083
yst@@ 2830998
mik@@ 2830771
njeg@@ 2830554
ces@@ 2829588
联合国 2828822
ခန 2827808
кре@@ 2827317
chi 2827222
online 2826585
premi@@ 2826455
хий@@ 2825173
πρ@@ 2824883
39 2824576
чер@@ 2823338
้า 2823186
må 2823175
тов 2822542
니@@ 2822530
ép@@ 2822326
실@@ 2821504
2. 2821222
בת 2820435
ધ 2820358
những 2820345
çalış@@ 2820034
zaj@@ 2818582
ஸ 2818560
않@@ 2818501
να@@ 2818242
gam@@ 2817456
nosť 2815749
princi@@ 2815513
сон 2814391
ное 2813132
கிறேன 2812541
Pos@@ 2812133
tiv 2811888
कां@@ 2810817
Herr 2809739
கள@@ 2809690
સમ@@ 2808115
道 2808017
esse 2808011
وج@@ 2807106
qə@@ 2806978
hem 2806500
աշ@@ 2805806
ву 2805468
når 2805128
ování 2804544
ák 2804441
มา@@ 2804434
чы 2803815
બી@@ 2803767
αλλά 2802051
ικές 2801780
quanto 2801767
全@@ 2801746
စဉ 2801533
成@@ 2799983
бар 2799810
sonra 2799784
AC@@ 2799561
tika 2797942
ভা@@ 2797556
Və 2797460
crit@@ 2796743
York 2796421
då 2796127
Das 2795171
ful@@ 2794967
ေျပာ@@ 2794522
bë@@ 2794377
onda 2793538
φορ@@ 2792056
ապ@@ 2791788
հետ 2790895
பே@@ 2790743
合 2789576
『 2789403
sev@@ 2788649
ებ@@ 2788414
быў 2787825
ထဲ@@ 2787516
λλ@@ 2785949
နေ 2785775
ман@@ 2785454
які 2785017
உள 2784920
உங 2784892
став@@ 2784785
въ@@ 2783472
』 2783353
¶ 2782977
ფვ 2782767
պես 2782719
ācijas 2782603
eurs 2782420
ایه 2782366
い@@ 2782208
행@@ 2781982
тор@@ 2781182
ligen 2780687
ەکان@@ 2780187
svi@@ 2780168
zw@@ 2778143
האי@@ 2778056
No@@ 2777297
ჲრ 2777176
yti 2776983
erer 2776753
aos 2776677
یک 2776631
hon@@ 2776205
199@@ 2774031
ities 2773554
apar@@ 2773459
Pu@@ 2773086
مجھے 2772688
라 2772586
гол@@ 2772168
eka 2770446
jit@@ 2770052
dí@@ 2769879
ють 2769631
яв@@ 2769359
ော@@ 2768742
الب@@ 2768413
ရဲ႕ 2768248
deci@@ 2767991
caso 2767540
base 2766797
ikan 2766191
বি@@ 2766097
पि@@ 2765316
۱@@ 2765227
yer 2765128
jut@@ 2765029
landet 2764376
čių 2764323
ستان 2763979
oni@@ 2763753
ými 2763461
שם 2763354
ür 2763091
ိဳ@@ 2762990
תם 2762654
համ@@ 2762305
ড়@@ 2762139
kup@@ 2762034
ostat@@ 2760708
पे@@ 2760232
ડા@@ 2759879
ေသ@@ 2759496
းစား@@ 2759490
baz@@ 2759417
我们 2759383
яны 2759359
ult 2759070
¹ 2758873
Tr@@ 2758826
kunne 2758603
ु@@ 2757446
eko 2757228
Gra@@ 2757015
έλ@@ 2756844
ű 2756699
वह 2756020
går 2755367
4,@@ 2753710
esit@@ 2753552
дэг 2753274
यांनी 2753148
言 2752573
egen 2752547
ώ 2752534
materi@@ 2752063
sini 2751602
kou 2751323
ဇ@@ 2750821
եղ@@ 2750398
52 2749057
isto 2748931
जेव 2748879
ał@@ 2748799
ուր@@ 2748295
ils 2748066
Pen@@ 2748056
ную 2747865
ે@@ 2747826
टे@@ 2747826
ság@@ 2747524
ंत 2747036
½ 2746996
Kat@@ 2744927
vig@@ 2744559
1998 2744214
ู@@ 2743711
ської 2742840
43 2742350
зи 2742204
통@@ 2741910
Ri@@ 2741895
chten 2741655
Commission 2740895
यला 2740859
anim@@ 2739207
Vo@@ 2739202
ดี 2738854
ote 2738346
ウ@@ 2738230
역@@ 2737709
ted 2737533
Ġ@@ 2737280
צ 2737092
рі 2736828
social 2735423
kon 2735249
zur 2734203
Fre@@ 2733035
ală 2731964
porque 2731940
있다 2730945
¦ 2730584
号 2730583
нов 2730531
남@@ 2730180
sla@@ 2729974
რჲ@@ 2729590
enje 2729083
과@@ 2728955
ბთ@@ 2728574
Dom@@ 2728301
સિ@@ 2726357
ဘူး@@ 2726177
जास 2725134
सू@@ 2724128
dost@@ 2724061
кам 2723702
ول 2722952
деп 2722490
ωση 2721555
အခု@@ 2720936
တွေနဲ 2720932
chod@@ 2720868
بۆیە 2719839
рт@@ 2719594
ungs@@ 2719373
får 2718533
jiet 2718018
असेल 2718005
ရွ@@ 2717414
last@@ 2716728
ჳ@@ 2716672
ુ@@ 2716343
üm@@ 2716032
जी@@ 2715824
itä 2715749
kif 2715712
mol@@ 2715530
ματος 2714556
vari@@ 2713369
هم@@ 2713180
qui@@ 2712901
ojn 2712774
kut@@ 2712636
вол@@ 2712520
ван@@ 2712273
ير@@ 2712157
jes@@ 2711940
მთ 2711584
ەم@@ 2711260
بهێن@@ 2711219
करू 2710749
ça 2710464
နေတဲ 2710405
अं@@ 2710287
solu@@ 2709145
dil@@ 2708776
第@@ 2707639
化 2707193
بين 2706986
णे 2706887
цы@@ 2706756
اوی 2706385
run@@ 2706075
sas@@ 2705845
ณ@@ 2705233
tes@@ 2704965
նա 2704760
ət@@ 2704278
विचार 2704273
יי@@ 2704150
тво@@ 2702885
sit 2701878
ецца 2701769
ī 2701605
demokrat@@ 2701361
part@@ 2700988
proti 2700362
бе 2700043
itar 2698989
nation@@ 2698906
Ñ@@ 2698795
refer@@ 2697338
ies 2696787
stem@@ 2696649
းတဲ 2696408
Kan@@ 2696295
बे@@ 2696158
IC@@ 2695942
โดย 2695893
lə 2695441
uş@@ 2695426
ဆိုင 2694663
め 2694112
分@@ 2693841
99 2692609
appro@@ 2692174
次 2691966
sy 2691767
ニ@@ 2691652
эн@@ 2690280
Foglalás 2690253
pov@@ 2689723
ков 2689475
organ@@ 2689265
uporab@@ 2689168
עים 2688864
კა 2688384
mam@@ 2687823
cr@@ 2687000
ախ@@ 2686508
iro 2686168
ית 2685713
شتێک 2685354
وم 2684756
condi@@ 2684540
rin 2684427
side 2683848
ча 2683554
mest@@ 2683188
56 2682953
үр@@ 2682724
Fin@@ 2682601
းတစ 2682374
մասին 2682154
ız 2681896
oti@@ 2681486
טי 2680466
več@@ 2680017
ões 2679423
had 2678415
yy@@ 2678183
цел@@ 2677787
sigur@@ 2677121
όσ@@ 2676767
mus 2676571
dist@@ 2676526
skup@@ 2676077
tää 2675884
ies@@ 2675397
टर 2674656
darb@@ 2674548
ை 2674405
מד@@ 2673340
kollha 2673143
elec@@ 2673062
olarak 2672839
որը 2671864
עת 2671523
modo 2671416
εια 2671153
jumu 2670268
能 2670015
კ 2669955
այն@@ 2669848
मिळ@@ 2669752
aya 2669039
ev 2668331
oja 2668092
ain 2667036
пол@@ 2666870
ေပါ 2666622
ینه 2665891
minus 2664400
আর 2664263
super@@ 2664252
政府 2663010
stand@@ 2662261
गा 2661777
ကြတယ 2661368
ég@@ 2661084
આપ@@ 2660806
cui 2659723
vas@@ 2659714
evrop@@ 2659686
카@@ 2659144
kim 2658508
øn@@ 2658194
tiek 2657954
အရ@@ 2657883
его 2657841
lara 2657436
нам 2656464
elor 2656433
того 2656419
još 2656140
Fer@@ 2655557
rö@@ 2654500
алі@@ 2654301
બે@@ 2653999
niek@@ 2653928
ля 2653846
lek@@ 2653817
vec@@ 2653587
off@@ 2653076
ín@@ 2652882
עות 2652691
хара@@ 2652667
كر@@ 2652545
rom@@ 2652066
رب@@ 2652032
Ing@@ 2651892
pēc 2651797
ems 2650567
59 2650286
amp@@ 2650051
ું 2649875
ep 2648801
ула@@ 2648716
OR@@ 2648207
phải 2647853
dessa 2647277
தில 2646709
udi@@ 2646655
サ@@ 2646563
fel 2646486
uksen 2645916
rada 2645756
Ak@@ 2645351
leur 2644602
ရှ@@ 2644002
vät 2643191
mand@@ 2643035
或 2642927
hil@@ 2642722
esper@@ 2642628
brit@@ 2642627
னை 2642405
ڕۆژ@@ 2642238
سم 2641601
જે 2641524
på@@ 2641168
дан@@ 2640799
पर@@ 2640347
ecz@@ 2639817
godina 2639369
38@@ 2639177
È@@ 2639018
提供 2638913
lop@@ 2637540
उप@@ 2637433
тұ@@ 2637411
seu 2637394
umi 2635878
კჲ 2635543
cop@@ 2635341
Afri@@ 2634919
בל 2634609
ți 2634562
Jed@@ 2634543
جو 2634119
组织 2633417
સુ@@ 2632785
cost@@ 2632577
eto 2632498
put 2632448
टि@@ 2631880
tid@@ 2631728
Go@@ 2630852
ထဲက 2629814
ēr@@ 2629568
dokument@@ 2629538
لێ 2629338
mek 2628904
ovanje 2628518
देश 2628363
program 2628359
ль 2628273
olo 2627453
vào 2627118
ves@@ 2626609
၃ 2626308
võ@@ 2626149
бли@@ 2625896
نگ 2625662
ัน@@ 2625516
â 2625286
bran@@ 2625004
ուց@@ 2624679
гово@@ 2624303
diz@@ 2624012
לת@@ 2623800
เช@@ 2623321
شک@@ 2623003
raj@@ 2622930
Ин@@ 2622891
ον@@ 2622164
lin 2621877
اتی 2621112
קט@@ 2620889
کۆمەڵ@@ 2620693
væ@@ 2620635
cooper@@ 2620152
Sar@@ 2619654
opp@@ 2619601
ваць 2619460
યાં 2619421
čin@@ 2619050
শ 2618648
ós 2618364
jun@@ 2618350
pass@@ 2618272
yr@@ 2617830
acije 2617411
Pot@@ 2616994
zik 2616815
στον 2616592
دەو@@ 2616395
ัง@@ 2616120
ً 2615557
fot@@ 2615501
haar 2615446
षण 2615445
אך 2615340
áci@@ 2614889
时 2614582
ings 2614464
stä 2614383
וני 2612944
gad@@ 2612578
тся 2612567
eniu 2611928
member@@ 2611325
અં@@ 2610636
เม@@ 2610188
Да@@ 2609722
өө 2609588
तं 2609566
pasi@@ 2609368
47 2609282
Bro@@ 2608884
용@@ 2608543
ün 2607659
aud@@ 2607257
ص 2607196
tio 2607172
มี@@ 2607138
יש 2606828
само 2606745
54 2606519
чен@@ 2605657
გა 2605328
ազ@@ 2604819
ем@@ 2604150
차@@ 2603729
ပြု@@ 2603532
pá@@ 2603468
এটা 2603278
godine 2603116
information 2602966
ုံ@@ 2601779
ures 2601325
ська 2600656
termin@@ 2600435
बो@@ 2598963
ám 2598862
50@@ 2598652
地@@ 2598504
andra 2598429
continu@@ 2598091
нието 2597707
না@@ 2597591
ļu 2596299
пло@@ 2595921
بھی 2595417
ド@@ 2595032
بی 2594854
ето 2594746
første 2594715
IT 2594626
本 2592872
աղ@@ 2592528
په 2592050
نام@@ 2591987
बन@@ 2591846
ինչ@@ 2591818
mö@@ 2591214
لەبەر 2590517
skog 2590453
જી@@ 2590343
əm 2590264
Би@@ 2589818
yü@@ 2589421
hr 2589030
작@@ 2588863
Tre@@ 2588667
olu@@ 2588544
zé@@ 2588514
Oh 2588206
miş@@ 2588002
ož@@ 2587807
сен@@ 2587726
باش 2587167
מש 2586698
oro 2586161
ком@@ 2585891
بي 2585698
ื@@ 2582844
ستم 2582468
J 2582444
ја@@ 2582298
rä@@ 2581536
ор 2580650
השי@@ 2580103
களை 2579745
euro@@ 2579000
kell@@ 2578941
ורים 2578678
pati@@ 2578558
यो@@ 2577895
তা@@ 2577688
该 2577284
थे 2577110
և@@ 2575824
Ni 2575491
ηγ@@ 2575468
къ@@ 2575355
Ven@@ 2575203
skat@@ 2575033
atti@@ 2574827
fø@@ 2574651
الو@@ 2574246
les@@ 2573340
pin@@ 2572968
pozn@@ 2572551
ษ@@ 2572154
Kal@@ 2571281
Ро@@ 2570760
ion 2570739
asti 2570568
май@@ 2570552
relat@@ 2570340
μέ@@ 2570190
mir 2568953
байх 2568751
新@@ 2568258
یار@@ 2568175
רון 2567835
dana 2567362
თჱ@@ 2566464
pé@@ 2565553
后 2565367
vara 2565311
ની@@ 2564902
even 2564635
вали 2564179
าน 2563930
musi@@ 2562948
あ@@ 2562254
вен@@ 2561838
ljen@@ 2561815
ετ@@ 2561713
doen 2561258
εγ@@ 2561252
及 2560004
タ@@ 2558568
तून 2556946
ira@@ 2555818
νομ@@ 2555707
kell 2555475
போ@@ 2555072
ox@@ 2554615
itet 2554607
36@@ 2553979
cí@@ 2553946
jų 2553407
gled@@ 2553399
포@@ 2552815
kaip 2552773
pril@@ 2552605
وێن@@ 2551775
хра@@ 2550669
ţi@@ 2550297
lia 2549424
eder 2548765
digt 2548641
atud 2548529
нау@@ 2548486
ကလေး@@ 2547475
بکەم 2547446
ması 2546997
mid@@ 2546982
Ю@@ 2545888
؛ 2544893
दिस@@ 2544191
ျ@@ 2543976
пар@@ 2543871
سم@@ 2543346
stand 2543211
विश 2542795
ीच 2542360
ex 2541863
dien 2541785
ây 2541546
amat@@ 2540885
hot@@ 2540877
gy 2540196
אחד 2539840
เส@@ 2539440
berg 2538807
ပြင 2538718
ման 2538497
名 2538463
тели 2538414
яе 2538398
gol@@ 2538391
вър@@ 2538116
eci@@ 2537870
šč@@ 2537641
上@@ 2537592
পা@@ 2537070
rom 2536903
acest 2535870
jej 2535825
ambi@@ 2535394
taj 2535384
pow@@ 2534827
ijo 2534134
58 2533877
यामुळे 2533591
学 2533342
รั@@ 2532730
मग 2532532
Λ@@ 2531888
estab@@ 2531802
בים 2531795
ထားတဲ 2531704
ચા@@ 2531445
mõ@@ 2530470
бір 2530425
ֆ@@ 2530424
jums 2530372
má 2530354
پێش 2530173
Em@@ 2529401
بو 2528771
نین 2528605
ု 2528243
yol@@ 2528241
به@@ 2527627
În 2527061
5,@@ 2526747
gì 2525443
uch@@ 2525001
Ә@@ 2524825
Euro@@ 2524449
ovanie 2523613
ellen 2522275
有@@ 2521989
igi 2520957
Bil@@ 2520699
bb@@ 2520475
skim 2520366
iż@@ 2520026
UTC 2519894
ub@@ 2519195
ો@@ 2518524
nings@@ 2518319
zou 2518252
ริ@@ 2518234
сті@@ 2517713
pubbli@@ 2517609
lichen 2517506
sme 2517437
وی 2517377
жи 2517367
éri@@ 2517356
čo 2517273
pelo 2516759
군@@ 2516553
фа@@ 2516545
тай@@ 2515713
ที่@@ 2515702
apli@@ 2515430
вар@@ 2514809
দ 2514724
חק 2514352
စည 2514172
сті 2513818
vin 2513235
ім 2512749
زار@@ 2512718
エ@@ 2512228
hran@@ 2511742
μετα@@ 2511447
πι@@ 2510428
buvo 2508672
بکات 2508668
mana 2508471
요@@ 2508421
մեր 2507724
ավելի 2507700
저@@ 2507455
امی 2507242
gü@@ 2506611
ments 2505345
自@@ 2504894
anju 2504261
वार 2504085
ွန 2503691
တောင 2503682
сту@@ 2503658
laş@@ 2503087
הייתה 2502226
पी@@ 2502192
դ 2502066
osi 2501797
সে 2500364
skab@@ 2500344
אח@@ 2500251
ပေါင 2500169
یم 2500156
વામાં 2500064
eş@@ 2499943
파@@ 2499433
aur@@ 2499085
acak 2498694
ալ 2497490
Tak@@ 2497471
нды@@ 2497390
uar 2497269
meta 2497067
đến 2496939
دنی 2496904
கிறது 2496854
ရောက 2496663
その 2495794
hele 2495201
оли@@ 2494765
물@@ 2494528
К 2494459
để 2494387
่ง@@ 2494340
www.almohandes.org 2494204
neces@@ 2493615
פות 2493350
พ.ศ. 2493056
сте 2492977
дна 2492254
predstav@@ 2491714
گۆڕ@@ 2491377
بود 2491219
aal@@ 2491218
बर 2491175
دو 2490548
当@@ 2490196
θέ@@ 2490176
کم 2489878
nja 2489828
autres 2489789
ίν@@ 2489325
orit@@ 2489114
सो@@ 2489083
ativa 2488780
вла@@ 2488656
रां@@ 2488402
ấy 2488295
而 2488188
ijos 2487568
tagħhom 2486704
ைக 2486700
간@@ 2486455
хі@@ 2486268
国@@ 2485959
রে 2485068
ləri 2484844
ця 2484629
ဖြ@@ 2484430
ဖက 2484389
nella 2483422
rati@@ 2483222
ساڵ 2482761
όρ@@ 2482739
nav 2482591
isten 2482336
Gen@@ 2481717
סה 2481369
mat 2480909
Гэта 2480077
57 2479343
ထဲမှာ 2479150
nan 2479132
Kun@@ 2479118
ၿ@@ 2479112
used 2479060
ষ@@ 2478783
作 2478586
εία 2478287
också 2478036
nå 2478010
நாம 2477942
rob@@ 2477720
inom 2477693
53 2477574
oli@@ 2477555
oko 2476907
你 2476198
ров 2475992
オ@@ 2475374
な@@ 2475074
ać 2474540
pav@@ 2474032
deve 2473808
áll@@ 2473694
geç@@ 2473439
zen@@ 2473390
ણી 2473359
As 2472998
ต้อง 2472232
saj@@ 2472228
muut@@ 2471801
ėj@@ 2471114
ingår 2470927
Да 2470550
گەی@@ 2469822
ù 2469616
sok 2469581
एक@@ 2469326
wal@@ 2467108
arbet@@ 2466585
ότητα 2466425
நி@@ 2466322
반@@ 2465973
دەدات 2465532
Za 2464957
jsou 2464690
এক@@ 2464677
teis@@ 2464291
پ 2464111
deb@@ 2463773
၃@@ 2463376
بووم 2462596
inv@@ 2462449
үз@@ 2461448
ێک@@ 2461209
necess@@ 2461203
コ@@ 2460868
дээр 2460822
kes 2460543
િ@@ 2460292
eleg@@ 2460133
આવ 2459881
جان@@ 2459848
נג@@ 2459663
ટી@@ 2458934
responsab@@ 2458652
also 2458500
կար@@ 2458480
свя@@ 2458309
film 2457777
ným 2457597
ղ@@ 2456748
ền 2456404
երբ 2456402
私 2456311
Ich 2455948
moder@@ 2455780
ines 2455500
ől 2455196
ät 2455061
Դ@@ 2454935
гер@@ 2454701
घे@@ 2454468
रण 2454237
bus 2453482
она@@ 2453094
āk 2453023
diver@@ 2453018
सा 2452999
tige 2452712
ному 2452367
立 2451247
အကြ@@ 2451107
ài 2450885
ral@@ 2450652
arbe@@ 2449957
azi@@ 2449755
Mad@@ 2449702
הט@@ 2449042
вас 2448457
လို႔@@ 2447624
lay@@ 2446234
याचे 2445831
else 2445764
gospodar@@ 2445485
igu@@ 2445080
zost@@ 2444761
Пре@@ 2444614
ئام@@ 2444487
Għ@@ 2444477
ույ@@ 2444226
тін 2444156
тер 2443858
så@@ 2443717
この 2442952
dır 2442103
தான 2441569
andere 2440802
事@@ 2440339
οποία 2439985
garanti@@ 2439727
Ju@@ 2439602
joka 2439227
ách 2437532
ené 2437446
Dis@@ 2436789
slu@@ 2436667
a.@@ 2436251
தா@@ 2435775
دن@@ 2435735
tista 2435554
vista 2435118
러@@ 2435071
Több 2434731
ุ 2434425
EL@@ 2433947
ภ@@ 2433658
مر 2433304
авто@@ 2433259
려@@ 2432397
tte 2431806
dži@@ 2431788
дзя@@ 2431418
heden 2431396
שנה 2431241
кол@@ 2431088
Anda 2431045
ság 2430644
Ки@@ 2430533
efek@@ 2430522
باره 2430280
တက 2430102
tel 2429606
ٹ 2429598
Brit@@ 2429152
ும 2428493
Ag@@ 2428108
žu 2428037
היו 2428013
mange 2427908
վա@@ 2427794
emp@@ 2426327
ગા@@ 2426133
e.@@ 2426128
inde@@ 2425765
Í@@ 2425624
үй@@ 2425240
Voorzitter 2425105
亚 2424332
ajte 2424274
मान@@ 2424162
hö@@ 2424106
ţii 2423751
ူး@@ 2423126
lugar 2422805
دای@@ 2421122
famil@@ 2420959
nach 2420681
ait 2420022
কা@@ 2419769
kë@@ 2419527
meget 2418686
فێر@@ 2418097
ź@@ 2418048
ξη 2416924
жыл@@ 2416256
cos 2416001
ded 2415633
चु@@ 2415051
olduğunu 2414804
mot 2414743
кан@@ 2414701
fin 2414406
jš@@ 2414394
pravi@@ 2414382
တာကို 2414323
음@@ 2414039
ולה 2413995
یەکی 2413825
მთ@@ 2413796
мэдэ@@ 2413448
Tor@@ 2413258
خر@@ 2412419
кой 2412190
limit@@ 2411674
nei 2411522
保@@ 2411205
els@@ 2411107
ήσει 2411003
سته 2410941
contro@@ 2410537
към 2409471
ِ 2409253
ကန 2409078
tiegħu 2408859
ہو@@ 2408818
fly@@ 2408616
Cer@@ 2408272
eci 2407829
法@@ 2407791
Το 2407622
vill 2407402
ely 2407306
pays 2407259
Ma 2407127
κλ@@ 2407041
했다 2407003
itt 2406911
ham@@ 2406556
Ru@@ 2406478
400 2406030
सांग@@ 2405991
như 2405623
dak 2404742
سة 2404500
fram@@ 2404387
Kommissionen 2404186
sle@@ 2403730
داو@@ 2403535
kte 2403268
tren@@ 2403087
As@@ 2402791
Apa 2402616
över@@ 2402065
бар@@ 2401635
utiliz@@ 2401514
şey 2401221
воз@@ 2401108
κατά 2401080
had@@ 2400678
laik@@ 2400484
ဖန 2400304
프@@ 2399548
tego 2399528
war 2398100
ולי@@ 2398062
Gru@@ 2398053
dır@@ 2397851
Zi@@ 2397463
oraz 2397423
बद 2397377
мар@@ 2397305
इस@@ 2397049
zag@@ 2396843
အဲ 2396839
မှန 2396804
siden 2396793
ová 2396319
ეთ@@ 2395953
노@@ 2395760
yor@@ 2395394
ปี 2395349
ဲ 2395050
сай@@ 2395042
ksi 2395014
έχουν 2393223
zast@@ 2393122
väl@@ 2393046
Met@@ 2392844
raž@@ 2392685
tivo 2392512
कडे 2392387
ساڵی 2392242
keit 2391576
prof@@ 2391561
funk@@ 2391531
jet 2391238
ձ@@ 2391013
اح@@ 2390917
בן 2390011
rum@@ 2389958
reform@@ 2389900
ကနေ 2389801
tej 2389092
पासून 2388688
业 2388206
အတြက 2388036
ڕوو@@ 2387921
treba 2387598
kam 2387564
रू@@ 2387551
sı@@ 2387299
тно 2386787
ברי@@ 2386598
호@@ 2386130
tõ@@ 2385841
ડી 2385713
पो@@ 2385332
یش 2385312
acija 2385013
лік 2384775
ખ 2384438
นิ@@ 2384132
적@@ 2383925
które 2383514
jum@@ 2383128
tog 2382543
out 2381957
centr@@ 2381485
알@@ 2381293
jsem 2380657
είς 2380567
нен 2380456
lại 2380098
شوێن@@ 2379316
הבי@@ 2379161
Rus@@ 2379037
ята 2378815
može 2378740
під@@ 2378477
mogu 2378230
पत 2378140
ää 2377261
Vor@@ 2376740
stop@@ 2376486
Nu 2376035
prá@@ 2375593
rem@@ 2375554
वर@@ 2375116
rag@@ 2374686
khi 2374615
وق@@ 2374076
यू@@ 2373982
pred 2373711
ु 2373606
αρχ@@ 2373536
Ein@@ 2373263
degli 2372974
ey 2372907
دانی 2372830
نت@@ 2372607
noteik@@ 2372272
출@@ 2371471
明 2371429
습니다 2370756
دڵ@@ 2370714
priv@@ 2370448
kus 2369156
haj@@ 2369156
enu 2368784
ավոր@@ 2368254
ną 2367621
postav@@ 2367198
ဒီလို@@ 2367030
Jan@@ 2366931
ญ@@ 2366555
եց@@ 2366143
лер@@ 2365853
bol 2365336
وأ@@ 2364712
зя@@ 2363917
egin 2363877
тия 2363762
मी@@ 2363539
家 2363031
ंड 2363008
mycket 2362694
লা@@ 2362454
ula 2362162
Gr@@ 2362068
fen@@ 2361871
gor@@ 2361702
össz@@ 2361072
か@@ 2360543
mak 2360341
ního 2360225
muito 2359979
ô 2359948
ện 2359405
potre@@ 2359314
pomo@@ 2358168
қар@@ 2358053
ئێوە 2357739
prič@@ 2357233
デ@@ 2356658
sociale 2356596
цу@@ 2356096
էին 2355844
向 2355641
kow@@ 2355081
pää@@ 2354998
юу 2354807
سب 2354516
EUR 2354432
Cre@@ 2354196
ματα 2354106
без 2353835
inté@@ 2353247
ီ 2353088
နှ@@ 2353088
ဆီ@@ 2353001
ated 2352966
savo 2352322
দেখ@@ 2351878
παρα@@ 2350989
بین 2350640
emy 2350268
way 2349925
sektor@@ 2349727
อก 2349692
ဆန 2349501
sho@@ 2349178
anza 2348839
nab@@ 2348407
sell@@ 2348385
ıyor 2347614
lio 2347039
več 2346888
된 2346728
einem 2346403
хан 2346137
ciju 2345394
fs 2344986
Ο 2344360
dė@@ 2343747
جا 2343312
Br@@ 2343288
ًا 2342410
Ме@@ 2342339
поло@@ 2342242
Mag@@ 2341889
રે 2341281
வே@@ 2341176
prot@@ 2340925
нд@@ 2340875
असते 2340414
κρ@@ 2340313
σύ@@ 2340283
Senhor 2340150
האו@@ 2339821
aar@@ 2339815
ycz@@ 2339726
ทำ 2338773
מ 2338371
lö@@ 2338188
tod@@ 2337493
iet@@ 2337489
체@@ 2337245
ရွင 2337236
موو 2336911
主@@ 2336865
mhux 2336650
Но 2336263
rok 2335155
המש@@ 2334596
ond 2333995
றி@@ 2333909
system 2333792
အခ 2333737
auf@@ 2333704
결@@ 2333507
mise 2333380
փոխ@@ 2333335
社会 2333321
red 2332672
पड@@ 2332564
အချိန 2331986
ဉ 2331962
էի 2331235
mobil@@ 2331106
gə@@ 2331066
dyn 2331004
bb 2330996
တီး@@ 2330212
ob 2330148
ভ@@ 2329687
stru@@ 2329597
αυτή 2329218
Ham@@ 2329108
१@@ 2329041
မှ@@ 2328489
bisa 2328377
95 2328331
मा 2328191
mint 2328034
دار 2327876
ական@@ 2327107
ninger 2326807
скла@@ 2326145
الا@@ 2326064
अनु@@ 2325757
ृ@@ 2325166
są 2324861
קי 2324820
tent@@ 2324212
ผู้@@ 2323335
پۆ@@ 2323272
Los 2323146
գր@@ 2323140
podat@@ 2323093
lec@@ 2323061
rati 2322982
하여 2322659
gek@@ 2321721
מית 2321620
пя@@ 2321525
fog@@ 2320798
گی@@ 2320120
cher 2319354
jan 2319281
рт 2319142
अपने 2318662
Unión 2318556
rész@@ 2318485
вал 2317754
אות 2317743
klas@@ 2317618
anden 2317101
RE@@ 2317089
Pan@@ 2316163
ফ@@ 2315735
ért 2315642
oor@@ 2315509
اع@@ 2314503
مل 2314379
ть@@ 2314102
dire@@ 2313752
ـ@@ 2313595
mare 2313586
formand 2313146
ech 2313071
야@@ 2312954
gew@@ 2312730
قد 2312718
gas 2312103
本@@ 2311862
face 2311645
घड@@ 2311527
almohandes.org.2016 2311426
းေတြ@@ 2310947
လိမ 2310927
িয়@@ 2310872
אלי@@ 2310697
You 2309543
ჳ 2309397
Pon@@ 2309293
နာ@@ 2309240
သန 2309194
вра@@ 2308544
وان@@ 2308097
före@@ 2308078
emis@@ 2305859
τού@@ 2305735
dů@@ 2305182
င@@ 2305041
rap@@ 2304878
करते 2304757
დ 2304428
တုန 2303944
eľ@@ 2303627
los@@ 2303581
zum 2303484
ँ@@ 2303209
кто@@ 2303087
साथ 2302568
solo 2302008
घा@@ 2301787
char@@ 2301514
zet@@ 2301501
เท@@ 2301331
هي@@ 2301290
San 2300940
род@@ 2300710
စရာ@@ 2300445
रों 2300176
União 2299534
אר 2299302
外 2299117
visi@@ 2298740
ေပး@@ 2298675
tale 2298609
ถึง 2298510
đây 2298478
Те@@ 2297575
တိ@@ 2296937
grande 2296255
Nap@@ 2295964
点 2295736
pluss 2294901
ches 2294879
थि@@ 2294542
1997 2294197
וני@@ 2294093
kaž@@ 2293761
ငံ@@ 2293477
זו@@ 2293183
hanno 2292553
खे@@ 2291895
šana 2291750
бере@@ 2290829
ัง 2290738
тел 2289134
κατ@@ 2289039
שת 2288903
ைய@@ 2288840
يع@@ 2288182
eet 2288093
bin 2288003
Але 2287890
ères 2287842
onze 2287272
können 2286805
ကုန 2286445
lill 2286361
باو@@ 2286299
ող 2286133
பெ@@ 2285944
جار@@ 2285929
мяне 2285741
zich 2285491
laz@@ 2285289
ใจ 2285056
biss 2283780
him 2283349
uu@@ 2283341
ढ@@ 2282467
Ħ@@ 2281884
한다 2281330
현@@ 2280520
งาน 2280470
Sol@@ 2280448
رد 2279709
tās 2279596
vit 2278745
Tri@@ 2278286
وری 2277954
về 2277781
ပစ 2277669
hai 2277540
یا@@ 2277048
তোমার 2276685
For 2276261
nač@@ 2276033
ჲ 2275904
ئەمەش 2275848
йг 2275670
sione 2275519
тан@@ 2275262
高@@ 2275205
druž@@ 2274484
kos 2274383
sre@@ 2274287
hans 2274099
interven@@ 2273694
services 2273665
član@@ 2273515
ย์ 2273441
sión 2273410
jam@@ 2273389
embre 2272992
без@@ 2272957
ous 2272789
ходи@@ 2272570
שמ@@ 2272421
vaš@@ 2272256
야 2272123
hen 2271775
Ві@@ 2271592
lis 2271537
каза@@ 2271480
kā@@ 2271421
havet 2271260
ॅ@@ 2271201
سال 2270814
кер@@ 2270810
esen 2270508
noch 2270454
Sta@@ 2270431
بح@@ 2270360
hva 2269471
kết 2269394
± 2268273
momento 2267907
δυ@@ 2267333
cad@@ 2266684
Google 2266543
Dar@@ 2266398
njih 2266345
jest@@ 2266239
nuo 2266147
याने 2265819
vio 2265280
ĉi 2264817
ま@@ 2264650
있는 2264530
多@@ 2264108
your 2263373
тру@@ 2263330
spi@@ 2263114
ến 2263076
گە 2263035
tw@@ 2263005
ۆن 2262976
мно@@ 2262687
cette 2262476
37@@ 2262466
คือ 2262160
สั@@ 2262016
стан@@ 2261313
64 2261208
இருந 2261103
vri@@ 2260355
에@@ 2260210
၄@@ 2260155
メ@@ 2259368
vär@@ 2259359
شده 2259163
ron 2258684
ək 2258634
след@@ 2258423
ド 2258352
wan@@ 2258263
mär@@ 2257783
Anh 2257190
важ@@ 2257101
entos 2256923
veel 2256230
כ 2256143
kapit@@ 2256017
धा 2255749
थी 2255226
atan 2254926
intel@@ 2254879
ც@@ 2254822
მო@@ 2254791
使 2254405
ڕاستی 2254313
sel 2253624
рай@@ 2253477
בפ@@ 2252893
جار 2252070
ije 2251759
ရ 2251425
ကေတာ 2251372
fö@@ 2251278
ինձ 2251187
ps 2250972
redu@@ 2250785
नस@@ 2250608
other 2249801
մե@@ 2249275
są@@ 2248897
dey@@ 2248841
вен 2248608
šu 2248284
дам 2247349
cha 2247276
όπως 2246752
အလ@@ 2246149
боль@@ 2246004
Î 2245768
레@@ 2245424
τικές 2245347
הל@@ 2245252
ўся 2244714
वाट@@ 2244552
આવી 2244548
hay 2244441
eik@@ 2243680
हे@@ 2243581
よう 2243290
mož@@ 2243154
ေလ@@ 2242614
oto 2242520
води@@ 2241995
дзе@@ 2241723
jez@@ 2241353
तुम@@ 2241120
kaik@@ 2240339
emu 2239722
ျပီး 2239130
다.@@ 2238387
dom 2238077
就 2237923
ળ 2237852
πρό@@ 2237824
特@@ 2237371
ێن 2237094
Ó@@ 2236686
ठ 2236644
ків 2236630
Ан@@ 2236180
гля@@ 2236027
ळा@@ 2235879
membri 2235820
ฮ@@ 2235723
unk 2235295
бір@@ 2235053
णी@@ 2234997
bien 2234941
는@@ 2234714
IT@@ 2234609
Но@@ 2234550
рова@@ 2234541
ဆို 2233896
대 2233369
alne 2233283
ром 2233165
život@@ 2233103
سێ 2232793
خوێند@@ 2232781
тъ@@ 2232477
ít 2231902
enten 2231372
fie 2231358
શા@@ 2230847
nga 2230729
äll@@ 2230705
λη@@ 2230623
Der@@ 2230449
方面 2230023
вать 2229652
važ@@ 2229534
նել 2228590
isesti 2227750
compl@@ 2227381
Ako 2227311
ването 2226515
sled@@ 2226367
ied@@ 2226358
هر 2226325
сто 2226136
grund@@ 2225869
Pas@@ 2225828
questa 2225261
stvari 2225143
aal 2224940
была 2224884
ۆر@@ 2224313
ڕ 2224273
جا@@ 2223668
ament@@ 2223664
ပါမယ 2223337
kull 2223095
ด้วย 2222548
sein 2221881
país 2221758
< 2221300
tud@@ 2221004
Bur@@ 2220925
nešto 2220644
ณ 2220277
ચ 2219980
နဲ႔@@ 2219856
imas 2219558
εφ@@ 2219515
চা@@ 2219506
ġġ 2219495
прав@@ 2219259
oci@@ 2218832
љ@@ 2218031
ír@@ 2217976
vida 2217967
mar 2217903
пара@@ 2217844
وان 2216901
қты 2216680
mig 2216635
itar@@ 2216444
mati@@ 2216055
ling@@ 2216053
bile 2215954
technolog@@ 2215632
fr@@ 2215488
полити@@ 2215378
eket 2215207
эс 2215133
adat@@ 2214894
ჲრ@@ 2214444
કાર 2213291
लोकां@@ 2213076
खूप 2213048
RO@@ 2212897
パ@@ 2212337
хар@@ 2212156
lož@@ 2210927
hø@@ 2210812
jena 2210034
urs 2209204
erin 2209107
dô@@ 2208942
बु@@ 2208929
பார 2208793
आप@@ 2208664
فت@@ 2208586
tiet@@ 2208366
Tom@@ 2208362
yak@@ 2208213
ġ 2207644
ţă 2207596
hou 2207484
jaun@@ 2207376
μία 2207223
τικό 2207078
milit@@ 2206703
बाद 2206646
však 2206373
Nem@@ 2205995
оль@@ 2205034
gin@@ 2204352
शन 2204216
Kaj 2203715
બાદ 2203161
kur 2202929
ِ@@ 2202803
segu@@ 2202793
خەڵک 2202623
લો@@ 2202600
yaz@@ 2202529
ній 2202311
Ta 2201561
тар 2201438
their 2200783
työ@@ 2200732
spol@@ 2200626
לנ@@ 2200415
auk@@ 2200359
jeho 2200314
ış 2199696
بان@@ 2198437
.html@@ 2198385
мне 2198006
ând 2197992
महत 2197973
щи 2197678
Nov@@ 2197469
चि@@ 2197131
Li 2197019
כמו 2196900
数 2196849
אל@@ 2196821
erd 2196696
lista 2196631
لم@@ 2196009
ही@@ 2194889
zien 2194659
Lin@@ 2194602
але@@ 2194435
ெ@@ 2194365
нию 2194286
ét 2193864
ပံု@@ 2193553
পার@@ 2193497
fort@@ 2193487
PS@@ 2192910
لای@@ 2192299
当 2192234
चार 2191889
သိပ 2191813
Den@@ 2191769
ներ@@ 2191695
grup@@ 2191437
töö@@ 2191349
.php 2190719
δρ@@ 2190599
вания 2190141
www.@@ 2189937
થઈ 2189683
پێی 2189676
bħala 2189077
uż@@ 2188539
bus@@ 2188331
stol@@ 2188300
mine 2187648
vš@@ 2187499
studi@@ 2187115
Што 2186896
Си@@ 2185304
关于 2185038
ုိ@@ 2184830
deput@@ 2184596
1996 2184182
вся 2184101
agri@@ 2183731
何 2183371
अधिक 2182987
μά@@ 2182475
mir@@ 2182445
meno 2182212
शक@@ 2181980
қала@@ 2181898
վել 2181425
դուք 2181419
களுக 2181075
ەتی 2181065
Jy 2181024
سي 2180937
бро@@ 2180091
wać 2180056
joj 2179836
itet@@ 2179828
nous 2179824
khoa 2179750
ရတဲ 2179544
่ 2179498
հաս@@ 2179401
ony 2179298
thành 2179260
potreb@@ 2178650
ený 2178259
分 2178214
றும 2178161
რო@@ 2178118
後 2177515
hely@@ 2177322
فة 2177195
ئۆ@@ 2176712
сни@@ 2176513
τος 2175920
она 2175737
voi 2175694
ți@@ 2175608
оста@@ 2174684
hər 2174576
မွ@@ 2174318
tema 2174088
nji 2174001
გჲ@@ 2173810
קר 2173196
milj@@ 2173109
помо@@ 2172590
они 2172504
加@@ 2172468
lum@@ 2171958
ssä 2171426
prac@@ 2171094
qa 2170901
usa 2170737
국 2170736
ünk 2170555
ség 2170501
обще@@ 2170155
έχ@@ 2170153
europeo 2170107
нэ 2169625
ေရး@@ 2169070
ဂ 2169039
ude 2168507
emi 2168234
Inform@@ 2167933
Пе@@ 2167892
weet 2167808
rī@@ 2167690
အာ@@ 2167306
ဆောင 2167292
ढ 2166880
před@@ 2166730
систе@@ 2166727
gende 2166620
video 2166505
केले 2166359
rio 2165943
نر@@ 2165531
лек@@ 2165459
κ. 2165178
อง@@ 2164773
drž@@ 2164572
trebuie 2163694
infra@@ 2163408
vál@@ 2163329
sou@@ 2163211
պատ@@ 2162966
Mən 2162847
эд 2162795
نة 2162497
така 2162164
ix@@ 2161960
từ 2161141
ség@@ 2160885
رية 2160696
مال 2160492
ago 2160222
जन 2159979
شە 2159601
Post@@ 2159421
фо@@ 2158871
되@@ 2158569
المو@@ 2158413
크@@ 2157896
ationen 2157332
ins@@ 2157203
เร@@ 2157202
ပန 2156800
iar 2156691
leurs 2156402
तेव 2156054
rata 2155060
eld 2154816
արդ@@ 2154787
Op@@ 2154704
konkur@@ 2154081
alen 2154050
priorit@@ 2153925
ထည 2153272
minim@@ 2152827
ジ@@ 2152669
constitu@@ 2152258
સી@@ 2152060
ihin 2151756
양@@ 2151677
ျခင 2151558
ء@@ 2151084
دە 2151021
уы@@ 2150730
sut@@ 2150536
mutta 2150390
তো 2150107
lag 2150062
以及 2149395
அது 2149070
தது 2149058
णा 2149050
ling 2148564
oblig@@ 2148545
transpor@@ 2148253
À 2148066
produk@@ 2147619
மற 2147613
ήσεις 2147410
erin@@ 2147402
ķ@@ 2147282
要 2147076
դր@@ 2146538
လံုး@@ 2146261
рен@@ 2146200
yıl@@ 2146000
спра@@ 2145364
と@@ 2145352
दिया 2145060
Ci@@ 2144788
produkt@@ 2144757
նա@@ 2144569
وت 2144443
Seg@@ 2143762
ħa 2143602
ћ@@ 2143417
الذي 2143004
ბა@@ 2142786
bis@@ 2142643
식@@ 2142429
úč@@ 2141319
ာင 2140994
နား@@ 2140986
Mis@@ 2140672
პ 2140617
՝ 2140360
应 2139699
CE@@ 2139490
ων@@ 2139322
avad 2139254
sena 2138920
При@@ 2138775
biz 2138520
էլ 2138336
трябва 2138246
یەکان 2137948
гэсэн 2137257
죠 2136893
πολύ 2136876
apie 2136716
proposta 2136665
વી@@ 2136614
लोक 2135443
rač@@ 2135388
rezult@@ 2135110
2020 2135080
Bir@@ 2134578
θούν 2134459
ใ@@ 2133887
वस 2133138
भाग 2132949
oso 2132164
סים 2131933
gün 2131786
Malta 2131634
कृ@@ 2131548
τι 2131219
cada 2130649
czy 2130547
မှတ 2130482
pela 2130456
अप@@ 2130370
Vel@@ 2130323
stato 2130033
10.@@ 2129990
အခု 2128736
hemm 2128599
reci@@ 2128585
કહ 2128479
hur 2127960
tagħna 2127562
inės 2127443
baik 2127438
လင 2126986
duzu 2126441
düşün@@ 2125838
ition 2125403
zar 2125317
၀ 2125234
цо@@ 2125075
ナ@@ 2124963
بەر 2124960
vest@@ 2124787
Kap@@ 2123611
lē@@ 2123171
년@@ 2123155
bütün 2122670
já 2122571
ind 2122438
dawn 2122310
וכ@@ 2122303
लेल 2122035
aber 2121902
ats 2121715
тым 2121638
dus 2121516
وم@@ 2121421
verslag 2121343
ૉ@@ 2120808
Av@@ 2120720
پێویستە 2120676
ပထမ@@ 2119971
ország 2119643
respon@@ 2119603
תר 2119298
ছে 2119250
كة 2119049
feren@@ 2118716
ঁ@@ 2118484
버@@ 2118363
itos 2118082
الد@@ 2118051
aten@@ 2117900
reb@@ 2116836
quando 2116550
สิ@@ 2115586
San@@ 2115202
Komisija 2115175
ijke 2114918
sí@@ 2114796
કાર@@ 2114580
tum@@ 2114547
ín 2114386
дзе 2114011
ટા@@ 2114010
गो@@ 2113888
ψη 2113189
یاری 2113060
းလဲ@@ 2112975
တိုက 2112961
lt 2112958
objek@@ 2112777
करता 2112326
instrum@@ 2111929
atel@@ 2111761
ināt 2111319
mark@@ 2111302
ści@@ 2110843
ीत 2110791
thế 2110465
ำ@@ 2110093
jär@@ 2110071
ապես 2109602
kultur@@ 2109353
กา@@ 2107950
યો@@ 2107590
Вы 2107439
tháng 2107309
juga 2107075
hoz 2107041
לס@@ 2106887
નો@@ 2106819
키@@ 2106493
helt 2106410
ът 2106348
多 2106342
ေပါင 2105960
sot@@ 2105954
lade 2105566
нови@@ 2105427
liche 2105379
ממ@@ 2105293
کن@@ 2104916
сты 2104771
τικ@@ 2104647
후@@ 2104510
Wat 2104331
Türkiye 2104158
ակ 2103848
た@@ 2103524
กร@@ 2103063
ตร@@ 2102836
tahun 2102006
重@@ 2101890
Այ@@ 2101566
rut@@ 2101512
ที 2101292
Ovo 2101273
ors 2101178
토@@ 2101115
юць 2099791
ր 2099584
шен@@ 2099515
Бе@@ 2099347
ew 2099023
ே@@ 2098264
ding 2097862
อะไร 2097585
גה 2097227
ater@@ 2097039
tie@@ 2095653
lut@@ 2095573
ிய@@ 2095435
sod@@ 2095212
150 2094711
số 2094409
cel 2093945
ред 2093744
မရှိ@@ 2093686
Dette 2093664
에는 2093578
ké 2093283
նրանք 2093177
बोल@@ 2092867
سط@@ 2092687
selv 2092028
ဝန 2091993
кро@@ 2091732
สม@@ 2091064
วั@@ 2090981
进行 2090920
põ@@ 2090797
lagi 2090742
uo 2090500
67 2090420
Ни@@ 2090198
েই 2090090
αφ@@ 2089786
տե@@ 2089285
דם 2088417
Au@@ 2088032
민@@ 2087874
सह@@ 2087234
blir 2087079
रस 2086834
ခေါ 2086719
mene 2086690
jor@@ 2086677
دەکەم 2086200
ješ@@ 2085558
bia 2085430
podob@@ 2085423
geg@@ 2085335
ရှိတယ 2084926
بگ@@ 2084638
ძ@@ 2084599
ion@@ 2084342
жү@@ 2083948
кого 2083913
ża 2083883
dva 2083845
SE@@ 2083777
Stati 2083316
ībā 2082870
enc@@ 2082492
ئایا 2081913
fig@@ 2081734
ër@@ 2080970
98 2080722
zato 2080709
osta 2080653
wo 2080512
isch 2080476
boleh 2080357
resolu@@ 2079697
85 2079676
über@@ 2079292
ность 2079287
ոլ@@ 2078897
spek@@ 2078714
dow@@ 2078296
mani@@ 2078205
elj@@ 2077608
cum@@ 2077584
Europea 2077346
аб@@ 2076940
konferen@@ 2076808
gün@@ 2076420
ait@@ 2076182
een@@ 2075918
oris@@ 2075912
alan 2075861
لات 2075831
דר 2075399
לאו@@ 2075371
nun 2075341
ตัว 2075246
رف 2075125
นาย 2075099
denna 2074626
၀င 2074449
နေရာ@@ 2074410
лған 2074329
cli@@ 2074135
jekk 2074005
ST@@ 2073898
apart@@ 2073705
माहिती 2073475
consum@@ 2073462
AD@@ 2073380
sto@@ 2072874
дік 2072405
Europeia 2072028
қа 2071941
Ker@@ 2071335
ओं 2071198
meu 2071084
main@@ 2070365
לית 2069960
ajn 2069851
držav@@ 2069630
don 2069219
sr@@ 2068430
μι@@ 2067815
ंद 2067748
şey@@ 2067667
Lo@@ 2067634
hekk 2067232
utan 2067060
হ 2066268
work 2065771
sõ@@ 2065350
נת 2065140
tech@@ 2065069
anno 2064765
会@@ 2064609
विद 2064498
nal 2064493
vlast@@ 2064335
તિ 2063699
मुला@@ 2063394
Ի@@ 2062567
այի 2062481
ဆုံး 2062161
satu 2061870
pē@@ 2060787
ဒါဟာ 2060414
λα@@ 2060043
1990 2059877
vores 2059349
ติ 2059293
rapport 2058984
pron@@ 2058511
cii 2057723
ناتوان@@ 2057712
ają 2057523
اج@@ 2056963
zion@@ 2056898
қара@@ 2056814
نف@@ 2056428
وتم 2056344
εων 2056197
باسی 2056040
ئەوە@@ 2056036
מט@@ 2055336
ုံး@@ 2055156
jot 2055053
یان@@ 2055008
իկ 2054772
זכ@@ 2054743
Rec@@ 2054351
adu 2054308
ży@@ 2053934
oms 2053506
yg@@ 2052932
Пі@@ 2052805
দের 2052533
ブ@@ 2052344
Al 2051810
nó 2051386
વાની 2051376
عو@@ 2051237
ρω@@ 2051155
ēj@@ 2050835
бел@@ 2050342
եցի 2050285
چاو@@ 2050200
kie 2050073
līdz@@ 2049933
omen@@ 2049012
cias 2048707
taip 2048674
ետ@@ 2048664
гро@@ 2048325
dv@@ 2048311
proces@@ 2048303
ló 2048160
예@@ 2047309
siz 2047249
appli@@ 2046879
car 2046619
کنم 2046570
atur@@ 2046499
ટી 2046493
פור@@ 2046162
사 2046044
ூ@@ 2044879
uksia 2044722
been 2044533
خت@@ 2044486
cas@@ 2044465
συμ@@ 2044312
อน@@ 2043830
qar@@ 2043745
jotka 2043367
دەکرد 2043110
њ@@ 2042972
ရပါတယ 2042888
אשר 2042438
ինչպես 2041870
sim 2040891
което 2040651
也 2040326
osob@@ 2039435
iri@@ 2039415
لك@@ 2039408
uro 2039259
সা@@ 2038949
jaar 2038737
ley 2038694
வில 2038512
คม 2038105
sür@@ 2037874
effec@@ 2037658
който 2037141
сле@@ 2036979
vic@@ 2036162
individu@@ 2036135
သေ@@ 2035882
ها@@ 2035694
ках 2035586
tien 2035477
› 2034162
uli 2034143
品 2033965
sek 2033324
Из@@ 2033039
тите 2032760
ální 2032597
qual@@ 2031972
رب 2031901
这些 2031724
ën@@ 2031580
مص@@ 2031541
бас 2031367
eff@@ 2031334
ño 2030849
Ди@@ 2030611
ská 2030570
வு 2029771
անց@@ 2029563
制 2029507
fas@@ 2029470
isko 2028804
লো 2028627
eel@@ 2028356
เอ@@ 2027973
ulti@@ 2027960
äh@@ 2027646
нач@@ 2027429
akti@@ 2027371
prv@@ 2027369
dre 2026881
ель@@ 2026766
компа@@ 2026743
کرنے 2026242
هۆ@@ 2025948
bend@@ 2025922
dum 2025882
هەمان 2025853
гд@@ 2025826
இது 2025403
bulun@@ 2025234
isiin 2025175
initi@@ 2025095
sup@@ 2024958
ция@@ 2024951
τά@@ 2024883
位 2024758
ัย 2024699
ận 2024692
rồi 2024679
daar 2024572
وقت 2024306
မက 2023616
চ 2023320
itas 2023142
式 2023073
зүйл 2022876
धन 2021996
ەکەم 2021575
kih 2021391
consegu@@ 2021196
ements 2021101
fe 2021083
দি@@ 2020920
impor@@ 2020799
ျပန 2020106
Can@@ 2019879
жение 2019763
name 2019708
sik@@ 2019420
bah@@ 2019386
yc@@ 2019198
stup@@ 2019057
sø@@ 2018474
းနဲ 2018346
uses 2017776
τά 2017558
µ@@ 2017492
ngoài 2017469
ڕە@@ 2017340
atá@@ 2017300
وایە 2017230
lå@@ 2017137
Internet 2016298
یش@@ 2015928
urt 2015896
nói 2015846
असं 2015624
тор 2014489
сві@@ 2014316
дя@@ 2014216
शिक@@ 2014214
US@@ 2013600
အဲဒါ@@ 2013105
ól 2013030
مۆ@@ 2013001
bis 2012992
بەم 2012921
دەکەین 2012908
нова@@ 2012807
तो@@ 2012484
اره 2011874
է@@ 2011455
бя@@ 2011403
होतो 2011378
ոչ 2011078
可 2010743
جي@@ 2010319
قی 2009899
Amerik@@ 2009561
זאת 2009374
זר@@ 2009323
havde 2009264
ფვ@@ 2008814
ace@@ 2008802
Vis@@ 2008341
سر 2008266
اص@@ 2008224
Em 2008046
kül@@ 2008014
även 2007353
prima 2007301
ישראל 2007092
avi 2006736
mail 2006684
stá@@ 2006644
1995 2006475
fer 2006332
ům 2006320
csak 2006247
nud 2006174
aang@@ 2005940
над 2005900
illä 2005817
vat 2005815
jedan 2005737
包括 2005610
던 2005342
ป 2005064
์@@ 2004613
بینی 2003834
בע 2003659
wier@@ 2003586
проек@@ 2003563
फि@@ 2003193
gå 2003145
ρά@@ 2002967
oner 2002905
tà 2002775
ုိင 2002599
só 2002472
பட 2002125
باشه 2001935
97 2001692
enne 2001448
dapat 2001056
лийн 2001050
Unjoni 2000924
arna 2000883
sector 2000836
стоя@@ 2000297
하였다 2000283
გჲ 2000158
بکەیت 2000035
perust@@ 2000012
ڕاستیدا 1999984
jgħ@@ 1999528
שני 1999399
၄ 1999095
како 1999073
jeni 1998856
ských 1998570
biết 1998567
өөр 1998368
员 1998309
aiz@@ 1998079
zbog 1998049
Bun@@ 1997982
mesi 1997378
uan 1996929
Õ 1996560
just 1996422
yz@@ 1996252
전 1996089
Arvoisa 1996011
вле@@ 1996004
kval@@ 1995741
इत@@ 1995737
cab@@ 1995681
ေကာင 1995579
miş 1995261
podpor@@ 1995059
ησης 1994975
হা@@ 1994228
над@@ 1994225
jog@@ 1994075
huvudstaden 1994018
учи@@ 1993878
Star@@ 1992491
ski@@ 1992320
ść 1992152
ус@@ 1991602
بەش@@ 1991396
теле@@ 1991186
već 1990952
！ 1990702
לט@@ 1990519
တို@@ 1990333
teri@@ 1990218
стер@@ 1989956
быць 1989870
설@@ 1989551
ēt 1989496
pt 1989485
Fi@@ 1988956
עצ@@ 1988934
noi 1988894
тті 1988876
amen@@ 1988869
کن 1988695
āl@@ 1988613
cô 1988096
гре@@ 1988039
lid@@ 1988025
yd@@ 1987842
کھ@@ 1987505
ژمار@@ 1987061
γκ@@ 1986939
ורת 1986935
程 1986913
гаа@@ 1986774
lan 1986115
mindre 1986012
הו 1985389
pos 1985199
Hor@@ 1985092
ако 1984837
ture 1984600
εισ@@ 1984412
Raad 1983793
dens 1982862
ەت 1982824
ismo 1982717
prim@@ 1982642
Bra@@ 1982586
պետք 1982356
хэл@@ 1982232
comme 1981799
azioni 1981597
står 1981483
tī@@ 1980942
mən 1980881
ring@@ 1980537
yan 1980402
Er 1980207
194@@ 1979770
ami@@ 1979670
eid 1979645
seperti 1979556
כש@@ 1979388
قبل 1979183
ской 1979042
bị 1978978
anime.net 1978904
ших 1978774
ID@@ 1978633
iter@@ 1978625
ß 1978593
мага@@ 1978592
държа@@ 1978562
خۆی 1978449
ick 1978416
өз@@ 1977916
समा@@ 1977886
Ir@@ 1977866
само@@ 1977357
posto 1977305
Cent@@ 1976899
jau 1976861
үшін 1976854
tev@@ 1976683
เน@@ 1976430
khảo 1976051
www.msoms 1976045
жер@@ 1975792
آن 1975138
Mac@@ 1975061
dez@@ 1974733
ığını 1974413
καν@@ 1973863
مس@@ 1973752
联@@ 1973189
임@@ 1973131
कहा 1973060
οικονομ@@ 1973000
stellen 1972848
ပင 1972805
제 1972406
ամեն@@ 1972093
време 1972042
ημ@@ 1971345
ình 1969901
diese 1969276
хэд 1969270
Мы 1968301
način 1968150
princip@@ 1968019
arı 1967995
dif@@ 1967939
Mas@@ 1967852
oval 1967473
تش@@ 1967469
дно 1967428
āciju 1967389
Wir 1967273
τρο@@ 1967207
تي 1967147
алі 1967033
મી@@ 1966902
ulo 1966766
dah 1966610
λος 1966521
або 1966488
مثل 1966083
ขึ้น 1965446
디@@ 1965273
面 1965116
ევ 1965030
році 1964909
lij@@ 1964654
केला 1964649
ရန 1964062
फक 1963874
europe@@ 1963806
ריה 1963303
chte 1963299
sien 1963239
вого 1962958
েছে 1962903
has@@ 1962677
popol@@ 1962613
jim 1962542
စကား@@ 1962294
ြန 1962267
gaz@@ 1962146
գործ@@ 1961856
եց 1961822
жі@@ 1961754
тан 1961592
جی 1961410
ান@@ 1961054
дне@@ 1960988
inio 1960626
ήματα 1959866
zau@@ 1959106
bax@@ 1958979
Bet@@ 1958939
რთ@@ 1958913
prov@@ 1958729
familjen 1958571
rah@@ 1958440
m. 1958173
dri@@ 1958053
իտ@@ 1957978
qed 1957559
ovu 1957237
ム 1957114
ி@@ 1957098
းဆ@@ 1957038
חיי@@ 1956929
3. 1956645
sj@@ 1956105
VI@@ 1956074
代 1955788
પે@@ 1955754
종@@ 1955581
quer@@ 1955349
اني 1954485
Me 1954416
รู้ 1954065
fiz@@ 1953647
강@@ 1953625
рам 1953137
цион@@ 1953003
צות 1952979
вав 1952731
any@@ 1952524
afir@@ 1952512
isia 1952378
клю@@ 1952376
بیت 1952225
نده 1952213
anın 1952123
શિ@@ 1951122
àn 1951122
48@@ 1950670
속@@ 1950425
jkun 1950424
ам@@ 1950251
hak@@ 1949948
accep@@ 1949522
All@@ 1948910
tex@@ 1948803
aš 1948514
aren 1948444
கிற@@ 1948293
都 1948106
ăr@@ 1948101
ổ 1947957
ský 1947860
EC@@ 1947851
Es@@ 1947179
кү@@ 1946956
ската 1946796
lud@@ 1946657
ိပ 1946531
テ@@ 1946037
веда@@ 1945921
dele 1945601
करून 1945245
fait 1945245
कुछ 1945128
မှာပါ 1944762
ires 1944742
punkt 1944557
各@@ 1944278
мә@@ 1944139
anı 1944049
чки 1944008
ئی 1944006
uut@@ 1943898
мда@@ 1943499
că@@ 1943459
ငယ 1943041
durante 1942939
position 1942845
ώσ@@ 1942732
έκ@@ 1942235
} 1942201
ër 1942104
ījum@@ 1942002
šķ@@ 1941943
เรื่อง 1941884
grund 1941796
gjøre 1941505
беше 1941217
would 1940897
šal@@ 1940511
יצ@@ 1940479
حص@@ 1940066
ژیان@@ 1939973
ję 1939872
ących 1939644
دات 1939376
说 1939321
되었다 1939243
больш 1939052
śmy 1938840
Republi@@ 1938296
ból 1938286
jene 1937892
ოა@@ 1937855
enja 1937824
asz@@ 1937731
siitä 1937674
dok 1937447
քան 1937204
Sil@@ 1937194
பு 1936688
हें 1936438
лан@@ 1936043
през 1936027
구 1935849
פת 1935848
ство@@ 1935188
forme 1934746
edel@@ 1934563
Å@@ 1934311
pam@@ 1934194
relativ@@ 1933662
isl@@ 1933656
47@@ 1933166
igt 1932984
goed 1932957
רק 1932856
decisi@@ 1932529
Բ@@ 1931819
नो@@ 1931451
هل 1931410
tú@@ 1930647
recon@@ 1929949
Ti 1929719
bod@@ 1929680
ư 1929667
schaft 1929545
tamente 1929399
oit@@ 1928938
käsit@@ 1928862
nationale 1928838
πολι@@ 1928829
民 1928821
נפ@@ 1928810
דש 1928759
市 1928496
ئے 1928319
στα@@ 1928223
waar 1927941
ków 1927936
cijos 1927914
كانت 1927830
kus@@ 1927441
რჲგა 1927338
းမှာ 1927242
կ 1927119
ningar 1927016
respec@@ 1926935
fordi 1926801
stra 1926727
ё 1926354
ūr@@ 1926234
ছি 1926008
politik 1925803
ကြား@@ 1925506
āt 1925050
जगा@@ 1925001
ば 1924835
izi 1924805
isz@@ 1924798
ဒ 1923757
може@@ 1923402
Ս@@ 1923007
politica 1922928
amme 1922580
iniz 1922530
受@@ 1922483
ders 1922127
aqu@@ 1921996
네@@ 1921421
પિ@@ 1921262
if 1921222
бле@@ 1921175
შ@@ 1921133
раз 1920824
আছে 1920355
uten 1920347
ын 1920204
हर 1920119
ήταν 1919780
destin@@ 1919583
internationale 1919361
rest@@ 1919320
Fil@@ 1919260
ут@@ 1919201
unda 1919187
ჟვ@@ 1919171
หรือ 1918833
अधि@@ 1918798
azi 1918785
改@@ 1918641
sed 1918534
حة 1918017
ţa 1917155
غ 1916912
ժ@@ 1916898
zī@@ 1916894
ման@@ 1916774
sku@@ 1916559
conclu@@ 1915860
nın 1915654
progra@@ 1915564
sulla 1915372
itik@@ 1914570
ству@@ 1914161
Ар@@ 1914135
enda 1914095
હોય 1913893
民@@ 1913880
دەربارەی 1913814
ών@@ 1912668
pu 1912633
rekao 1912558
mora 1912544
Επιτροπή 1912302
кім 1912170
lor@@ 1912129
mijn 1911888
дээ 1911769
करत 1911582
durch 1911412
Soci@@ 1910830
heit 1910815
stell@@ 1910811
Medi@@ 1910783
անգ@@ 1910778
νται 1910513
ò 1910040
ئاو@@ 1909701
dae 1909672
ვი@@ 1909662
ફો@@ 1909182
போ@@ 1908975
으며 1908868
gerne 1908799
დჲ@@ 1908633
운@@ 1908623
due 1908486
ımız 1908393
lı@@ 1907995
ဆိုတဲ 1907979
mund 1907920
вре@@ 1907569
ητ@@ 1907523
פע@@ 1907344
Ø@@ 1907246
Stra@@ 1907221
रमा@@ 1907159
bad@@ 1907040
göz@@ 1906826
tigt 1906410
omen 1906335
отно@@ 1905982
jik@@ 1905886
AN 1905781
Mak@@ 1905576
利@@ 1905507
vald@@ 1905450
kann 1905382
рийн 1905227
کەوت@@ 1905198
тэр 1905092
vek 1905081
naše 1904934
新 1904706
riz@@ 1904386
bit 1904313
forsk@@ 1903528
його 1903061
ယာ@@ 1902712
gio 1902463
표@@ 1902369
Gol@@ 1901482
acest@@ 1901449
kiem 1901157
रित 1901101
heer 1900745
sada 1900594
ミ@@ 1900588
드 1900580
про 1900568
gang@@ 1900433
ần 1900341
Lis@@ 1900183
ろ 1900042
direkt@@ 1899972
Kin@@ 1899806
сана@@ 1899537
när 1899175
ダ@@ 1899020
अव@@ 1898745
avan@@ 1898699
puhemies 1898592
իս@@ 1898505
grad@@ 1898339
अन 1898149
wis@@ 1897737
ရှာ@@ 1897470
၅@@ 1897442
πως 1897196
och@@ 1896992
手 1896947
Dat 1896907
isə 1896896
ใช้ 1896867
ator 1895727
আমরা 1895720
objec@@ 1895654
Sp@@ 1895588
ən@@ 1895516
cher@@ 1895289
जु@@ 1895231
ア 1895123
bara 1894782
they 1894525
یی@@ 1894512
alno 1894509
któ@@ 1894223
dik@@ 1894201
stu@@ 1894028
သစ 1893957
mā@@ 1893861
yo 1893774
أع@@ 1893730
škol@@ 1893310
vih 1892685
here 1892627
合@@ 1892621
ց 1892081
effek@@ 1891844
เว@@ 1891683
केली 1891485
जो@@ 1891451
siy@@ 1891285
træ@@ 1891244
루@@ 1890766
ska@@ 1890711
קו 1890622
पेक 1890608
Мар@@ 1890532
ကျောင 1890472
ွေး@@ 1890452
обра@@ 1890297
spec@@ 1890119
clar@@ 1889918
eki@@ 1889865
ského 1889546
bor 1889174
ီး 1888733
ဒါ 1888726
tkun 1888556
dobro 1888234
Χ@@ 1888155
ہاں 1887881
ilk 1887761
проце@@ 1887731
rie 1887029
Ն@@ 1886997
internation@@ 1886853
nakon 1886562
Kul@@ 1886048
muy 1885256
Unter@@ 1885249
ဥ 1885185
sự 1885005
Indi@@ 1884849
compet@@ 1884770
ओ@@ 1884646
理 1884632
ري 1884458
part 1884367
طة 1884343
ωρ@@ 1883978
bety@@ 1883977
बघ@@ 1883927
အသ@@ 1883476
ံု@@ 1883474
atu@@ 1883246
тен 1883155
vap@@ 1882599
aste 1882304
писа@@ 1881848
web@@ 1881349
39@@ 1881023
트 1880955
deyil 1880702
ства@@ 1880675
પુ@@ 1880510
Ist@@ 1880368
iri 1880247
zit@@ 1879937
Sig@@ 1879895
հավ@@ 1879736
ството 1879567
heder 1879460
ەش 1879327
Pat@@ 1879106
Nh@@ 1879047
τες 1878918
landen 1878629
通过 1878512
Ку@@ 1878451
כדי 1878439
дом 1878183
σαν 1878179
чу 1878169
ทาง 1877638
sama 1877458
רו 1877405
وانه 1876798
Mus@@ 1876675
now@@ 1876630
пра 1876616
orient@@ 1876456
үл@@ 1876233
sät@@ 1875991
sat 1875763
қал@@ 1875686
қан 1875337
ەک 1875017
ینەوە 1874997
hed@@ 1874834
ши 1874736
Tod@@ 1874704
rad 1874076
inici@@ 1873916
ické 1873727
fav@@ 1872959
દે@@ 1872755
も@@ 1871829
કા 1871690
lju@@ 1871666
два 1871110
který 1871077
tả 1870867
presidente 1870762
http 1870207
ביותר 1870027
mundo 1869409
זמן 1869074
lede 1868989
ális 1868236
dimen@@ 1868223
sej@@ 1868010
ức 1867994
ŭ@@ 1867848
တွေရဲ 1867684
iel@@ 1867490
stvar@@ 1867252
desde 1866830
activ@@ 1866450
ကူး@@ 1865919
还 1865837
mellem 1865810
mt 1865609
Is@@ 1865510
ük@@ 1864719
ră@@ 1864436
ña 1863546
formul@@ 1863414
καθ@@ 1863249
milli@@ 1863248
був 1863056
вэ 1863045
poten@@ 1863008
kav@@ 1862631
데@@ 1862446
histor@@ 1862179
nodroš@@ 1862080
mums 1862046
ack@@ 1861641
ίκ@@ 1861592
sci@@ 1861516
wit@@ 1861110
ži 1860943
nimi 1860789
lidstaten 1860317
qal@@ 1860236
ჲგ@@ 1860226
Կ@@ 1859998
אותו 1859354
еди@@ 1859304
ภา@@ 1858951
သို 1858907
1994 1858762
deleg@@ 1857963
contra@@ 1857710
разви@@ 1857648
вни@@ 1857641
טית 1857347
partici@@ 1857321
နက 1857173
amas 1856783
להת@@ 1856644
zmi@@ 1856570
diri@@ 1856534
vag@@ 1856481
andet 1856392
ıyla 1856290
πλη@@ 1856262
ará 1856087
불@@ 1856078
ady 1856046
ả 1856035
انت@@ 1856001
τε 1855815
ေတ@@ 1855411
έγ@@ 1855332
دوو@@ 1855255
Nations 1855114
гээд 1854578
hul@@ 1854500
lát@@ 1854201
זור 1854155
ิด 1853974
ရေအာင 1853675
ensk@@ 1853616
delse 1853506
یەکەم 1853458
وێت 1853421
ชา@@ 1853063
Fo@@ 1852525
रहे 1852465
innov@@ 1852407
ικού 1852216
プ@@ 1852106
ထောင 1851912
ác@@ 1851890
lijk 1851889
Eng@@ 1851761
oleh 1851500
sil 1851416
Chi@@ 1851277
semua 1850491
Kita 1850334
iet 1850317
အပိုင 1850175
ို 1850156
机构 1850141
lei 1850038
čne 1849897
Dal@@ 1849836
شته 1849647
pli 1849390
Parlamentet 1849262
خۆیان 1849127
رہے 1848983
քը 1848956
11.@@ 1848602
ၿပီး 1848421
лага@@ 1848141
Nuk 1846922
біль@@ 1846758
ဦး@@ 1846669
ခုကို 1846661
ối 1846547
ழு@@ 1846471
同 1845973
بگر@@ 1845712
Var@@ 1845632
만 1845416
المع@@ 1845131
間 1845100
fam@@ 1844934
တမ 1844902
σα 1844621
infor@@ 1843920
тут 1843827
שע@@ 1843824
Ng@@ 1843716
niej 1843641
tár@@ 1843630
ยัง 1843484
cilvē@@ 1843400
θη@@ 1843339
таму 1843261
မျ@@ 1843206
debat@@ 1843172
နေတယ 1843156
জ 1843062
情况 1843026
իմ@@ 1842898
нето 1842472
jiem 1842266
मध@@ 1842225
univer@@ 1842218
dovol@@ 1841553
rí@@ 1841539
ဒီေတာ 1841383
determin@@ 1841252
jul@@ 1841185
ại 1841153
Este 1841097
juli 1840983
ום 1840979
ис@@ 1840814
40@@ 1840672
βα@@ 1840547
чение 1840477
werk 1840148
เลย 1840013
rem 1839790
건@@ 1839675
ကာ@@ 1839658
Je@@ 1839277
чески 1839245
ною 1839097
dej@@ 1838952
práv@@ 1838399
dalla 1838395
گا@@ 1838175
رہا 1838087
tutti 1837679
בג@@ 1837235
līdz 1837214
tı 1837202
ovanja 1836786
mą 1836461
gov@@ 1836327
AM 1836056
ため 1835821
mà 1835334
Õ@@ 1835294
tävä 1835136
mento 1835005
bab@@ 1834890
nah@@ 1834820
லை. 1834769
Ve@@ 1834682
הרו@@ 1834654
ญ 1834452
သာ 1834451
गि@@ 1834263
ээ 1834227
jip@@ 1833948
jur@@ 1833938
mez@@ 1833770
Esp@@ 1833579
¥ 1833546
dür@@ 1833482
بیر 1833035
орга@@ 1832791
облы@@ 1832735
gat@@ 1832700
IDT 1832634
àng 1832046
ates 1831874
Mol@@ 1831698
τικών 1831462
Ê@@ 1831426
iş 1831353
לצ@@ 1831335
пен 1831292
gá@@ 1831094
bom@@ 1831026
Ukra@@ 1830957
тів 1830849
निक 1830650
տր@@ 1830603
rol@@ 1830549
תית 1830543
développement 1829728
lei@@ 1829696
əl@@ 1829580
relazione 1829078
iskt 1828917
wel 1828518
ário 1828026
Hvis 1827838
toe 1827829
نەخۆش@@ 1827600
方案 1827527
nod@@ 1826684
jec@@ 1826572
Cam@@ 1826504
skiego 1826269
החו@@ 1826107
düny@@ 1825671
အမ@@ 1825630
چا@@ 1825345
रूप 1825254
stor 1825171
uste 1824864
paš@@ 1824473
Mit@@ 1824150
për@@ 1823961
RI@@ 1823767
erte 1823665
חת 1823429
него 1823287
Direc@@ 1823159
בני@@ 1823127
propri@@ 1823124
komission 1823059
其他 1822729
ち@@ 1822712
ہی 1822589
り@@ 1822420
futuro 1822149
אבל 1821406
ो@@ 1821340
ņu 1821297
malo 1820703
लोगों 1820017
but@@ 1819999
selle 1819823
Қа@@ 1819480
poh@@ 1819375
指@@ 1819006
wol@@ 1818623
AM@@ 1818446
এই 1818445
eles 1818164
طور 1818092
બો@@ 1817292
तर@@ 1817262
日本 1817170
бан@@ 1816859
Os 1816809
قه 1816688
labor@@ 1816357
մ 1816177
skom 1816152
61 1815515
szab@@ 1815424
nar 1815403
ビ@@ 1815366
loro 1815277
atten@@ 1815198
အိမ 1815106
کچھ 1814765
Ya 1814699
پی 1814689
Pop@@ 1814636
бъде 1813201
international 1812743
amer@@ 1812480
sei 1812346
お@@ 1812336
τέ@@ 1812040
Bor@@ 1811865
syst@@ 1811735
ehdot@@ 1811678
တုိ@@ 1811622
гал@@ 1811583
цията 1811304
ורי 1811269
essä 1811207
glav@@ 1811049
입@@ 1810759
Consiglio 1810478
тек@@ 1810257
通@@ 1810240
ových 1810237
ين@@ 1810192
protec@@ 1809866
বে@@ 1809847
่น 1809593
年@@ 1809503
태@@ 1809494
tus 1809463
punkt@@ 1809343
рите 1809123
ंची 1809054
tome 1808875
אינ@@ 1808436
iteit 1808295
lī@@ 1808090
कड@@ 1807946
apr@@ 1807809
lie 1807733
въз@@ 1807659
koju 1807457
uj 1807269
уд 1806958
eken 1806877
खु@@ 1806790
dön@@ 1806744
há 1806149
لەوانەیە 1806087
AS 1806017
それ 1805473
This 1805160
49@@ 1805012
यचे 1804837
Loài 1804170
ką 1803903
66 1803849
multi@@ 1803528
yeni 1803300
egħ@@ 1803229
ิน@@ 1803228
rej@@ 1803167
mac@@ 1803166
glas@@ 1803151
M. 1803030
kuin 1802965
interess@@ 1802923
ţie 1802432
тың 1802258
toga 1802221
ซึ่ง 1802216
wych 1801929
represent@@ 1801918
چە@@ 1801827
քի 1801817
内@@ 1801776
دەتوانین 1801727
فقط 1801624
ď@@ 1801538
Ру@@ 1801262
ლა 1801148
მი@@ 1801137
Ρ@@ 1801122
ါ 1801119
aut 1800828
ivat 1800549
dab@@ 1800166
Ini 1800159
வர 1799870
dog@@ 1799757
mest 1799544
पू@@ 1799490
Ny@@ 1799199
ского 1799129
بلغ 1798890
sudah 1798731
件 1798487
57@@ 1798374
धी 1798336
ật 1798111
pret@@ 1798039
ုန 1797634
दार 1797549
پە@@ 1797494
ów@@ 1797334
sido 1797185
pour@@ 1797180
وع@@ 1796387
zer 1796326
вод@@ 1796267
böl@@ 1795981
ေတြကို 1795858
ပျ@@ 1795840
Maar 1795698
كو@@ 1795231
oblasti 1795168
تے 1794532
νέ@@ 1794393
gos@@ 1794308
းသ@@ 1794116
вала 1793978
Kur@@ 1793763
mell@@ 1793717
lü@@ 1793611
primer 1793395
4. 1793279
كم 1793226
ály@@ 1793192
ییە 1793081
oħra 1792974
зер@@ 1792800
חים 1792596
mos@@ 1792519
बं@@ 1792349
ေလာက 1792327
sap@@ 1792323
ทำ@@ 1792114
যে 1791899
tvr@@ 1791493
விட 1791128
Бид 1791014
samt 1790912
Hel@@ 1790727
Han@@ 1790074
missi@@ 1789774
ած 1789514
nh 1789475
kommissionen 1789408
世界 1788993
় 1788855
协@@ 1788854
tt@@ 1788683
नों 1788521
小@@ 1787968
cs@@ 1787478
aid@@ 1786869
rež@@ 1786247
Mc@@ 1786158
belir@@ 1785863
की@@ 1785369
行动 1785357
бал@@ 1785299
Street 1785038
aktiv@@ 1784935
টা@@ 1784882
้า@@ 1784705
рия 1784508
onder 1784071
fem@@ 1783987
રૂ@@ 1783970
кен@@ 1783249
كان@@ 1783109
moz@@ 1782582
σκ@@ 1782293
ares 1781700
ндай 1781606
Egyesült 1781600
зі 1781383
primer@@ 1780958
理@@ 1780940
которые 1780849
day 1780778
tikai 1780433
cré@@ 1780392
原@@ 1780372
الدو@@ 1780213
μπ@@ 1780176
အန@@ 1780086
različ@@ 1780022
diy@@ 1779882
adores 1779845
णं 1779320
lebih 1779150
ativ 1778936
λού@@ 1778931
zio 1778783
Ү@@ 1778537
שב 1778227
ีย 1778119
qədər 1777890
елі@@ 1777726
jn 1777556
וה 1777456
ges 1777134
vek@@ 1777128
liet@@ 1777057
เจ@@ 1776889
ิด@@ 1776844
ஆனால 1776580
법@@ 1776450
html@@ 1776195
bá@@ 1776138
eiro 1776134
nada 1776020
thực 1775956
ван 1775866
seda 1775580
reš@@ 1775542
finansi@@ 1775357
բեր@@ 1775163
ния@@ 1774952
uppdaterad 1774926
ڑ@@ 1774892
täy@@ 1774818
vå@@ 1774321
nest@@ 1774097
터@@ 1774076
ким 1773488
стре@@ 1773264
持 1772321
حت@@ 1772319
۰ 1772271
Pa 1772251
ării 1772219
6,@@ 1771922
LE@@ 1771738
ં 1771677
vos 1771643
배@@ 1771082
släktet 1770609
Қазақстан 1770553
databasdump 1770386
nerladdad 1770352
بتوان@@ 1770000
prote@@ 1769715
Wi@@ 1769529
lle 1769151
Բայց 1768965
63 1768934
arbej@@ 1768862
zo@@ 1768312
ode 1768107
নি 1767663
خۆش 1767265
சு@@ 1766578
informe 1766563
będzie 1766349
iżda 1766221
ян@@ 1765719
čas@@ 1765553
tea 1765212
sł@@ 1765199
बरोबर 1765163
ical 1765015
υρ@@ 1764917
ելի 1764814
দে@@ 1764787
लो@@ 1764735
ades 1764583
量 1764572
းဟာ 1764320
ắc 1764097
σο@@ 1764089
обла@@ 1763160
里 1763097
หา 1763011
پاشان 1763001
ەن 1762983
처@@ 1762979
हते 1762801
bih 1762799
ingin 1762609
ધી 1762511
সে@@ 1762391
fen 1762145
之@@ 1762121
ják 1762072
un' 1761904
ativo 1761884
tera 1761486
fis 1761458
لو 1761367
бо 1761365
अशी 1760890
tí@@ 1760789
வெ@@ 1760685
بل 1760515
હિ@@ 1760145
mai@@ 1759870
نم 1759692
varmaste 1759369
лер 1759189
ைப 1759182
také 1759078
sağ@@ 1759023
62 1758877
vra@@ 1758874
maz 1758719
キ@@ 1758680
Մենք 1758672
kle@@ 1758662
پرسیار@@ 1758627
omis 1758477
plac@@ 1757983
ème 1757922
Ø 1757859
алық 1757439
demokra@@ 1757395
σχ@@ 1757394
ლი@@ 1756806
isti@@ 1756523
επίσης 1756496
Årsmedeltemperaturen 1756157
ספר 1756074
kallaste 1755905
medeltemperaturen 1755704
ရေး 1755583
ऊ@@ 1755222
всички 1755136
PM 1755108
result@@ 1754781
բան@@ 1754585
项 1754524
nou@@ 1754474
tec@@ 1754418
ः 1754332
دەهێن@@ 1754311
januari 1754292
efec@@ 1753834
вели@@ 1753529
ţia 1753494
prin 1753439
ovali 1753420
standar@@ 1753350
кор@@ 1753347
グ@@ 1753300
bre 1753296
odu 1753045
ių 1752988
civil@@ 1752873
σία 1752850
вати 1752847
ือ 1752824
John 1752676
sper@@ 1752661
संस 1752534
तरी 1752486
sred@@ 1752449
ukoll 1752395
မလဲ 1752047
நா@@ 1752033
ју 1751883
opini@@ 1751730
Nik@@ 1751539
atea 1751524
코@@ 1751445
OL@@ 1751372
어요 1751094
आण@@ 1750961
spar@@ 1750920
mel 1750580
nahi 1750482
तू 1750405
fest@@ 1750184
azt 1750135
cijas 1750068
beslut@@ 1749946
identi@@ 1749050
cet@@ 1748957
ես@@ 1748496
Lat@@ 1748338
oda 1747996
vul@@ 1747995
predsed@@ 1747953
hal 1747632
ী 1747621
tani 1747561
govor@@ 1747380
vous 1747272
nich 1747264
ببین@@ 1747171
menos 1747001
Consejo 1746923
rzy@@ 1746876
cũng 1746856
းနည 1746786
proces 1746729
96 1746492
permet@@ 1746440
եթե 1746388
约 1746016
ჟყ@@ 1745977
اڵ@@ 1745764
ەری 1745718
مەوە 1745696
Sem@@ 1745670
sten@@ 1745602
שות 1745278
Mijnheer 1745231
ct 1745031
み 1745003
11@@ 1744588
Conselho 1744451
ater 1744395
ראה 1744339
այլ 1744320
վրա 1744313
нет 1744258
वापर@@ 1743701
үүл@@ 1743641
စီ@@ 1743332
ące 1743292
असतात 1743261
הראשון 1743257
gal 1743178
1993 1742845
ките 1742839
pot 1742737
meny@@ 1742499
կամ 1742271
得 1742173
ஏ@@ 1741691
ခါ@@ 1741537
လို႔ 1741526
गर 1741264
ски@@ 1740299
press@@ 1740230
לד@@ 1739922
tico 1739860
beskrevs 1739855
최@@ 1739550
ناس@@ 1739514
serv@@ 1739335
56@@ 1739249
کچ@@ 1739224
câ@@ 1738883
eki 1738694
уча@@ 1738575
дра@@ 1738386
pier@@ 1738366
lər@@ 1738239
ítá@@ 1738163
ၾကီး@@ 1738013
ngày 1737986
ander 1737966
dak@@ 1737876
ер 1737716
aż@@ 1737682
शा 1737502
ılar 1737268
City 1737268
Cu@@ 1737237
等 1737183
elektron@@ 1737178
into 1736784
īs 1736734
被 1736687
nyel@@ 1736354
zjonijiet 1736343
War@@ 1736266
män 1736207
ποι@@ 1736097
शास 1735976
주 1735363
were 1735325
try@@ 1735206
בנ@@ 1735108
αί@@ 1735044
famili@@ 1734969
say@@ 1734933
По 1734897
raf@@ 1734713
lok@@ 1734562
дав@@ 1734518
शकतो 1734440
णाऱ 1734436
ők 1734415
ever 1734402
TED 1733810
действи@@ 1733740
гна@@ 1733632
جه 1733498
aza 1733223
miss@@ 1733125
jsme 1732935
ची@@ 1732794
کەی 1732779
کەم 1732778
geri@@ 1732776
ێتەوە 1732765
တာပေါ 1732761
koz@@ 1732241
छा@@ 1732043
даа 1731514
şə@@ 1731420
klad@@ 1731261
aktu@@ 1731217
下@@ 1731137
เมื่อ 1730640
피@@ 1730635
다고 1730329
Pe@@ 1730286
खर@@ 1730174
rast@@ 1730091
yhteis@@ 1729874
Europe 1729837
μέν@@ 1729698
paž@@ 1729568
لای 1729395
可能 1729372
ندی 1728844
hay@@ 1728718
בד@@ 1728513
stab@@ 1728478
رۆ@@ 1728467
بەکار@@ 1728446
دۆز@@ 1728432
אן 1728273
fung@@ 1728255
ंब@@ 1728022
tivit@@ 1727790
вич 1727231
ρ 1726928
jí 1726864
Per 1726851
मत 1726831
בט@@ 1726408
Hu@@ 1726231
مش@@ 1726140
эл@@ 1725863
ரும 1725647
特别 1725456
tiene 1725339
લો 1725246
પી@@ 1725049
вых 1724941
Del@@ 1724880
pozor@@ 1724666
emme 1724611
အတိုင 1724018
Nie 1723973
ելով 1723772
rist@@ 1723749
qu 1723702
προς 1723630
dets 1723560
nõ@@ 1723228
ember@@ 1723104
besch@@ 1722816
พิ@@ 1722750
もの 1722676
1992 1722642
кова 1722516
σημ@@ 1722466
רב 1722309
လွန 1722258
ကူ@@ 1722247
เบ@@ 1722144
komen 1721975
Бу@@ 1721912
घ 1721652
autor@@ 1721251
ман 1721207
opp 1721002
î 1720876
Is 1720842
မာ@@ 1720660
omet@@ 1720605
ှ@@ 1720531
situation 1720468
όμ@@ 1720223
тех@@ 1720218
Str@@ 1720170
بہت 1719902
ையில 1719846
بەو 1719837
에게 1719830
72 1719690
anni 1719607
® 1719511
ૈ@@ 1719179
tok 1719040
ço 1719000
anu 1718356
τικής 1718147
TA 1718135
然 1717703
пози@@ 1717673
हम 1717610
about 1717196
तीन 1717030
σας 1717001
inn 1716551
pur@@ 1716134
сць 1715819
cest@@ 1715749
մեջ 1715593
هەست 1715534
کەس 1715515
بەست@@ 1715497
Tan@@ 1715257
ठा@@ 1714963
invånare 1714790
ליה 1714771
Dru@@ 1714400
volt 1714032
سنة 1713962
cal 1713556
AB 1713045
वत 1712731
正@@ 1712673
こ@@ 1712295
Πρόεδρε 1712014
રમાં 1711937
რა 1711804
իս 1711593
transpar@@ 1711381
noj 1711007
skega 1710895
millimeter 1710717
trä@@ 1710600
အရမ 1710008
dua 1709997
られ 1709791
مه@@ 1709726
menjadi 1709387
Ros@@ 1709323
직@@ 1709294
clas@@ 1709169
tó@@ 1709072
prepar@@ 1708976
زر@@ 1708835
μη 1708590
ordin@@ 1708378
tiên 1708285
2019 1708233
käyt@@ 1707864
mens 1707607
вой 1707138
600 1707119
ऊ 1707065
سن@@ 1707045
ær 1707006
debate 1706851
aliment@@ 1706661
dieser 1706573
important 1706469
発@@ 1706275
should 1705739
miento 1705425
எனக 1705280
diplom@@ 1705115
Ён 1705064
vse 1704835
作@@ 1704768
heb 1704585
ćemo 1704557
όν 1703853
תר@@ 1703727
नाहीत 1703699
کس 1703509
mec@@ 1703099
อร์ 1703067
AP@@ 1702769
Ти@@ 1702755
دەبین@@ 1702597
až 1702524
قی@@ 1702328
większ@@ 1702325
גד@@ 1701852
Tem@@ 1701583
ခံစား@@ 1701260
hå@@ 1701244
ύ 1701231
sammen 1701149
үүнийг 1700983
спі@@ 1700965
Οι 1700941
ajā 1700825
रका@@ 1700772
rådet 1700642
مت 1700632
นี่ 1700541
Produ@@ 1700074
mom@@ 1699683
ło@@ 1699670
မွတ 1699472
pek@@ 1699385
ટર 1699288
fare 1699268
года 1699170
ците 1699008
場 1698951
אמ@@ 1698907
িয়ে 1698778
דע 1698762
पै@@ 1698655
ัก 1698615
вклю@@ 1698597
šanai 1698497
мат@@ 1698319
פרי@@ 1698218
ערכ@@ 1698161
zaman 1698157
անի 1697717
MS 1697588
revi@@ 1697435
بت 1697392
أك@@ 1697107
dent 1697072
ėl 1696760
hur@@ 1696519
ім@@ 1696419
olduğu 1696306
La@@ 1696237
яз@@ 1696152
ဘဝ@@ 1695987
kommun@@ 1695867
genomsnitt 1695818
мент 1695707
mercado 1695705
นา 1695630
שלו@@ 1694740
סי 1694698
fatto 1694630
eksi 1694574
there 1694334
Jap@@ 1694290
တွ@@ 1694223
politika 1694203
198@@ 1693880
шко@@ 1693765
ục 1693625
atori 1693342
学@@ 1693212
verk@@ 1692504
업@@ 1692271
qi@@ 1692166
ği 1692138
אחר 1692080
Kako 1692011
Facebook 1691847
struktur@@ 1691791
Du 1691527
ển 1691173
անդ@@ 1691104
ier 1691093
ix 1691031
结@@ 1690954
மி@@ 1690922
kadar 1690803
tage 1690756
လေး 1690744
Da@@ 1690539
ан 1689872
wieħed 1689771
provo@@ 1689752
וח@@ 1689258
ऱ 1689182
à@@ 1689136
महि@@ 1688713
Cat@@ 1688347
vim 1688172
Кон@@ 1688121
ril@@ 1687824
مای@@ 1687729
lah@@ 1687670
nye 1687483
ร์@@ 1687479
פים 1687477
jista 1687462
wurde 1687390
pergi 1687369
Тэ@@ 1687179
ظ 1686951
FR 1686536
pan 1686492
телно 1686485
inov@@ 1686279
zat 1686044
punto 1685987
finanč@@ 1685859
{ 1685553
která 1685543
رە 1685378
αντι@@ 1685284
mış 1685268
Ле@@ 1685032
باز@@ 1684899
կր@@ 1684869
якія 1684045
းပါ 1683706
pec@@ 1683614
Так 1683490
lob@@ 1683188
enden 1683162
vật 1683161
들이 1683120
nederbörd 1683009
ев 1682887
kuul@@ 1682826
člen@@ 1682725
安全 1682642
อบ 1682570
sies 1682528
Inga 1682322
着 1682260
rž@@ 1682207
alleen 1682124
ளது 1682017
12.@@ 1681769
pus 1681554
히 1681511
ša 1681487
बी@@ 1681404
Il@@ 1681349
inta 1681244
٢@@ 1681210
یەوە 1681054
هەست@@ 1681045
گەر@@ 1681037
شێوه 1681013
дей@@ 1680960
نظ@@ 1680905
時 1680666
miembros 1680494
ยา@@ 1680153
شد 1680146
imą 1680064
כים 1680009
ются 1679890
вите 1679785
الغ@@ 1679757
лася 1679671
torraste 1679647
bağ@@ 1679615
Genomsnittlig 1679611
Ur@@ 1679573
regnigaste 1679562
årsnederbörd 1679542
әле@@ 1679348
З 1679298
relatório 1679211
жал@@ 1679106
אור@@ 1678517
Това 1678430
任 1678408
Bon@@ 1678103
ċ 1678001
кін@@ 1677716
ু 1677387
٥ 1677297
Far@@ 1677185
ēm 1677176
която 1676988
받@@ 1676919
js 1676792
وەکو 1676765
ခြား@@ 1676719
gibi 1676491
hez 1676297
eğ@@ 1676248
ısı 1676108
част@@ 1676074
pode 1675951
stat 1675660
สุ@@ 1675182
promo@@ 1675003
ွဲ@@ 1674970
တတ 1674963
ဗျားတို 1674948
ჟთ@@ 1674830
Ent@@ 1674723
progres@@ 1674580
íté@@ 1674491
ää@@ 1674314
declar@@ 1673823
قا 1673538
הלי@@ 1673436
करतो 1673279
sitä 1672773
Finan@@ 1672766
68 1672683
hin 1672504
բան 1672479
تاقی@@ 1672446
alni 1672056
มาก 1671994
послед@@ 1671728
Bir 1671688
ăn 1671658
સો@@ 1671555
ဂျ@@ 1671461
တု@@ 1671443
रख@@ 1671221
应@@ 1671218
ئین@@ 1670620
نق@@ 1670471
Ren@@ 1669924
estis 1669802
ेच 1669782
основ@@ 1669782
ပြီ 1669706
otáz@@ 1669560
negoci@@ 1669399
ズ 1669289
他们 1669209
目 1668961
sw@@ 1668810
执行 1668413
ઇ 1668315
krat@@ 1668271
دەتوانن 1668104
uju 1668056
اندا 1667927
зар@@ 1667872
công 1667567
ால 1667490
telah 1667451
有关 1667436
isso 1667144
टक 1666849
משפ@@ 1666758
58@@ 1666715
Ha 1666639
વું 1666552
экономи@@ 1666491
vá 1666481
ский 1666420
yet@@ 1666350
Bre@@ 1666338
elem@@ 1666171
larını 1666020
سک@@ 1665802
û@@ 1665654
Man 1665104
december 1665084
milij@@ 1664826
raz 1664389
արկ@@ 1664346
սա 1664286
rozhod@@ 1664278
iki@@ 1664085
preci@@ 1664024
هەبێت 1663796
لۆ@@ 1663786
ќ@@ 1663651
icz@@ 1663532
underarter 1663507
平@@ 1662866
ရဲ႕@@ 1662697
ադ@@ 1662473
comunic@@ 1662454
tegen 1662447
iset 1662413
zdro@@ 1662404
매@@ 1661865
deg 1661810
zgod@@ 1661763
yje 1661655
بار 1661120
sing@@ 1660948
problé@@ 1660584
कमी 1660509
Kir@@ 1660274
¨ 1660269
být 1660053
gesch@@ 1659911
provin@@ 1659657
き@@ 1659656
Rob@@ 1659653
grad 1659144
Catalogue 1659101
кал@@ 1658919
שוב 1658164
188@@ 1658123
ষ 1658103
ống 1657852
behar 1657791
medidas 1657261
alu@@ 1657049
borg@@ 1656567
τί@@ 1656546
společ@@ 1655991
နစ 1655700
ရိုး@@ 1655686
Ал@@ 1655597
znač@@ 1655445
ступ@@ 1655397
قع 1655249
گەور@@ 1655197
دایە 1655178
harus 1655028
rek@@ 1654907
छो@@ 1654681
这@@ 1654399
parti 1654384
bunu 1654145
Р 1654049
ဟုတ 1653938
相@@ 1653782
чтобы 1653570
forts@@ 1653354
नु@@ 1653238
άζ@@ 1653145
ėjo 1653052
īv@@ 1652967
ंगे 1652774
შე@@ 1652395
dul@@ 1652216
տեղ@@ 1651987
ավոր 1651954
Sim@@ 1651826
গ 1651693
ś 1651162
attiec@@ 1651130
आहोत 1651000
حيث 1650618
سرو@@ 1650602
そ@@ 1650565
ңі@@ 1650531
ေၾကာင 1650436
გთ 1650197
ड़@@ 1650189
sempre 1649890
ными 1649680
кры@@ 1649481
ბჲ@@ 1649369
маш 1649357
تي@@ 1649323
겠@@ 1649303
United 1648907
sud@@ 1648719
ษ 1648547
uar@@ 1648237
cm 1648149
भे@@ 1648057
وتی 1647984
1000 1647805
IS 1647796
আস@@ 1647534
ieg@@ 1647522
Span@@ 1647513
nama 1647492
ují 1647315
comunit@@ 1647087
Έ@@ 1646927
rei@@ 1646747
ede@@ 1646685
altern@@ 1646542
sekä 1646540
করে 1646492
عدد 1646283
ф 1646225
два@@ 1646170
düş@@ 1646143
eel 1646025
rende 1646018
อย@@ 1645187
ရအောင 1645170
مست@@ 1645147
avo 1644949
ktorý 1644758
nebo 1644711
daž@@ 1644339
nú 1644269
पना 1644224
ink 1644193
erea 1644131
noti@@ 1644001
Um@@ 1643548
ких 1643541
Europeiska 1643435
အားလုံး@@ 1643418
đang 1643214
años 1642953
ĝi 1642281
果 1641743
कोई 1641655
вій@@ 1641633
राज 1641548
திய@@ 1641306
მა 1641285
programme 1641285
ними 1641063
બં@@ 1640972
초@@ 1640925
Bak@@ 1640732
пен@@ 1640656
Señor 1640419
heten 1640394
ფა@@ 1640336
קת 1640082
stam@@ 1639844
zij 1639840
લે 1639759
वण 1639583
facil@@ 1639441
vand@@ 1639419
keres@@ 1639140
чен 1639088
ساتھ 1639050
۲@@ 1638994
वेग@@ 1638989
dra 1638295
צר 1638185
Egy@@ 1638157
posit@@ 1637972
hist@@ 1637905
वै@@ 1637827
महा@@ 1637360
kke 1637276
خی@@ 1637094
werk@@ 1636992
જી 1636931
इन 1636879
lau@@ 1636878
Wij 1636715
need 1636573
ရိုက 1636410
πραγμα@@ 1636190
심@@ 1636170
گے 1635927
км 1635913
već@@ 1635878
处 1635812
So 1635662
būti 1635601
નમાં 1635279
kvadratkilometer 1635164
šan@@ 1635075
ór@@ 1634745
ίδ@@ 1634670
пов@@ 1634550
ực 1634267
6. 1634115
eke 1633789
هەو@@ 1633675
avat 1633453
आमच 1633441
ties@@ 1632990
سکتے 1632822
ата@@ 1632646
દર 1632558
все@@ 1632302
log 1632275
EM@@ 1631402
الي 1631105
ləş@@ 1630907
sov@@ 1630557
زانی 1630432
тому 1629711
сказаў 1629148
работ@@ 1628752
programma 1628370
ைத 1628176
ոս@@ 1627682
つ@@ 1627483
nii 1627146
aspek@@ 1627089
કરવામાં 1626951
jistgħu 1626820
મને 1626723
チ@@ 1626717
Stu@@ 1626566
لية 1626444
než 1626373
는데 1626015
aar 1625908
Ï 1625900
positi@@ 1625863
às 1625698
کوئی 1625643
hes@@ 1625427
ماوەی 1625019
дума@@ 1624950
वात 1624940
หร@@ 1624870
μη@@ 1624499
iter 1624383
saja 1624303
တိုး@@ 1624160
စွမ 1624141
יהו@@ 1623464
alta 1623067
Lon@@ 1622973
demon@@ 1622329
vro@@ 1622268
ュ@@ 1622222
Que 1622124
tiden 1622094
пробле@@ 1621919
لیکن 1621747
など 1621682
ügy@@ 1621550
тата 1621529
зай@@ 1621500
erede 1621437
Mod@@ 1621385
되었@@ 1621214
line 1621190
yat@@ 1621081
niecības 1621001
外@@ 1620732
گەڕ@@ 1620698
ڵێ@@ 1620689
စေ@@ 1620626
algo 1620375
工@@ 1620360
можно 1620286
ï@@ 1620170
ёй 1620112
บา@@ 1620083
ń 1619980
ოპჲ@@ 1619464
ekin 1619219
8. 1618910
ње 1618273
ność 1618200
mali 1617598
ază 1617392
Aust@@ 1617342
lokal@@ 1617241
vlá@@ 1617226
မူ@@ 1617178
Mu@@ 1617093
ناوی 1617048
لف@@ 1617021
aje 1616961
nit 1616764
则 1616683
под 1616560
lık 1616391
장 1616203
así 1616085
ciu 1615974
ecek 1615930
ताना 1615799
Tidak 1615732
Prin@@ 1615714
ဆံုး@@ 1615400
ուն 1615221
றி 1615091
հար@@ 1615028
각@@ 1614985
ც 1614963
procent 1614952
তি@@ 1614885
dte 1614878
ฝ@@ 1614838
niveau 1614547
Char@@ 1614371
Europees 1614170
Maj@@ 1614158
ế 1614110
किसी 1613984
non@@ 1613865
اط@@ 1613698
рып 1613599
CE 1613126
Hot@@ 1612965
ат 1612840
tijd 1612807
经济 1612788
bezpeč@@ 1612619
estos 1612534
болон 1612205
upp 1612046
रहा 1611922
fine 1611754
Çáã@@ 1611585
게@@ 1611502
ležit@@ 1611308
úc 1611137
тако@@ 1611110
άδ@@ 1611110
vah@@ 1611052
طرح 1610973
seç@@ 1610973
ீ@@ 1610946
Om 1610660
EU@@ 1610551
роди@@ 1610538
မျက 1610134
사람@@ 1610027
belə 1609902
xo 1609888
ността 1609693
भ 1609659
случа@@ 1609433
وش@@ 1609429
kandi@@ 1609382
ID 1609029
εργ@@ 1608822
ON 1608691
tại 1608436
金 1608424
ိုက 1608379
ară 1608211
кий 1607884
بەرەو 1607774
هێنانی 1607761
دەی 1607758
هەنگ@@ 1607741
աստ@@ 1607400
याकडे 1607099
tori 1607091
אז 1607048
сли@@ 1606599
Ewropea 1606276
dintre 1606103
ství 1605748
голо@@ 1605712
كما 1605438
မှုကို 1604884
ო 1604869
investig@@ 1604756
nio 1604717
条@@ 1604707
mier@@ 1604535
bie 1604309
ჟა@@ 1604273
אין 1604189
sir@@ 1603471
条 1603457
win@@ 1603343
ရုပ 1603139
görə 1602901
роб@@ 1602810
aron 1602805
քանի 1602722
telefon@@ 1602669
设@@ 1602664
ļa 1602658
เจ้า 1602207
专@@ 1602029
annya 1601718
감@@ 1601481
үүд 1601309
ácie 1601284
文@@ 1601247
כאשר 1601221
येक 1601219
бас@@ 1600966
լին@@ 1600691
เป@@ 1600611
Gro@@ 1600549
77 1600053
ၿပ@@ 1599610
дви@@ 1599439
7. 1599076
було 1598867
opre@@ 1598847
ндағы 1598670
Bos@@ 1598633
mēs 1598422
hang@@ 1598292
байдаг 1598037
ရက 1597860
Ol@@ 1597453
었@@ 1597349
قور@@ 1597326
청@@ 1597083
ausi@@ 1596859
бор@@ 1596793
पी 1596661
हुए 1596626
trên 1596493
нь@@ 1596435
maken 1596394
pik@@ 1596332
ஜ@@ 1596268
அந 1596162
οποί@@ 1596047
obec@@ 1595225
ador 1595004
لك 1594976
sive 1594958
તાં 1594736
ью 1594180
적 1594148
형@@ 1594081
কে@@ 1593901
पाह@@ 1593901
Ə@@ 1593744
prije 1593686
ST 1593534
92 1593329
आज 1593302
ladi@@ 1593296
Ener@@ 1592815
رده 1592711
राष 1592706
liik@@ 1592621
հր@@ 1592615
ျပီး@@ 1592612
lub 1592256
દિ@@ 1592176
My@@ 1592036
દેશ@@ 1592012
ளி@@ 1591874
وس@@ 1591860
Î@@ 1591773
Apart@@ 1591658
המי@@ 1590883
ဖိုး@@ 1590873
íme 1590826
πτ@@ 1590654
ફે@@ 1590622
نێ@@ 1590565
gust@@ 1590548
omi@@ 1590511
рат 1590433
સર 1590007
ματ@@ 1589339
Hr. 1589247
trenut@@ 1589111
may@@ 1588926
UR@@ 1588777
डी 1588757
常 1588752
これ 1588751
yhte@@ 1588722
斯 1588686
бойынша 1588606
ադր@@ 1588421
gäller 1588401
нде 1587865
air 1587787
गई 1587586
ாம 1587487
pers@@ 1587385
handl@@ 1587027
żi 1586921
षेत 1586874
चाल@@ 1586788
cə 1586732
тран@@ 1586577
comun@@ 1586554
biz@@ 1586548
सर@@ 1586298
چۆ@@ 1586286
Hen@@ 1586223
Bol@@ 1585617
ေစ@@ 1585607
või 1585176
dela 1585113
부터 1585078
образ@@ 1584921
вих 1584742
Eta 1584723
χή 1584557
rə@@ 1584554
تای@@ 1584511
राह@@ 1584457
zdrav@@ 1584181
tagħha 1584009
docum@@ 1583903
име@@ 1583867
потре@@ 1583780
projekt 1583779
prod@@ 1583737
gali 1583698
ίζει 1583480
реги@@ 1583434
wkoll 1583413
handel@@ 1583303
tän@@ 1582805
Don@@ 1582626
стор@@ 1582571
dedi 1582486
krá@@ 1582400
լ 1582377
Baş@@ 1582328
najbol@@ 1582162
ရော@@ 1582104
ေလ 1582090
vám 1582020
ités 1581950
ەمان 1581912
ەکاندا 1581911
لەو@@ 1581898
Ако 1581828
Ä@@ 1581115
между 1581091
นัก@@ 1581049
CH@@ 1580956
capac@@ 1580717
ationer 1580555
թ 1580479
čit@@ 1580440
aid 1580344
jedin@@ 1580342
دام 1580311
burg 1580174
أس@@ 1579965
ック 1579928
darba 1579799
owych 1579701
toho 1579661
зе 1579636
ניה 1579554
inis 1579496
שלו 1579395
paesi 1579326
活动 1579274
妇女 1579203
droits 1579022
bliver 1578939
tror 1578387
gir@@ 1578336
Սա 1578078
rapi@@ 1577860
ڕی 1577606
منا@@ 1577538
cours 1577448
Park 1577301
action 1577189
ذ 1577026
contr@@ 1577019
istan 1576957
vyš@@ 1576909
skol@@ 1576866
ေအာင 1576845
ბვ@@ 1576822
lil 1576692
ņa 1576662
Pak@@ 1576611
սկս@@ 1576035
زم 1576018
concer@@ 1575938
jelent@@ 1575844
tý@@ 1575796
tout 1575695
kia 1575691
anal@@ 1575591
olisi 1575521
เข้า@@ 1575388
šanās 1575263
၈@@ 1575091
အသက 1575074
svoj 1574611
staat 1574463
san 1574424
aast@@ 1574367
人员 1574354
былі 1574284
használ@@ 1573948
дер 1573861
άσεις 1573853
International 1573850
seri@@ 1573834
store 1573813
eze 1573705
所有 1573548
travail 1573546
انا 1573506
ەر 1573349
တို႔@@ 1573347
ەکانیان 1573286
Бұл 1573002
தே@@ 1572971
avno 1572775
Itali@@ 1572733
גל 1572610
部@@ 1572495
kraj@@ 1572379
IA 1572196
Pero 1572194
мина@@ 1571924
کا@@ 1571873
leta 1571640
Pla@@ 1571448
bbi 1571415
peut 1571289
edir 1570965
jautā@@ 1570719
дов@@ 1570668
pio 1570633
йо@@ 1570475
由 1570292
ნჲ@@ 1570062
vien 1569986
μεν@@ 1569962
також 1569950
રહે@@ 1569938
πρόσ@@ 1569930
းတယ 1569831
čaj@@ 1569686
сси@@ 1569400
段 1569313
пи 1568896
उनके 1568551
raš@@ 1568535
't 1568349
edo 1568210
този 1568125
emer@@ 1567926
નાં 1567377
todas 1567190
États 1566916
ear@@ 1566713
sac@@ 1566700
بية 1566620
होत 1566606
wir@@ 1566439
사용@@ 1566430
အဲ@@ 1566393
Ara@@ 1566364
ژ 1566292
seg 1565690
ேன 1565603
천@@ 1565569
wenn 1565522
үү 1565474
хыг 1565356
рек@@ 1565105
iller 1565102
atau 1565029
tron@@ 1565010
нение 1564783
هۆی 1564645
gun@@ 1564637
ဖြင 1564579
cele 1563601
olyan 1563330
શન 1563275
kem 1563096
chỉ 1562912
obser@@ 1562852
вельмі 1562487
० 1562246
მე@@ 1562233
נס@@ 1562203
תן 1562113
mee 1561914
ոց@@ 1561736
unt 1561479
П 1561234
Ty@@ 1561127
ချိန 1561091
女@@ 1560967
ણા@@ 1560948
승@@ 1560928
Conseil 1560901
ડે@@ 1560763
کێ@@ 1560397
خەڵ@@ 1560372
ئەم@@ 1560372
بووە 1560368
molto 1560301
дийн 1559616
miel@@ 1559358
atë 1559238
эк@@ 1559082
толькі 1558622
AB@@ 1558561
бод@@ 1558415
海@@ 1558339
மாக 1558335
કોઈ 1558270
мол@@ 1557937
ール 1557914
安@@ 1557689
spoloč@@ 1557664
二 1557618
းတွေ@@ 1557562
彼 1557308
जग@@ 1557273
мұ@@ 1557137
syd@@ 1557092
ofer@@ 1556941
খু@@ 1556931
ғын 1556771
ρε@@ 1556435
धी@@ 1556252
ssi@@ 1556244
new 1556175
سوپاس 1556038
still@@ 1556038
ڕی@@ 1556033
ییەک@@ 1556032
kvin@@ 1555781
стан 1555679
‑ 1555450
פת@@ 1555362
ран 1555289
sions 1555239
ché 1555231
טר 1555027
ισμού 1554988
חיים 1554717
상 1554660
tip@@ 1554559
exper@@ 1554415
होतं 1554402
ừng 1554220
oare 1554134
tör@@ 1553842
etta 1553678
прия@@ 1553636
تج@@ 1553516
Rap@@ 1553446
ंत@@ 1553414
тің 1553131
esp@@ 1552956
ėti 1552723
här 1552692
kehit@@ 1552454
stö@@ 1552338
အရင 1552316
erung 1552015
71 1551855
ڵه 1551789
یەکێک 1551748
ำ 1551664
พระ 1551579
spr@@ 1551553
să@@ 1551547
kst@@ 1551541
ถูก 1551440
versch@@ 1550839
yel@@ 1550736
ဗျာ 1550588
πολ@@ 1550530
eben 1550468
लेले 1550443
atas 1550349
län@@ 1549888
след 1549538
flu@@ 1549497
Ke@@ 1549172
tivos 1548719
bac@@ 1548636
tac@@ 1548490
terroris@@ 1548464
prior@@ 1548105
غير 1547989
ѓ@@ 1547351
faire 1547213
ရိ@@ 1547099
ျမ@@ 1547046
يل 1546945
anan 1546935
vie 1546931
વાર 1546896
ofici@@ 1546755
আমাদের 1546722
дна@@ 1546443
cé@@ 1545992
ハ@@ 1545986
کام@@ 1545763
करतात 1545622
กระ@@ 1545592
Europej@@ 1545464
pens@@ 1545378
immer 1545325
ainsi 1545233
מב@@ 1545171
нима@@ 1544841
Съ@@ 1544483
अनेक 1544372
willen 1544122
مون 1544043
Ό@@ 1543935
Cro@@ 1543810
ory 1543689
umo 1543630
стави@@ 1543480
kateg@@ 1543272
solidar@@ 1543198
Pir@@ 1543156
szí@@ 1543103
ね 1542984
rej 1542914
पार 1542848
veľ@@ 1542837
tento 1542819
הברית 1542789
असा 1542421
iso 1542327
但 1542275
动 1542185
place 1542177
nach@@ 1542031
שח@@ 1541989
ուր 1541542
决议 1541482
произ@@ 1541423
번@@ 1541408
ời 1541279
göra 1541275
진 1541178
เค@@ 1541100
θηκε 1541025
listade 1540161
سن 1540046
cə@@ 1539974
μπορεί 1539887
zjoni 1539707
现@@ 1539612
セ@@ 1539429
deki 1539112
ավ 1539089
รร@@ 1538691
ør 1538662
сон@@ 1538531
Ý@@ 1538329
ll 1538246
aquí 1538084
实@@ 1538003
동 1537932
hanya 1537729
priekš@@ 1537701
мэд@@ 1537634
señ@@ 1537297
thuộc 1537214
անց 1537119
rol 1536896
jagħ@@ 1536884
фак@@ 1536835
dam 1536753
جل 1536584
اض@@ 1536307
før@@ 1536087
ainda 1536017
также 1535960
služ@@ 1535744
ηλ@@ 1535698
शे@@ 1535577
także 1535500
programa 1535249
פר 1535235
Hi@@ 1535176
মি@@ 1535133
sebagai 1535062
тол@@ 1535048
kait@@ 1535034
Ста@@ 1534905
Ges@@ 1534850
စမ 1534796
çı@@ 1534741
بم@@ 1534551
nement 1534231
prest@@ 1534161
други@@ 1534133
Slov@@ 1533956
Գ@@ 1533943
proto@@ 1533912
Sav@@ 1533885
публи@@ 1533736
ருந 1533598
мыз 1533491
lande 1533483
zes 1532950
วา@@ 1532803
equi@@ 1532742
메@@ 1532696
وص@@ 1532574
bot@@ 1532400
point 1532330
रिक 1532161
Су@@ 1531858
paci@@ 1531837
кез@@ 1531814
спи@@ 1531587
kontak@@ 1531583
fan@@ 1531549
ベ@@ 1531392
dział@@ 1531342
הפר@@ 1531340
förslag 1531317
siis 1531176
աբ@@ 1531152
ement@@ 1531036
entre@@ 1531025
کردم 1531023
English 1531023
kõ@@ 1530855
jë 1530731
रश 1530728
হবে 1530506
nisu 1530414
ەڵ@@ 1530226
тку 1530221
mô@@ 1530210
بۆچی 1530169
insan@@ 1529746
deren 1529582
السي@@ 1529091
stati@@ 1528993
rus@@ 1528921
योग 1528821
perman@@ 1528774
يق@@ 1528194
असतो 1528176
מספר 1527892
nhà 1527892
eit 1527883
ער@@ 1527882
ပု@@ 1527879
းကို@@ 1527792
မဲ 1527772
ניות 1527269
ủ 1527120
ادة 1527068
ập 1527060
kost@@ 1526911
ագր@@ 1526854
nombre 1526706
точ@@ 1526609
эрэ@@ 1526471
Jer@@ 1526374
aŭ 1526367
நீ 1526302
ječ@@ 1526161
болох 1526149
ásá@@ 1525927
ینە 1525859
جۆرە 1525854
ệt 1525787
είο 1525622
gs@@ 1525592
지만 1525339
1991 1525192
institution@@ 1524960
lil@@ 1524851
ții 1524848
ďal@@ 1524796
nova 1524763
www.logyourrun.com 1524724
tipo 1524341
ingar 1524262
čet@@ 1524047
fundament@@ 1524021
800 1523960
ď 1523853
θερ@@ 1523839
ổi 1523699
Mel@@ 1523667
Arbe@@ 1523595
ઇન 1523549
रम 1523547
sid 1523519
Signor 1523406
बना@@ 1523232
ة@@ 1523189
ราช@@ 1522802
Son@@ 1522686
ოპვ@@ 1522624
ット 1522603
တို႔ 1522545
لع@@ 1522400
וו@@ 1522400
няма 1522266
थो@@ 1522262
ரை 1521944
พ 1521938
vimo 1521781
pob@@ 1521668
Φ@@ 1521607
انەوە 1521571
هەندێک 1521544
שית 1521389
σχετικά 1521346
lej@@ 1521328
Fir@@ 1521276
dai 1521200
legisl@@ 1521130
dimo 1521014
Fon@@ 1520968
ир@@ 1520915
합@@ 1520690
Para 1520666
rappor@@ 1520590
even@@ 1520555
він 1520377
Stor@@ 1520205
પરિ@@ 1520197
htmlwindows 1520048
dalībvalst@@ 1519898
ała 1519567
7,@@ 1519479
Dis 1519461
קיי@@ 1519120
இங 1519091
desta 1518844
gennem@@ 1518634
oji 1518580
זר 1518569
Kommission 1518326
наз@@ 1518067
ped@@ 1518014
kning 1517564
进@@ 1517414
پڕۆ@@ 1517264
θυ@@ 1517246
ەت@@ 1517233
তার 1517120
ття 1517101
udel@@ 1517052
mesmo 1517033
нг 1516935
mj@@ 1516902
мож@@ 1516318
læ@@ 1516140
semb@@ 1516010
הצי@@ 1515815
сум 1515661
အခ@@ 1515529
струк@@ 1515362
word 1515328
enn 1515301
yön@@ 1515269
ál 1515238
tiem 1515198
mål 1515077
झाली 1514905
حتى 1514821
amu 1514233
leen 1514189
rim@@ 1514109
бұ@@ 1513989
modific@@ 1513820
ản 1513710
public 1513560
ová@@ 1513540
tega 1513294
обо@@ 1513006
पद 1512930
φερ@@ 1512846
գի@@ 1512547
schap 1512527
ולים 1512343
poch@@ 1512260
उन@@ 1512089
အခါ 1512010
minut@@ 1511888
хад 1511633
tag 1511619
ści 1511469
ברו@@ 1511430
mehr 1511343
독@@ 1511132
гаа 1510830
rov 1510722
ний@@ 1510462
fik 1510454
plic@@ 1510365
zullen 1510319
stel@@ 1510245
дво@@ 1510106
wet@@ 1510100
עי 1509538
інде 1509427
دت 1509234
ino@@ 1509100
máis 1509023
Sloven@@ 1508910
आम@@ 1508875
diem 1508829
यी 1508766
nào 1508727
جۆ@@ 1508628
בעי@@ 1508596
ET@@ 1508568
လုိ@@ 1508532
राज@@ 1508527
နေတာ@@ 1508504
them 1508479
zan@@ 1508477
rak 1508259
aspec@@ 1508147
iny 1507854
биш 1507773
foarte 1507759
hlas@@ 1507424
sop@@ 1507421
کنه 1507212
لت 1507192
院 1506777
мой 1506745
cả 1506603
kosk@@ 1506591
A. 1506550
mil 1506247
इथे 1506231
집@@ 1505885
уу 1505635
WÿÿÿÿÿÿÿÿÿÿÿÿÿÿÿÿÿÿÿÿÈ 1505440
डी@@ 1505403
Od 1505213
estar 1505006
کاتی 1504615
வ 1504520
ەو 1504350
begyn@@ 1504333
Ay@@ 1504274
қай@@ 1504261
ři 1503953
ewwel 1503864
금@@ 1503821
知 1503702
nelle 1503668
flere 1503590
соб@@ 1503552
تب@@ 1503457
ήρ@@ 1503153
urile 1502831
Фран@@ 1502771
ণ 1502631
yorum 1502631
입니다 1502548
arri@@ 1501876
вай@@ 1501653
করতে 1501419
برای 1501369
একটা 1501293
היי@@ 1501181
tede 1500986
Vil@@ 1500953
việc 1500794
IM@@ 1500387
cima 1500259
ێش@@ 1500025
ระ@@ 1499898
άς 1499730
povez@@ 1499645
没有 1499358
etaan 1499334
genom 1499259
vår 1499059
ety 1498898
agen@@ 1498800
ऑ@@ 1498754
normal@@ 1498658
noe 1498285
չի 1498048
လုံး 1498024
အဆင 1498005
musí 1498004
المر@@ 1497747
amin@@ 1497733
ход 1497425
ică 1497423
Dec@@ 1497365
टाळ 1497357
மே@@ 1497257
Sec@@ 1497236
cho@@ 1497127
جه@@ 1497103
zija 1496727
The@@ 1496594
imi@@ 1496456
sao 1496306
ပို 1496237
शी@@ 1495796
ků 1495758
universit@@ 1495491
sz 1495309
76 1495244
vyt@@ 1495021
सन 1494883
ထွက 1494497
unii 1494201
પરંતુ 1494045
적인 1494013
միջ@@ 1493984
ધા@@ 1493890
明@@ 1493859
stas 1493841
Vý@@ 1493702
gar 1493524
ось 1493457
kah@@ 1493457
quer 1493415
वाढ@@ 1493083
această 1492906
görün@@ 1492328
onde 1492068
ев@@ 1492015
ড 1491973
असा@@ 1491867
اق@@ 1491467
மூ@@ 1491445
ەین 1491372
perf@@ 1491281
人权 1491200
Mes@@ 1491083
ဥ@@ 1490980
περ@@ 1490416
moment 1490224
obli@@ 1490086
ging 1489959
abri@@ 1489476
zná@@ 1489383
ров@@ 1489330
ဏ 1489233
skon@@ 1489227
مث@@ 1489100
mio 1489074
Ċ@@ 1489041
виде@@ 1488764
parlamentin 1488705
lõ@@ 1488592
वून 1488561
Som 1488489
China 1488489
dek 1488426
বার 1488393
SP@@ 1488243
بعض 1488227
aram 1488126
جب 1487908
ujem 1487760
الل@@ 1487746
genom@@ 1487623
мене 1487564
ဗျား@@ 1487487
Υ@@ 1487016
Feder@@ 1486885
đe 1486547
зу 1486541
Life.Källor 1486400
Ré@@ 1486364
कॉ@@ 1486066
beleid 1485789
ႊ 1485712
огра@@ 1485662
pamat@@ 1485557
eron 1485339
لے 1485141
uu 1485029
Bas@@ 1484869
Ì@@ 1484427
kor 1484389
லை@@ 1484231
яа@@ 1483863
ой@@ 1483836
話 1483785
78@@ 1483784
রা 1483743
רית 1483580
ране 1483531
vaik@@ 1483493
Alla 1483379
Cap@@ 1483330
пай@@ 1483329
होंने 1483292
koj@@ 1483220
ữ 1483043
vali 1483026
તેઓ 1482944
ター 1482928
دەمەوێت 1482763
उद 1482589
জান@@ 1482492
συμβ@@ 1482437
ites 1481936
Nat@@ 1481925
گر 1481696
ოთ@@ 1481609
kanssa 1481455
78 1481292
want 1481230
大会 1481199
जिस@@ 1481015
long 1480710
nieuwe 1480645
ובה 1480581
yen@@ 1480563
ով@@ 1480547
اله@@ 1480500
သြ@@ 1480499
ily 1480168
времен@@ 1479801
Dem@@ 1479286
być 1479136
sest@@ 1479099
یہاں 1478869
rik@@ 1478842
ပညာ@@ 1478739
byť 1478639
ιο 1478630
两@@ 1478547
هەمو@@ 1478465
جیاواز@@ 1478452
لێدان 1478444
personas 1478390
Som@@ 1478231
मै@@ 1478207
ראש 1478189
西@@ 1478131
اما 1477959
eš 1477844
ισμό 1477783
દી 1477712
ակի 1477614
theo 1477594
tě@@ 1477495
Ли@@ 1477348
ΕΕ 1477243
ettava 1477073
သု@@ 1477022
ဖွ@@ 1476976
tą 1476804
αφορά 1476264
ら@@ 1476195
ете 1475925
ूर 1475686
わ@@ 1475495
नक 1475323
яко@@ 1475256
၇@@ 1475215
שא@@ 1475051
社 1475022
stän@@ 1474901
점@@ 1474868
date 1474784
صرف 1474775
jedna 1474745
역 1474548
finanzi@@ 1474271
doš@@ 1474218
کردووە 1474168
دەچێت 1474145
сна@@ 1474007
Ten@@ 1473890
илүү 1473855
daß 1473758
းရဲ 1473480
ကား@@ 1473465
fli@@ 1473394
daje 1473391
부 1473378
务 1472780
alik 1472721
será 1472674
My 1472664
kontrol@@ 1472629
qué 1472592
ト 1472540
kod 1472364
ניים 1472298
hora 1472288
הסי@@ 1472254
Sin@@ 1472162
amenti 1472161
kän@@ 1471973
dern 1471960
گیا 1471956
Жа@@ 1471825
ဝါ@@ 1471734
မသိ@@ 1471718
စီး@@ 1471714
siden@@ 1471659
69 1471513
wie@@ 1471508
article 1471286
conven@@ 1471177
priem@@ 1471172
ורות 1471138
Mü@@ 1471136
das@@ 1471132
जब 1470831
Ot@@ 1470746
étab@@ 1470734
wara 1470684
вете 1470540
tir 1470458
znam 1470214
αστ@@ 1470181
ျမင 1469980
شێ@@ 1469934
થ 1469876
اپنے 1469586
வது 1469580
neh@@ 1469528
मुख 1469482
պար@@ 1469418
πιστ@@ 1469418
ափ@@ 1469377
ijk 1469334
רח@@ 1469283
punt 1469225
十@@ 1469191
nic 1469096
આવ@@ 1468693
what 1468687
тала@@ 1468433
жылы 1468253
ဒါမှမဟုတ 1468207
Nar@@ 1467880
定@@ 1467415
gøre 1467368
осо@@ 1467320
rot@@ 1467303
posta 1466899
णारे 1466628
mény@@ 1466570
လီ@@ 1466482
juni 1466418
roč@@ 1466388
止 1466382
nau@@ 1466245
Jo 1466221
הנו@@ 1465981
ici@@ 1465917
төр@@ 1465811
kken 1465774
দা@@ 1465730
âr@@ 1465601
شتە 1465553
بڕو@@ 1465553
ندە 1465501
ـ 1465270
Dé@@ 1465259
לך 1465093
kker 1465068
खो@@ 1464874
sæt@@ 1464732
ဒါဆို 1464720
alap@@ 1464704
juk 1464576
Fol@@ 1464045
Agen@@ 1463938
drug@@ 1463842
Tapi 1463819
நம 1463763
तथा 1463692
prom@@ 1463545
këtë 1463344
ψηφ@@ 1463342
тари@@ 1463187
Rad@@ 1463146
ပြည 1463025
အရေး@@ 1462968
ברים 1462968
sts 1462827
้น@@ 1462727
gil@@ 1462651
poved@@ 1462645
allen 1462560
kemm 1462492
लोग 1462429
cut 1462426
Jekk 1462418
들은 1462337
uw 1462305
ρού@@ 1462065
vision 1461975
рының 1461701
เข@@ 1461548
કી 1461250
сред@@ 1461218
այր@@ 1461213
дай 1461211
ေပ@@ 1461188
Hal@@ 1461125
sea 1461117
Ed@@ 1460770
ésé@@ 1460633
nec@@ 1460587
سان 1460567
hotel 1460547
अस 1460529
potřeb@@ 1460491
ских 1460423
รว@@ 1460344
tj@@ 1460254
ších 1460249
tro 1460192
yet 1460079
tous 1460004
jeb@@ 1459792
助 1459751
sehr 1459582
נח@@ 1459516
ника 1459496
הגי@@ 1459491
၆@@ 1459451
ħħ@@ 1459329
And 1459119
ընդ@@ 1459060
ונית 1458726
maail@@ 1458473
أص@@ 1458459
去 1458450
eso 1458393
gas@@ 1458390
yon@@ 1458182
सारख@@ 1457804
өөр@@ 1457515
unter@@ 1457461
kép@@ 1457239
IF@@ 1457223
Raz@@ 1457174
тура 1457145
fur@@ 1457037
будет 1457008
Comité 1456790
Хо@@ 1456734
Й@@ 1456622
kü@@ 1456553
tih 1456483
thi@@ 1456320
κά@@ 1456264
gef@@ 1456121
ému 1456101
дар 1455985
특@@ 1455621
फा@@ 1455457
hulle 1455252
rapor@@ 1455155
லும 1455047
որոնք 1454984
itud 1454974
mnogo 1454553
력@@ 1454495
кен 1454290
поли@@ 1454031
ไม่ได้ 1453821
ટિ@@ 1453736
ทั@@ 1453602
вет@@ 1453589
5. 1453588
SA@@ 1453429
talman 1453307
unto 1453091
дов 1452994
føl@@ 1452718
από@@ 1452582
IP@@ 1452485
ဘဲ 1452433
vezet@@ 1452338
ოვ@@ 1452317
кој 1452265
mukaan 1452180
gå@@ 1452143
Pom@@ 1452035
jis 1451811
نای@@ 1451720
referen@@ 1451566
един 1451326
który 1451277
vij@@ 1451273
nast@@ 1451202
Naz@@ 1450643
高 1450590
लों 1450333
hlav@@ 1450306
至 1450072
uso 1449977
sā@@ 1449764
ksi@@ 1449756
wał 1449704
owania 1449667
щ 1449398
Тэгэхээр 1449351
umi@@ 1449227
ņem@@ 1449197
区 1449135
strán@@ 1449094
akse 1449014
ပြား@@ 1448945
muka@@ 1448941
был 1448772
ká 1448737
jeti 1448700
ables 1448615
final 1448520
ژیانی 1448306
Мі@@ 1448016
imen@@ 1447474
tare 1447364
ठे@@ 1447345
управ@@ 1447047
चे@@ 1447020
안 1446846
חלק 1446813
reag@@ 1446674
ében 1446568
रवा@@ 1446561
poder@@ 1446467
Itu 1446196
Bes@@ 1446097
ρος 1445868
itate 1445786
dotycz@@ 1445519
으@@ 1444821
eer 1444648
È 1444592
very 1444260
Musi@@ 1444158
ارد 1444087
ее 1444031
ilg@@ 1444027
လွှ@@ 1443692
Ons 1443636
blevet 1443363
ऐ@@ 1443227
Bul@@ 1443074
гаад 1442966
کردنه 1442943
रही 1442903
ней@@ 1442863
говори@@ 1442538
意@@ 1442473
лу 1442453
etter 1442361
vērā 1442031
အထ@@ 1441934
señor 1441925
kred@@ 1441884
두@@ 1441818
ussa 1441775
२@@ 1441727
았@@ 1441411
может 1441401
nat 1441087
ỏ 1440893
fejn 1440699
oen 1440638
டம 1440510
également 1440352
ούς 1440237
umā 1439940
პა 1439869
moż@@ 1439659
尔 1439623
ονται 1439428
কিন 1439303
اگر 1438778
té 1438703
hän@@ 1438676
גנ@@ 1438404
בא 1438341
fica 1437909
θεσ@@ 1437738
нием 1437736
imag@@ 1437575
91 1437512
enas 1437263
kry@@ 1437195
שנת 1437179
slov@@ 1436983
veis 1436948
利 1436804
ками 1436803
สู@@ 1436777
гт 1436601
led 1436597
już 1436501
णू@@ 1436407
cum 1436402
tres 1436373
计 1436355
perché 1436143
חבר@@ 1435823
eil@@ 1435737
ктор 1435610
хэн 1435442
یاخود 1435347
pic@@ 1435104
internet@@ 1435084
tussen 1435079
کل@@ 1434985
taan 1434963
вий 1434905
поч@@ 1434898
非@@ 1434819
lič@@ 1434797
회 1434767
għu 1434761
माण 1434759
стве@@ 1434739
Dur@@ 1434674
пы 1434653
Ky@@ 1434598
пъл@@ 1434505
ish 1434494
իսկ 1434436
гін 1434325
60@@ 1434271
unde 1434129
ref@@ 1434095
زم@@ 1433930
ort@@ 1433899
שנות 1433880
أح@@ 1433616
более 1433606
alles 1433418
هناك 1433284
ลิ@@ 1433251
ჩ@@ 1433233
သူမ@@ 1433158
komunik@@ 1432866
harmon@@ 1432694
médi@@ 1432531
imento 1432112
,000 1432062
ئار@@ 1431929
sai 1431679
अशा 1431480
लोकांना 1431457
နားလည 1431430
ဳ@@ 1431417
ील 1431389
સુધી 1431057
هەبوو 1431051
ەیەک@@ 1431039
ţion@@ 1430839
agora 1430565
Sab@@ 1430288
мата 1430263
adal@@ 1430201
ειας 1430078
بط@@ 1430035
test 1430025
висо@@ 1429953
associ@@ 1429592
μόνο 1429389
Windows 1429287
игра@@ 1429158
ئ 1428760
קבו@@ 1428658
rum 1428581
гло@@ 1428578
onia 1428569
nell' 1428560
ări 1428551
ζητ@@ 1428547
лийг 1428461
Rum@@ 1428405
Ха@@ 1428353
աշխարհ@@ 1428287
eerste 1428135
ံုး@@ 1427920
Fra@@ 1427851
public@@ 1427639
Auf@@ 1427521
見 1427507
ருக 1427401
pac@@ 1427380
यांची 1427125
import@@ 1427095
ับ 1427039
рів 1427011
cell@@ 1426972
ধ 1426811
estamos 1426735
مێش@@ 1426730
atori@@ 1426651
tent 1426623
થા@@ 1426545
три 1426148
hop@@ 1426057
Leg@@ 1426031
рен 1426011
डे@@ 1425828
lant@@ 1425720
sou 1425709
sos 1425475
På 1425077
eku 1425014
jaz@@ 1424831
He 1424800
ція 1424701
Prz@@ 1424605
imiz 1424545
тә@@ 1424536
national 1424526
cres@@ 1424500
ေငြ@@ 1424447
သေး@@ 1424407
રહી 1424230
m2 1424202
ჱნა@@ 1424173
ंद@@ 1424036
经@@ 1423855
fü@@ 1423435
otu 1423420
长 1423290
alu 1423185
कोण@@ 1423147
செ@@ 1423063
cara 1423039
ауы@@ 1422983
来@@ 1422612
уч@@ 1422429
āti 1422225
right 1422158
ossa 1422087
রে@@ 1422010
okat 1421928
нова 1421810
дэл@@ 1421799
Om@@ 1421797
دون 1421746
teen 1421652
tych 1421632
பொ@@ 1421577
noen 1421567
תק@@ 1421566
เซ@@ 1421534
zoals 1421533
тази 1421519
omdat 1421477
många 1421477
aħ@@ 1421440
jist@@ 1421330
маг@@ 1421205
cid@@ 1420785
ϊ@@ 1420395
issä 1420250
இப 1420110
ıy@@ 1420093
multe 1420074
իրենց 1420065
skir@@ 1419900
agra@@ 1419886
เธ@@ 1419699
μένη 1419644
公约 1419583
Di 1419529
تری 1419482
ái 1419251
propor@@ 1419143
indu@@ 1419074
कारी 1418940
पास 1418740
seen 1418633
גור@@ 1418448
목@@ 1418385
OS 1418206
달@@ 1418028
对@@ 1417805
ולם 1417798
niki 1417578
โอ@@ 1417465
နေကြ@@ 1417410
dende 1417303
magħ@@ 1417238
เห@@ 1417216
vala 1417119
slag@@ 1417049
建议 1416767
saj 1416695
atik 1416660
הז@@ 1416199
원 1416182
koordin@@ 1416048
தி 1415791
cev 1415722
būtų 1415668
ရွိတယ 1415652
ェ@@ 1415643
emente 1415465
učin@@ 1415378
лын 1415150
Andre@@ 1415095
გამ 1414915
रिया 1414865
processo 1414746
dies 1414737
bö@@ 1414708
તેને 1414681
alter@@ 1414604
alidad 1414600
ø 1414477
anak 1414177
mie 1414164
perc@@ 1414111
ါ@@ 1413961
siv@@ 1413942
သံုး@@ 1413907
bør 1413884
کەر@@ 1413824
دەکەیت 1413815
veg@@ 1413672
kienu 1413644
Q 1413598
деген 1413478
čni 1413373
xx@@ 1413336
jeg@@ 1413250
भू@@ 1413008
Kam@@ 1412841
業 1412829
saat 1412738
गे 1412660
بون@@ 1412611
cro@@ 1412423
คิด 1412279
လာတယ 1412155
शोध@@ 1411969
рес@@ 1411828
eras 1411753
jir@@ 1411740
yaxşı 1411594
Times 1411419
கூ@@ 1411414
ero@@ 1411375
дү@@ 1411337
ських 1411287
læg@@ 1411212
रीय 1411052
ורך 1410950
estä 1410869
allo 1410681
0.000 1410641
ovala 1410457
၆ 1410416
ဒီအ@@ 1410381
olduğ@@ 1410362
fakt@@ 1409896
ăţ@@ 1409814
rš@@ 1409756
izdel@@ 1409744
زانین 1409536
puol@@ 1409483
ێکدا 1409478
fazer 1409225
got@@ 1409185
lavoro 1409158
文 1409113
Ù 1409113
jid@@ 1408811
ေက 1408632
oldu 1408564
ότητας 1408509
гийг 1408496
diği 1408336
sad 1408041
Just@@ 1408014
Tak 1407948
ange 1407938
ماو@@ 1407607
ัด 1407564
Din 1407516
пъ@@ 1407394
зни@@ 1407374
atura 1407213
əri 1407106
rë 1407100
研究 1407085
anni@@ 1407074
ŭ 1406675
are@@ 1406122
दी@@ 1406071
नं 1406062
lain 1405900
ról 1405853
추@@ 1405747
eht 1405339
બિ@@ 1405311
Tal@@ 1405266
ەکی 1405215
ချို 1405147
americ@@ 1405099
ställ@@ 1405055
edz@@ 1405035
٠٠ 1404882
prakti@@ 1404810
również 1404736
radi 1404492
dodat@@ 1404383
valst@@ 1404071
პაჱ@@ 1404032
total 1404030
באי@@ 1403823
γραφ@@ 1403697
նրանց 1403665
Об@@ 1403535
မွန 1403399
ဒီမှာ 1403390
ကာ 1403382
¯ 1402859
اسے 1402662
زو@@ 1402660
gjort 1402622
една 1402578
合作 1402490
کام 1402487
vou 1402440
दो@@ 1402270
shumë 1401974
Din@@ 1401884
ší@@ 1401795
eria 1401786
chính 1401786
իզ@@ 1401753
igi@@ 1401674
ွ 1401655
մեկ 1401603
Mik@@ 1401558
seus 1401179
būt 1401142
طي@@ 1401140
Tam@@ 1401108
manu@@ 1401056
ณ์ 1400987
usu 1400902
هەمو 1400899
じ 1400660
yn 1400575
三 1400499
كن 1400488
议@@ 1400413
73 1400336
müssen 1400309
ולו@@ 1400095
kter@@ 1400010
derfor 1399981
sistē@@ 1399882
လျ@@ 1399879
rede 1399875
пле@@ 1399784
тези 1399758
povas 1399381
ความ 1399351
העי@@ 1399180
szob@@ 1399054
mili@@ 1399013
ოპთ@@ 1398994
Ве@@ 1398890
app@@ 1398774
Mich@@ 1398677
ણી@@ 1398509
ів 1398424
zelo 1398408
னி@@ 1398310
દુ@@ 1397945
zek@@ 1397802
79 1397426
βασ@@ 1397365
unci@@ 1397070
хүн 1397061
relev@@ 1396975
ény@@ 1396954
شان@@ 1396931
contin@@ 1396710
ژی@@ 1396602
었다 1396568
pem@@ 1396490
novo 1396409
ဆောက 1396381
sak 1396200
obraz@@ 1396168
valsts 1396167
deux 1395900
動 1395826
વો 1395753
ներին 1395449
inga 1395400
Ben 1395353
olo@@ 1395254
жде@@ 1394848
ّ 1394730
ကိုင 1394627
мину@@ 1394385
s.@@ 1394376
pró@@ 1394297
może 1394290
kaže 1394259
már 1394169
金@@ 1394162
air@@ 1394131
вялі@@ 1393992
ート 1393813
opti@@ 1393777
250 1393749
See 1393701
交@@ 1393489
دواتر 1393072
Калі 1393038
แน@@ 1392961
ரம 1392573
problemas 1392550
从 1392521
へ 1392355
ზვ@@ 1392268
بەڕاستی 1392263
Prof@@ 1392261
jev 1392252
rup@@ 1392190
còn 1392180
weg@@ 1391980
ўсё 1391963
лай@@ 1391868
дағы 1391857
Гэ@@ 1391809
بت@@ 1391512
onorevole 1391510
েছি 1391497
hoe 1391447
Ծիծաղ 1391333
CN@@ 1391318
ခဲ@@ 1391138
चर 1390921
коли@@ 1390847
teurs 1390625
ισχ@@ 1390555
עלי@@ 1390376
ET 1390354
ικο@@ 1390209
nhất 1390174
93 1390149
যে@@ 1390102
まで 1390079
kār@@ 1389835
મળ@@ 1389721
тич@@ 1389698
uot@@ 1389591
där 1388868
zung 1388764
zą@@ 1388683
Pad@@ 1388488
г. 1388462
odi 1388353
Vir@@ 1388262
کتێ@@ 1387959
ंचा 1387951
ئاما@@ 1387940
اتە 1387934
યક 1387911
लेली 1387782
Vy@@ 1387589
ετε 1387586
mult 1387355
Home 1387330
trav@@ 1387305
ώσεις 1387263
unter 1387243
dice 1387171
다는 1386993
isme 1386970
social@@ 1386747
니 1386713
rep@@ 1386517
ecu@@ 1386462
Ja@@ 1386373
тя 1386367
owe 1386274
במהלך 1386157
heter 1386002
кур@@ 1385821
тие 1385796
sopim@@ 1385717
چاہ@@ 1385555
vän@@ 1385533
անկ@@ 1385198
քում 1385192
muốn 1384985
'@@ 1384849
elimin@@ 1384649
जै@@ 1384648
bukan 1384542
νη 1384422
Como 1384358
alli@@ 1384207
ဦ@@ 1384183
хто 1383985
ža 1383674
بوونی 1383634
它 1383519
isu@@ 1383339
pon 1383336
dul 1383315
ring 1382897
trop@@ 1382887
Ұ@@ 1382870
tru@@ 1382800
lég@@ 1382798
álne 1382398
ူ 1382388
21@@ 1382094
ứng 1382020
arios 1381875
üzer@@ 1381832
Bulgar@@ 1381740
garan@@ 1381630
בל@@ 1381544
IL@@ 1381349
ře 1381300
さ@@ 1381289
니다 1381246
kého 1381066
ental 1380733
deut@@ 1380705
pomemb@@ 1380676
ပါလိမ 1380610
bodo 1380565
thì 1380497
وره 1379859
kuitenkin 1379820
管理 1379762
כת@@ 1379721
ake 1379693
kör@@ 1379575
ör 1379512
টি 1379479
ểu 1379459
čov@@ 1379418
AK@@ 1379414
રાજ@@ 1379368
дық 1379311
ەکانمان 1379305
ямар 1379201
sport 1379191
tü@@ 1379152
We@@ 1378925
တြက 1378862
74 1378855
энд 1378827
держа@@ 1378777
están 1378503
Als 1378266
div@@ 1378167
يك@@ 1378135
でき 1378132
าง 1378110
वाले 1378060
خست@@ 1378034
Ð@@ 1378027
ăng 1378005
أنه 1377853
モ@@ 1377668
22@@ 1377545
จำ@@ 1377505
군 1377335
ezelőtt 1377268
ës 1377236
Universit@@ 1377056
jie 1376915
Ba@@ 1376869
tiu 1376771
ลา@@ 1376764
კთ 1376738
stron@@ 1376527
мет 1376453
نیش@@ 1376356
Összes 1376295
zet 1376275
uer@@ 1376179
ню 1376159
nord@@ 1376098
9. 1376088
Ken@@ 1375943
naiz 1375733
래@@ 1375717
szó@@ 1375345
نیشان 1375128
بڵ@@ 1375000
edi 1374989
iespē@@ 1374957
ність 1374766
рата 1374644
jūs 1374604
tigen 1374319
heç 1374275
oria 1374260
лээ 1374203
internet 1374107
Ra@@ 1374106
út 1373936
štá@@ 1373774
المح@@ 1373767
uen 1373623
yoruz 1373560
受 1373298
aat@@ 1373210
jedno@@ 1373176
用@@ 1372930
gesti@@ 1372874
incre@@ 1372820
tua 1372218
षात 1372211
anta@@ 1372157
même 1371926
çıx@@ 1371914
чем 1371694
tov 1371646
IST 1371545
haf@@ 1371541
代表 1371520
forma@@ 1371475
마 1371187
ღჲ 1371068
צת 1370840
jela 1370796
bra 1370778
Bri@@ 1370761
داهێن@@ 1370706
خەڵکی 1370699
unea 1370630
contro 1370630
ine@@ 1370595
pén@@ 1370522
اته 1370156
pes 1370119
၈ 1370110
কিছু 1370049
τελ@@ 1369895
мын 1369681
гуу@@ 1369583
după 1369303
izan 1369220
gost@@ 1369205
spir@@ 1369187
viz@@ 1369147
Θ@@ 1369095
თრვ 1369076
回 1368823
pasākum@@ 1368616
Stat@@ 1368587
ရှိပါတယ 1368344
äng@@ 1368319
પર@@ 1368266
general 1368103
алып 1368063
sky 1367970
ınız 1367967
Rek@@ 1367919
权 1367783
пове@@ 1367764
сына 1367684
ско 1367373
Ali@@ 1367090
īgu 1366967
rs@@ 1366961
աշխատ@@ 1366711
ilen 1366605
чі 1366444
نێوان 1366363
சரி 1366267
ří 1366238
อย่าง 1366135
라는 1366116
बदल@@ 1366060
anto 1366050
evo 1365875
nji@@ 1365869
дә@@ 1365809
वारा 1365804
kio 1365719
μένα 1365679
telse 1365660
نمي@@ 1365642
баста@@ 1365518
wi 1365463
إن@@ 1365429
Tako 1365310
дома 1365045
မရ@@ 1364843
ւ 1364836
stan 1364805
ออก 1364797
मित 1364794
ради 1364721
ιο@@ 1364712
մեզ 1364671
Kos@@ 1364662
আমাকে 1364633
még 1364406
vair@@ 1364318
هد 1364195
લોકો@@ 1364147
ị 1363959
fizi@@ 1363501
както 1363396
Wo@@ 1363339
τ 1363199
тое 1363025
zona 1362933
pou@@ 1362768
тна 1362501
Ev@@ 1362436
Liber@@ 1362377
하였@@ 1362239
베@@ 1362135
тър@@ 1362123
korist@@ 1362088
ێکە 1362083
دەنگ@@ 1362075
دەزانن 1362064
pool@@ 1361988
μερ@@ 1361850
õt@@ 1361681
सं 1361616
থ@@ 1361227
echter 1361162
99@@ 1361066
estim@@ 1360929
όταν 1360676
یی 1360648
ючы 1360580
ծում 1360555
шта@@ 1360396
жения 1360391
так@@ 1360335
drugi 1360260
ele@@ 1360150
બના@@ 1360063
μβ@@ 1360041
Spe@@ 1359939
gaat 1359916
แบบ 1359548
когда 1359486
ણે 1359289
במש@@ 1359238
voj 1359221
DP 1359187
名@@ 1359036
局 1359008
ča 1359001
ган@@ 1358964
yj@@ 1358878
kansal@@ 1358872
行@@ 1358670
φα@@ 1358654
ված@@ 1358565
խոս@@ 1358529
itali@@ 1358290
рии 1358282
нията 1358208
būs 1358119
sekarang 1358080
хэрэгтэй 1357842
informáci@@ 1357836
ەیی 1357782
ئەند@@ 1357768
ijas 1357527
எங 1357525
toda 1357479
하게 1357219
ყპ@@ 1356847
compar@@ 1356799
נוספ@@ 1356735
tit 1356482
բայց 1356465
міз@@ 1356461
distribu@@ 1356454
favor 1356289
こ 1356078
קד@@ 1356066
minden 1355763
ред@@ 1355751
120 1355728
अल 1355702
พวก 1355508
بری@@ 1355451
બર 1355318
jil@@ 1355145
gon@@ 1355111
aller@@ 1354940
etan 1354859
פו 1354668
кру@@ 1354528
despre 1354290
ラン@@ 1354257
off 1353974
רוב 1353958
voim@@ 1353731
διά@@ 1353432
parten@@ 1353408
abbiamo 1353407
нем 1353265
vy 1353097
mater@@ 1352977
stig@@ 1352970
дог 1352902
зро@@ 1352813
աթ@@ 1352789
ER 1352692
မျိုး 1352623
မွ 1352593
States 1352157
ペ@@ 1352100
Pap@@ 1352061
bog@@ 1352001
entemente 1351995
läg@@ 1351841
WÿÿÿÿÿÿÿÿÿÿÿÿÿÿÿÿÿÿÿÿÈ@@ 1351836
ஒ@@ 1351804
От@@ 1351707
пери@@ 1351461
must 1351423
ציה 1351391
слі@@ 1351354
રો 1351297
kész@@ 1351282
və@@ 1351155
skall 1351130
amely 1351098
ət 1351039
itor@@ 1350752
жұмы@@ 1350489
migran@@ 1350329
편@@ 1350236
puede 1350236
áp 1350054
tävä@@ 1349731
hvor@@ 1349670
ี่ 1349297
kv@@ 1349261
سێ@@ 1349180
yı@@ 1349147
arse 1349116
مال@@ 1349073
four@@ 1349005
service 1349004
அதை 1348791
tų 1348692
leid@@ 1348660
böyük 1348593
Latvijas 1348480
eiden 1348449
vyh@@ 1348410
ալի 1348253
iski 1348090
मिळा@@ 1348023
reak@@ 1348016
vur@@ 1347942
présent@@ 1347876
fast@@ 1347831
viac 1347830
tho@@ 1347620
sistem 1347470
kuri 1347374
நே@@ 1347361
extre@@ 1347140
maya 1347073
пові@@ 1346992
ঘ@@ 1346980
führ@@ 1346679
kasut@@ 1346618
өнг@@ 1346521
Seb@@ 1346412
recom@@ 1346318
dokon@@ 1346238
Sy@@ 1346202
stitu@@ 1346141
ом 1345964
田 1345912
यार 1345675
мати@@ 1345637
ában 1345574
nhiều 1345507
ongel@@ 1345497
wsz@@ 1345450
prati@@ 1345305
שנים 1345262
susi@@ 1345195
žiad@@ 1345170
naud@@ 1345139
gos 1345109
routes 1344941
سۆ@@ 1344906
βά@@ 1344855
سەی@@ 1344839
زە 1344816
diri 1344673
bles 1344655
ád@@ 1344611
οποίο 1344525
Mə@@ 1344321
concre@@ 1344255
bylo 1344194
աժ@@ 1344159
κοινων@@ 1343981
Dob@@ 1343876
sous 1343824
lov 1343778
konuş@@ 1343662
Wil@@ 1343577
àª 1343482
Ке@@ 1343272
Huwa 1342874
niku 1342734
आत 1342717
маши@@ 1342685
ื่@@ 1342487
вел@@ 1342443
akin 1342419
suun@@ 1342287
FOGLALÁS 1342121
ձեզ 1342098
szállá@@ 1342085
စနစ 1342057
دیکھ@@ 1342027
гор@@ 1341950
ава@@ 1341871
нів 1341866
доста@@ 1341811
вши@@ 1341753
tima 1341589
1989 1341203
għa 1341144
תוך 1340942
Budapest 1340851
كت@@ 1340743
מקו@@ 1340727
तल 1340636
his@@ 1340192
办@@ 1340150
governo 1339943
ネ@@ 1339797
શકે 1339752
пор@@ 1339534
velik@@ 1339513
Amerika 1339318
区域 1339178
જો 1339169
35@@ 1339128
жил 1339082
vērt@@ 1338892
thấy 1338735
Vic@@ 1338652
Krist@@ 1338641
ေခ@@ 1338560
使用 1338465
نية 1338377
աք@@ 1338172
mismo 1338046
dati 1337924
رس@@ 1337905
moramo 1337719
αγορ@@ 1337582
אלה 1337553
94 1337540
dant 1337472
ează 1337421
unë 1337251
řed@@ 1337198
mulig@@ 1337049
куль@@ 1337019
nás 1336253
پەی@@ 1336238
kilomet@@ 1336199
δή@@ 1336089
கே 1335760
preven@@ 1335444
cos@@ 1335351
дегі 1335319
живо@@ 1335304
KST 1335277
עו 1335275
חל@@ 1335201
chang@@ 1335018
发 1335000
hall@@ 1334977
वेळी 1334852
רום 1334410
ρου@@ 1334340
არ 1334316
время 1334264
पन 1334241
AP 1334224
ення 1334019
ký 1333956
дай@@ 1333929
ներից 1333879
hoa 1333751
retar@@ 1333286
PS 1333171
мей@@ 1332752
agre@@ 1332549
העולם 1332489
senza 1332459
lang 1332196
우리@@ 1332115
lež@@ 1332084
כון 1331947
پەیوەند@@ 1331898
هێڵ@@ 1331883
մարդկանց 1331835
μεταξύ 1331689
duc@@ 1331635
μεγάλ@@ 1331568
тера@@ 1331558
重 1331338
ீர 1331336
الأر@@ 1331305
ัก@@ 1331218
نزی@@ 1331197
Fri@@ 1331139
sų 1331014
prema 1330946
כול@@ 1330874
калық 1330871
både 1330737
pracov@@ 1330556
ences 1330355
необходи@@ 1330289
请 1330268
miz@@ 1330213
ībām 1330075
senti@@ 1329968
тери@@ 1329955
tart@@ 1329913
בסי@@ 1329897
Κα@@ 1329817
မေး@@ 1329808
nekoliko 1329799
၇ 1329796
új@@ 1329780
ευρωπαϊκ@@ 1329774
ях 1329643
Con 1329642
میرے 1329578
chc@@ 1329456
士 1329436
dire 1329011
เมือง 1328951
üü@@ 1328901
santé 1328806
шения 1328358
pessoas 1328336
været 1328325
평@@ 1328126
જિ@@ 1328071
casa 1328070
ၿဖစ 1328055
Wal@@ 1328044
αυ@@ 1327860
oltre 1327798
desp@@ 1327760
ડી@@ 1327672
دەچ@@ 1327599
dido 1327514
iksi 1327404
klimat@@ 1327311
款 1327235
november 1327004
λόγ@@ 1326949
DA 1326908
rii 1326556
naz@@ 1326531
بعة 1326445
까지 1326359
ગે 1326289
ช 1326259
mirë 1326225
стар@@ 1326220
unionin 1326130
જણાવ 1326118
who 1325966
real@@ 1325927
Α 1325798
லா@@ 1325569
OM@@ 1325536
għandu 1325285
клу@@ 1325266
ident@@ 1325214
Ту@@ 1324941
કો 1324902
Net@@ 1324832
နဲ႕ 1324539
kaan 1324340
mesta 1324173
neste 1324107
göre 1324085
Euroop@@ 1323945
Cas@@ 1323888
kde 1323879
مرا@@ 1323857
րան@@ 1323845
بوون@@ 1323843
ßen 1323691
thíchLiên 1323688
خص@@ 1323602
toate 1323589
eks@@ 1323537
форма@@ 1323519
nju 1323397
mellan 1323375
kiş@@ 1323295
نییە 1323268
دية 1323048
ая@@ 1323029
page 1322930
עמ@@ 1322809
ကဲ 1322789
Aug@@ 1322625
iment 1322601
mikro@@ 1322247
erini 1322191
feder@@ 1322056
ētu 1321900
skab 1321876
Kr@@ 1321855
idas 1321835
ٹھیک 1321811
рил@@ 1321767
AR 1321740
需要 1321634
posled@@ 1321622
kiel 1321578
kay@@ 1321501
cl@@ 1321467
તેમણે 1321257
във 1321073
чески@@ 1320994
дний 1320848
нын 1320788
вто@@ 1320634
život 1320568
ember 1320317
България 1320290
тып 1320014
ındaki 1319940
нали@@ 1319916
दो 1319838
оби@@ 1319786
דית 1319648
auto 1319566
רבים 1319506
niejsz@@ 1319456
consi@@ 1319334
AC 1319321
စဥ 1319291
ולי 1319200
arba 1319104
日@@ 1319014
Г 1318976
ફા@@ 1318919
رون 1318898
દિવ@@ 1318693
เพื่อ 1318670
financ@@ 1318631
түү@@ 1318630
aval@@ 1318604
रव@@ 1318539
шу 1318403
sprá@@ 1318345
osz@@ 1318171
માંથી 1318117
eres 1318113
Պ@@ 1317995
тты 1317957
아니@@ 1317674
خب 1317623
ход@@ 1317567
แม@@ 1317554
prava 1317330
bizim 1317314
του@@ 1317226
terror@@ 1317172
nok 1317170
dot 1317111
ил@@ 1316972
lum 1316959
зем@@ 1316713
логи@@ 1316632
eftersom 1316413
教@@ 1316357
καθώς 1316350
Membros 1316289
posta@@ 1316226
dete 1315972
စရာ 1315780
ฐ@@ 1315601
ваў 1315487
հայ@@ 1315476
ունեն@@ 1315431
ספר@@ 1315214
М 1315160
SA 1315142
czę@@ 1315140
תיים 1315027
his 1314981
巴@@ 1314750
hadde 1314706
PL 1314627
hier@@ 1314480
هات 1314247
koskev@@ 1314229
hir@@ 1314204
မွာက 1314065
တရား@@ 1314027
III 1313900
סוף 1313892
ολ@@ 1313891
적으로 1313836
kru@@ 1313825
ācija 1313728
zun@@ 1313716
μφ@@ 1313618
kompet@@ 1313617
efter@@ 1313571
ยา 1313490
ол 1313346
ble@@ 1313339
canadi@@ 1313151
debe 1312958
ჟრა@@ 1312936
Hon@@ 1312739
func@@ 1312699
stil@@ 1312592
fund@@ 1312500
години 1312325
အက 1312266
项目 1312228
cla@@ 1311931
оқ@@ 1311854
čna 1311744
जाता 1311682
խն@@ 1311314
रं@@ 1311303
yyət@@ 1311247
íz@@ 1311169
وح@@ 1310907
World 1310760
ือ@@ 1310685
ekt 1310677
拉@@ 1310675
यची 1310651
s. 1310569
کەسێک 1310382
سەری 1310368
kal 1310320
niec@@ 1310179
nop@@ 1310072
MOST 1310048
शब 1310017
dad@@ 1309968
ziņ@@ 1309852
heel 1309747
membres 1309727
更@@ 1309583
खर 1309570
arra 1309559
ակց@@ 1309379
Նա 1309248
īgas 1308882
meni 1308823
ဖို@@ 1308790
mø@@ 1308768
tämän 1308751
пър@@ 1308584
यातील 1308512
koliko 1308505
판@@ 1308480
cái 1308316
obil@@ 1308238
와@@ 1308181
كر 1307925
thu@@ 1307920
element@@ 1307856
bao 1307792
iniai 1307680
прове@@ 1306951
கப 1306790
பற 1306614
اند 1306461
anderen 1306460
egi 1306408
rend@@ 1306319
ällä 1306007
profesion@@ 1305955
bardzo 1305639
utilis@@ 1305613
ञा@@ 1305594
tiin 1305442
narod@@ 1305432
კყ@@ 1305404
йна 1305105
المج@@ 1305064
justi@@ 1304943
टा 1304915
nist@@ 1304722
भारत 1304701
sept@@ 1304362
plen@@ 1304281
obchod@@ 1304244
ガ@@ 1304032
ister 1304025
ίων 1303772
લોકો 1303662
ellä 1303434
մար@@ 1303170
сов 1303100
փորձ@@ 1303091
jar 1302650
employ@@ 1302450
मौ@@ 1302406
только 1302301
意 1302178
આવે 1302126
бұл 1302082
αμε 1302082
所@@ 1301831
သူက 1301792
जू@@ 1301728
خوێن@@ 1301728
منداڵان 1301714
üş@@ 1301443
dw@@ 1301194
President 1300787
seorang 1300559
jā 1300454
样 1300176
ünü 1300148
cké 1300140
ėje 1300110
mērķ@@ 1300039
ေတြက 1300005
झाले 1299960
idu 1299841
dø@@ 1299789
पाहिजे 1299727
уа@@ 1299723
też 1299707
ソ@@ 1299591
september 1299481
总@@ 1299397
કરા@@ 1299370
따@@ 1299279
ancora 1299263
öz 1299262
Ќе 1299122
կա 1299090
keç@@ 1299074
սպ@@ 1299040
Ï@@ 1298948
umiem 1298893
शो@@ 1298784
možemo 1298734
언@@ 1298601
રના 1298579
ċjali 1298518
েয়@@ 1298430
Eu 1298361
wees 1298294
ãäÊÏì 1298267
ဒါပေမယ 1298261
âm 1298111
об 1297928
api 1297864
ञान 1297860
Ez@@ 1297842
کور@@ 1297600
可以 1297529
되어 1297527
erde 1297478
격@@ 1297409
1980 1297383
óri@@ 1297311
nemen 1297301
kiu 1297260
ải 1297095
ություն@@ 1296984
Biz 1296793
ότ@@ 1296655
кай 1296598
дын 1296560
တီ@@ 1296540
ქრჲ 1296199
diffic@@ 1296193
ळा 1295960
хамгийн 1295756
88@@ 1295698
aħna 1295365
तिक 1295327
કુ@@ 1295275
råder 1295260
Это 1295149
גן 1294916
sangat 1294899
πιο 1294891
ရောင 1294759
હ 1294628
вед@@ 1294554
ская 1294527
fru@@ 1294274
favor@@ 1294144
rade 1294110
δύο 1294083
גים 1294059
शु@@ 1293964
президен@@ 1293598
wn 1293381
แต@@ 1293252
shi@@ 1293209
ڕه 1293180
tên 1293042
أو@@ 1292997
лич@@ 1292932
odpo@@ 1292931
dog 1292607
στους 1292578
بون 1292534
FC 1292472
Államok 1292422
פ 1292264
got 1292212
lim 1291834
absol@@ 1291647
klausi@@ 1291620
ющи@@ 1291508
sine 1291304
ရှား@@ 1291263
ওয়@@ 1291204
europej@@ 1290916
օր@@ 1290874
אחת 1290732
יות 1290545
лен 1290377
tylko 1290074
dân 1289911
byl 1289816
항@@ 1289494
mű@@ 1289302
طل@@ 1289071
entu 1288895
خێ@@ 1288792
列 1288752
хам@@ 1288729
նոր@@ 1288720
ukan 1288638
کسی 1288614
ボ@@ 1288544
нер@@ 1288462
Mex@@ 1288361
चांग@@ 1287990
บอก 1287949
sprawie 1287937
▁@@ 1287848
possi@@ 1287778
မီ@@ 1287743
அத@@ 1287724
गए 1287712
klar 1287549
้อ@@ 1287527
μπορ@@ 1287472
нах 1287431
長 1287374
bang 1287293
strani 1287098
izgl@@ 1286986
kten 1286937
telef@@ 1286936
कार@@ 1286881
Log@@ 1286840
yty@@ 1286755
68@@ 1286652
its@@ 1286583
nende 1286390
รี 1286359
9,@@ 1286356
بای@@ 1286306
ראש@@ 1286188
band 1286061
विष@@ 1286057
ค.ศ. 1286005
mener 1286005
ေနရာ@@ 1286004
ဖြေ@@ 1285996
ေရာက 1285987
мест@@ 1285972
refor@@ 1285967
بم 1285889
тап@@ 1285882
ować 1285800
houden 1285717
ря 1285646
دخ@@ 1285635
nome 1285606
ader 1285566
ody 1285437
חו 1285350
Пра@@ 1285258
larda 1285179
선 1285131
aniu 1284928
szobatípus 1284860
onk14 1284768
üs@@ 1284758
մարդիկ 1284653
તમા@@ 1284548
гээ@@ 1284329
media 1284300
Hy 1284286
kollu 1284144
Van 1283921
Oc@@ 1283921
give 1283671
sécurité 1283575
блі@@ 1283419
eens 1283413
ριο 1283230
מדי@@ 1282999
ages 1282822
ấn 1282666
かっ 1282609
åt 1282554
čak 1282529
ရည 1282498
فل@@ 1282325
काढ@@ 1282293
Không 1282241
테@@ 1281987
ším 1281906
bos 1281890
אף 1281831
ંચ@@ 1281657
žin@@ 1281347
turi@@ 1281228
변@@ 1281089
ၿပီးေတာ 1280761
ရဲ@@ 1280745
هٔ 1280745
ૅ@@ 1280651
արժ@@ 1280575
туралы 1280543
weg 1280473
קול@@ 1280455
ையும 1280443
בכ@@ 1280277
νη@@ 1280251
Kra@@ 1280216
دەگر@@ 1280187
isin 1280082
sht@@ 1280062
কার 1280048
hơn 1280019
ρυ@@ 1280000
Kop@@ 1279971
agi 1279963
diesem 1279961
ंनी 1279763
Deb@@ 1279647
rate 1279586
ovat@@ 1279562
技术 1279334
Пер@@ 1279314
rät@@ 1279301
poate 1279282
העיר 1279276
thứ 1279091
τών 1279045
کم@@ 1278980
сім 1278904
contre 1278856
dese@@ 1278612
skap@@ 1278541
जन@@ 1278450
ég 1278399
Д 1278286
hvordan 1278196
ээ@@ 1278112
tex 1277925
тебе 1277824
هو@@ 1277815
Ô@@ 1277735
PR@@ 1277666
ет@@ 1277456
rul 1277454
humanit@@ 1277436
dek@@ 1277377
nehmen 1277173
bl 1277130
risti@@ 1276953
viņ@@ 1276747
સિં@@ 1276739
със 1276692
좋@@ 1276580
pasaul@@ 1276563
Jul 1276544
бри@@ 1276467
իք 1276448
iau 1276388
тва@@ 1276380
pet 1276299
난 1275948
وڵ@@ 1275885
büyük 1275707
ндар@@ 1275684
团 1275612
ney 1275507
းတွေ 1275491
είας 1275316
conver@@ 1275099
성 1275045
ň 1274992
saat@@ 1274859
ový 1274824
ejo 1274425
стру@@ 1274401
רך 1274306
kok@@ 1274181
যা 1274083
ήσουμε 1274062
törté@@ 1274062
हणा@@ 1274042
možete 1274009
များ 1273750
षित 1273698
各 1273641
bem@@ 1273577
दृष 1273441
पक 1273255
Ż@@ 1273159
mann 1273135
Во@@ 1272916
expl@@ 1272875
ეს 1272753
kohta 1272607
º 1272541
તેના 1272412
ฟ 1272383
մաս@@ 1272360
ँ 1272270
ရေ@@ 1272068
podemos 1272054
રા 1272039
maat@@ 1271852
gs 1271809
esso 1271579
ehen 1271558
ดู 1271470
благо@@ 1271457
კაკგჲ 1271189
олон 1271088
ૃ@@ 1271068
pokaz@@ 1271054
gjorde 1270874
อบ@@ 1270842
ळी 1270831
開@@ 1270780
복@@ 1270768
90@@ 1270768
bav@@ 1270619
Му@@ 1270313
№ 1270191
fos@@ 1270157
külön@@ 1269909
satis@@ 1269856
iten@@ 1269843
година 1269711
r. 1269707
ované 1269621
본@@ 1269554
дъл@@ 1269484
band@@ 1269162
يو 1269136
فر 1269035
odgovor@@ 1269034
коми@@ 1268863
તેની 1268749
uru 1268711
хи 1268627
পর 1268503
ték 1268498
գիտ@@ 1268232
制@@ 1268025
หม@@ 1267820
fication 1267812
ήσ@@ 1267717
tz@@ 1267525
sier 1267446
рах 1267361
ு 1267354
implement@@ 1267213
Amerikai 1267200
197@@ 1266984
kej 1266928
сур@@ 1266830
Ši@@ 1266825
Cel@@ 1266747
ဆွဲ@@ 1266720
уби@@ 1266594
ոյ@@ 1266381
сме@@ 1266241
չէ 1266160
mă@@ 1266140
čka 1265754
нар 1265722
イ 1265697
did 1265332
پس 1265291
otta 1265181
empresas 1265165
ခွင 1264981
အေၾကာင 1264975
tradi@@ 1264856
此 1264748
सत 1264674
यांचा 1264644
રીતે 1264455
ệ 1264245
suur@@ 1264195
ے@@ 1264166
blive 1264105
oba 1263631
wszyst@@ 1263346
мер 1263339
tür@@ 1263222
yon 1263200
området 1263159
切 1263064
jek 1262737
unun 1262733
kvalit@@ 1262727
sko@@ 1262487
volta 1262411
ċer@@ 1262379
тал 1262287
necə 1262261
َ 1262099
span@@ 1262087
պատմ@@ 1262061
너@@ 1262035
nig@@ 1261936
ujú@@ 1261849
æl@@ 1261824
שו 1261730
NATO 1261653
Bl@@ 1261622
roman@@ 1261605
väx@@ 1261604
сп@@ 1261574
право@@ 1261553
ეთ 1261477
ဂဏန 1261468
għat 1261298
Air@@ 1261235
jednot@@ 1260957
new@@ 1260941
több 1260789
ðAwww.almohandes.org 1260749
nico 1260676
хай@@ 1260622
requ@@ 1260601
यन 1260491
sio 1260470
ogħ@@ 1260455
קישורים 1260367
tomu 1260359
pien@@ 1260320
alidade 1260319
ös 1260283
θρω@@ 1260203
ták 1260172
करा 1260103
Sto@@ 1260091
Mah@@ 1260036
kön@@ 1259959
μο 1259923
سیست@@ 1259844
ęp@@ 1259796
بوو@@ 1259735
Nic@@ 1259652
skiej 1259566
probl@@ 1259521
સે 1259400
minister 1259256
ÇáÓÇÚÉ 1259225
jno 1259181
зова@@ 1259176
aman 1259163
מוצ@@ 1259046
আপনি 1259030
3ìû 1259029
화 1258998
Cal@@ 1258802
көрсе@@ 1258590
jät@@ 1258470
рам@@ 1258451
kókópló 1258374
κιν@@ 1258131
တပ 1257977
pun 1257946
ოპა@@ 1257789
labai 1257782
pois 1257516
bem 1257495
inya 1257442
discus@@ 1257404
ادا 1257320
கத 1257185
Wor@@ 1257064
responsabil@@ 1257051
gł@@ 1257043
70@@ 1256960
dont 1256903
vog@@ 1256862
sna@@ 1256802
kningen 1256792
तयार 1256777
บริ@@ 1256614
stå@@ 1256486
compan@@ 1256285
मू@@ 1256200
Awak 1256021
ності 1256002
ժամանակ 1255901
கே@@ 1255693
கம 1255684
điều 1255648
άγ@@ 1255543
دروست@@ 1255527
δημο@@ 1255302
يخ 1255155
benar 1255113
General 1255100
pare 1255076
hij 1255067
Гэхдээ 1254909
데 1254863
ια@@ 1254810
svoj@@ 1254807
להיות 1254747
उस@@ 1254639
із 1254545
годи@@ 1254530
好 1254423
cuando 1254319
مانە 1254308
dawk 1254173
òng 1254098
discrimin@@ 1254021
demokrati@@ 1254005
հան@@ 1253998
vide 1253753
Kri@@ 1253721
wil@@ 1253646
attu@@ 1253616
taget 1253442
לר@@ 1253401
same 1253272
olaraq 1253271
Euro 1253252
lerin 1253176
रज 1253161
activités 1253150
əs@@ 1252993
AG@@ 1252778
मंत 1252765
объ@@ 1252653
можа 1252598
ंट 1252594
პჲ@@ 1252506
iment@@ 1252380
ều 1252339
strukt@@ 1252215
دیا 1252101
ניתן 1252053
лардың 1251933
ču 1251814
doğ@@ 1251772
बनव@@ 1251729
naš 1251631
ąc@@ 1251557
.0@@ 1251547
ске 1251471
वाटते 1251429
ész@@ 1251255
eza 1251010
ထဲ 1250972
ျခ@@ 1250964
лік@@ 1250851
નહીં 1250814
puesto 1250777
chá@@ 1250750
Kosovo 1250685
ڈ 1250676
owy 1250568
Kre@@ 1250506
tiež 1250494
Meg@@ 1250444
Am 1250405
denen 1250210
într 1250126
પો@@ 1250026
ەکەدا 1250024
پەر@@ 1250017
هەندێ 1250013
مرۆڤ@@ 1249985
رم 1249980
Ти 1249978
động 1249854
ձեր 1249735
umus 1249631
veic@@ 1249604
profes@@ 1249155
nové 1249011
وز@@ 1248999
ლებ@@ 1248895
grun@@ 1248857
parlam@@ 1248841
่าง 1248825
สำ@@ 1248788
هی 1248743
кти@@ 1248631
Lan@@ 1248615
чний 1248516
halten 1248501
投@@ 1248424
Pl@@ 1248407
επισ@@ 1248383
хэрэг@@ 1248367
সাথে 1248305
ære 1248150
amine 1248065
ոն 1247906
μένων 1247768
eru 1247656
ls 1247643
importan@@ 1247552
ager 1247494
သမ@@ 1247490
ဒါေၾကာင 1247464
हित 1247262
text 1247201
eringen 1247161
introdu@@ 1247126
pret 1247063
tada 1247057
Chúng 1246978
hver 1246949
Mot@@ 1246776
izve@@ 1246736
संख 1246600
کردن@@ 1246427
간 1246379
oo 1246359
PT 1246245
ÇáÂä 1246108
déc@@ 1246002
ços 1245978
tele 1245823
پڕۆژ@@ 1245694
بابە@@ 1245669
интере@@ 1245630
qua 1245623
তু 1245551
чис@@ 1245536
these 1245285
jeli 1245232
קרי@@ 1245046
Dat@@ 1244948
histori@@ 1244926
mensen 1244804
staan 1244759
etti@@ 1244739
पहले 1244715
hing 1244653
hari 1244645
god 1244499
Fot@@ 1244301
oiden 1244256
cat 1244173
yal@@ 1244125
கவ@@ 1244048
ကျင 1243960
ရှိတဲ 1243949
ôn 1243906
etmək 1243590
ова 1243575
eksper@@ 1243335
gde 1243206
чым 1243115
unui 1243111
lama 1243009
зра@@ 1242845
vain 1242740
Não 1242656
low@@ 1242469
meet@@ 1242464
essen@@ 1242452
比@@ 1242397
иде@@ 1242374
him@@ 1242356
สามารถ 1242164
gran 1242163
ół@@ 1242142
Med 1242124
حال@@ 1241989
bas 1241939
વાત 1241802
ape 1241768
ությամբ 1241549
gres@@ 1241479
फिर 1241449
dement 1241397
چەپڵە 1241368
Ve 1241192
Sek@@ 1241090
ovania 1241033
joh@@ 1241000
vere 1240939
eć 1240485
suiv@@ 1240409
μαι 1240400
kļ@@ 1240370
rais@@ 1240276
уста@@ 1240179
wan 1240075
hacer 1240063
amerikan@@ 1240029
siz@@ 1239991
bank 1239943
توانی 1239941
мж@@ 1239914
டிய@@ 1239772
नच 1239767
смо@@ 1239760
rado 1239740
owej 1239687
Tel@@ 1239541
ած@@ 1239531
يش 1239318
saist@@ 1239242
kara 1239227
Estado 1239195
κυρ@@ 1238990
bilər 1238933
дня 1238796
niin 1238514
nám 1238452
нав@@ 1238367
லி@@ 1238328
कळ@@ 1238321
வு@@ 1238294
अब 1238015
Europeu 1237853
chu 1237852
ihmis@@ 1237648
ал 1237619
aussi 1237454
far 1237440
aro 1237272
ţiei 1237082
ệu 1236966
အချက 1236950
ကျန 1236942
deel 1236920
ნწ@@ 1236880
قي 1236723
בור 1236723
ление 1236714
kj@@ 1236660
סר 1236646
niz@@ 1236626
بھ@@ 1236609
티@@ 1236262
关@@ 1236196
כל@@ 1236175
ljud@@ 1236018
כלל 1235944
compro@@ 1235802
قر@@ 1235757
فى 1235705
tener 1235591
ана@@ 1235418
դեպ@@ 1235384
նաև 1235376
建@@ 1235373
īga 1235333
ciji 1234965
stad@@ 1234953
entar 1234901
jeden 1234855
következ@@ 1234628
bü@@ 1234618
होने 1234318
하지 1234226
mening 1234138
duhet 1233987
sent 1233982
atia 1233904
यचं 1233866
digit@@ 1233711
Ir 1233709
лет 1233609
društ@@ 1233471
protection 1233469
ยุ@@ 1233444
ဆိုတာကို 1233426
seb@@ 1233396
함@@ 1233372
دایک 1233318
信 1233262
acordo 1233226
अपनी 1233106
sust@@ 1232922
อย่าง@@ 1232789
لێرەدا 1232760
twee 1232739
showthread.php 1232628
ού 1232613
置 1232476
שכ@@ 1232403
וה@@ 1232341
反@@ 1232303
amen 1232168
poste 1232109
่ว@@ 1232076
dər@@ 1232005
lit 1231954
защи@@ 1231878
būtu 1231759
idő@@ 1231718
法律 1231711
टे 1231708
درو@@ 1231555
անք 1231520
agħ@@ 1231503
gior@@ 1231440
използ@@ 1231318
konkre@@ 1231298
मक 1231288
сябе 1231167
año 1231160
תים 1231012
larla 1231010
提@@ 1231003
proš@@ 1230955
ngh@@ 1230934
ecer 1230907
북@@ 1230736
αντ@@ 1230532
ick@@ 1230429
دع@@ 1230319
skich 1230222
rent 1230216
ней 1230164
forslag 1230064
လာခဲ 1229934
ху 1229827
сөн 1229706
kullan@@ 1229701
бира@@ 1229680
提出 1229658
krimin@@ 1229628
ảng 1229612
Προ@@ 1229535
す@@ 1229275
štev@@ 1229111
EL 1229105
нај@@ 1229002
ück@@ 1228785
хийг 1228760
вр@@ 1228742
pô@@ 1228522
ึ@@ 1228382
ĉi@@ 1228369
profession@@ 1228290
еш 1228242
้อง 1228226
іп 1228045
우 1227905
umas 1227895
кога 1227893
bon 1227801
szak@@ 1227456
ņē@@ 1227451
стви@@ 1227408
zone 1227354
เกิด 1227316
کاری@@ 1227285
ավար@@ 1227216
պահ@@ 1227179
banyak 1227105
Nam 1227044
根据 1226854
psi@@ 1226737
ight 1226619
håll@@ 1226505
Tim@@ 1226425
سا 1226339
شتن 1226195
hecho 1226157
้าย 1226153
epä@@ 1226022
Ĉ@@ 1225473
сце@@ 1225460
logħba 1225427
ўні@@ 1225424
儿童 1225387
جة 1225386
زانم 1225278
будзе 1225276
级 1225265
bě@@ 1225129
қы 1225093
git@@ 1224931
הוצ@@ 1224929
até 1224837
sigu@@ 1224822
danış@@ 1224816
ếu 1224734
থেকে 1224616
szálloda 1224587
vilket 1224546
ональ@@ 1224545
starp 1224514
Mir@@ 1224514
artikel 1224339
tagħ@@ 1224291
કી@@ 1224286
ogo 1224270
منداڵ 1224155
Θα 1223978
维@@ 1223738
Շ@@ 1223649
Nä@@ 1223331
csillagos 1223309
基@@ 1223247
danas 1223114
itve 1223012
δικα@@ 1223005
Kami 1222953
권@@ 1222883
ृत 1222841
koj 1222841
moj 1222824
ויות 1222723
prit@@ 1222644
edə 1222589
ماندا 1222436
סטי@@ 1222395
ส์ 1222388
idos 1222380
ските 1222309
detal@@ 1222147
здра@@ 1222116
мпи@@ 1222102
stø@@ 1222097
yay@@ 1222090
offent@@ 1222046
konfli@@ 1221812
nymi 1221714
김@@ 1221653
يت@@ 1221627
чело@@ 1221511
tapi 1221230
եմ@@ 1221227
ков@@ 1221196
ခုပ 1221185
svi 1220769
mok@@ 1220705
立@@ 1220204
μό@@ 1220198
asan 1220190
know 1220159
已 1220079
sino 1220048
کەو@@ 1219833
ماڵ@@ 1219832
кли@@ 1219714
autom@@ 1219610
рыя 1219570
Sof@@ 1219532
چونکه 1219527
နဲ႕@@ 1219415
only 1219310
eja 1219248
Ha@@ 1219232
ոտ@@ 1219124
prvi 1219005
hus@@ 1219002
այդ@@ 1218967
CD 1218964
svoju 1218889
depen@@ 1218734
مام@@ 1218732
weer 1218673
comp@@ 1218247
더 1218187
ól@@ 1218165
inə 1217919
100@@ 1217740
ပေ@@ 1217683
တွေး@@ 1217676
mij@@ 1217641
ან@@ 1217601
imamo 1217374
लेला 1217371
جن@@ 1217368
nung 1217241
ایان 1217062
zara 1217022
unei 1216893
jednak 1216805
kommen 1216766
чка 1216692
किती 1216661
είχ@@ 1216579
சா@@ 1216528
.000 1216500
2010@@ 1216410
questão 1216386
США 1216130
بده 1216023
és@@ 1215924
iets 1215888
treb@@ 1215852
tehnolog@@ 1215781
ular 1215727
참@@ 1215586
قە@@ 1215544
سەیری 1215541
Κύριε 1215467
ajiem 1215350
analiz@@ 1215190
٠@@ 1215086
vac@@ 1215059
மா 1214975
ð@@ 1214792
ían 1214749
قائ@@ 1214388
ĉu 1214362
दे 1214358
шин@@ 1214347
ئي@@ 1214305
น์ 1214298
قس@@ 1214245
ници 1214219
propos@@ 1214202
ဒါေပမယ 1214176
ဆေး@@ 1214162
Тэр 1214069
йш@@ 1214053
fotografi@@ 1213945
דרה 1213720
anta 1213662
offici@@ 1213631
الة 1213573
otvor@@ 1213533
ગુ@@ 1213512
அல 1213490
تون 1213465
vertaj 1213429
рой 1213399
mennes@@ 1213378
চি@@ 1213300
când 1213137
wich@@ 1212858
дөр 1212421
pă@@ 1212414
阿@@ 1212184
dacă 1212096
ése 1212067
dago 1212060
ès 1212042
सुरक 1211992
mert 1211991
τύ@@ 1211764
במי@@ 1211681
პთ 1211627
Як 1211626
signific@@ 1211313
ատ 1211025
europæiske 1210845
стина 1210804
նախ@@ 1210791
فکر 1210787
ဂါ@@ 1210689
ברית 1210678
Mereka 1210637
எப 1210575
trabalho 1210573
जाण@@ 1210490
nước 1210450
ryh@@ 1210416
支持 1210379
større 1210252
elektri@@ 1210240
тка 1210093
scri@@ 1210055
David 1210011
sentido 1209741
sens 1209740
ени 1209624
буду@@ 1209609
füg@@ 1209464
000@@ 1209462
规定 1209369
mati 1209331
บั@@ 1209282
manifest@@ 1209277
oru 1209177
question 1209151
anl@@ 1209135
biri 1209039
óg@@ 1208917
̀ 1208863
facto 1208698
բաց@@ 1208697
étu@@ 1208675
gie 1208635
indən 1208588
باس 1208506
Europeo 1208506
rè@@ 1208504
жен 1208304
Out@@ 1208255
Beg@@ 1208149
مانه 1208103
ชื่อ 1207991
etu 1207707
declarat 1207359
ကြာ@@ 1207158
wł@@ 1207019
살@@ 1207013
շ 1206911
osk@@ 1206874
två 1206870
գ 1206770
använ@@ 1206754
prec@@ 1206681
ரா@@ 1206596
thời 1206390
કારણે 1206367
model 1206364
avo@@ 1206344
rek 1206266
conse@@ 1206259
пред 1206078
fit 1206055
Hrvat@@ 1206041
kaj@@ 1206038
bili@@ 1206020
פרו@@ 1205983
atri@@ 1205841
ĝis 1205829
τον@@ 1205820
ели 1205743
dl@@ 1205722
gab@@ 1205692
ųjų 1205521
투@@ 1205441
وای 1205395
ujú 1205394
Е 1205376
gle@@ 1205101
telev@@ 1205088
thíchTham 1205059
state 1204926
svojim 1204629
մեծ 1204593
teur 1204473
cadre 1204375
表@@ 1204371
stik@@ 1204327
lok 1204240
razum@@ 1204217
开@@ 1204062
poš@@ 1203961
种 1203921
Hy@@ 1203868
रह@@ 1203767
သတင 1203659
yas@@ 1203604
samman@@ 1203407
เต@@ 1203355
tores 1203328
ماش@@ 1203308
המח@@ 1203232
програ@@ 1203116
temos 1203081
uved@@ 1203068
Fu@@ 1202993
pernah 1202989
dım 1202972
BC 1202929
ÇáãåäÏÓ 1202894
գն@@ 1202564
sodel@@ 1202258
nor 1202254
пас@@ 1201888
டன 1201858
وقد 1201809
कों 1201758
외@@ 1201529
فو@@ 1201486
Bud@@ 1201459
والم@@ 1201330
qq@@ 1201308
obč@@ 1201299
mô 1201114
гаар 1201068
ämme 1200883
۱ 1200813
pali@@ 1200628
ში 1200567
cambi@@ 1200535
այում 1200500
reprezent@@ 1200491
तत 1200479
ocu@@ 1200479
०@@ 1200436
yo@@ 1200298
лды 1200268
recht@@ 1200243
그리고 1200185
ေပၚ@@ 1200159
elev@@ 1200136
бала@@ 1200101
druge 1200035
หนึ่ง 1199943
pě@@ 1199875
ңы@@ 1199626
ต่อ@@ 1199531
ঠিক 1199526
pent@@ 1199507
direkti@@ 1199484
Nag@@ 1199383
gere 1199281
fte 1199157
now 1199112
exter@@ 1199102
השת@@ 1199098
बात 1198974
उसके 1198954
ठेव@@ 1198861
poseb@@ 1198861
práva 1198801
lighet 1198719
ун 1198556
λέ@@ 1198428
ટો@@ 1198339
تەنانەت 1198276
buat 1198233
Dol@@ 1198159
corso 1198028
তা 1197981
้น 1197841
této 1197814
לפי 1197799
vairāk 1197745
身 1197730
માન 1197716
όμεν@@ 1197650
influ@@ 1197605
sider@@ 1197582
δυνατ@@ 1197557
למו@@ 1197485
τηση 1197320
Kö@@ 1197280
80@@ 1197222
tos@@ 1197150
bör 1197052
أر@@ 1196981
lad 1196877
pí@@ 1196793
κοιν@@ 1196749
လိုအပ 1196641
הקו@@ 1196282
нете 1195969
μό 1195911
ўва@@ 1195910
انية 1195852
山 1195743
peti@@ 1195696
опи@@ 1195496
पाहि@@ 1195433
활@@ 1195339
મી 1194995
ță 1194927
spri@@ 1194846
كن@@ 1194770
іне 1194611
бек 1194169
رێ@@ 1194037
.S@@ 1193979
ڕێژ@@ 1193961
型 1193859
完@@ 1193746
urg@@ 1193674
skej 1193631
осы 1193614
Dhe 1193474
リー@@ 1193427
Premi@@ 1193414
drit@@ 1193349
ваш 1193255
இன 1193208
ထိ@@ 1193147
toet@@ 1193134
cul 1192824
Kas@@ 1192690
डो@@ 1192511
ças 1192391
nacion@@ 1192326
族 1192325
հի@@ 1192316
unie 1192309
kok 1192251
IR@@ 1192196
লি@@ 1192142
때 1192033
сро@@ 1191975
повече 1191928
arch@@ 1191877
hör@@ 1191830
مدا 1191800
едно 1191719
komun@@ 1191545
[...]
