#version: 0.2
e n
e r
a n
i n
s t
a r
e n</w>
a l
a t
o n
o r
e l
r e
i t
e r</w>
d e</w>
r o
i s
d e
i l
@ -
@- @</w>
r a
o l
u n
t i
a n</w>
e t
a m
d i
o m
s i
e m
r i
e s</w>
a s</w>
e t</w>
p o
e s
c h
l i
a d
en t
c i
o n</w>
a r</w>
a k
i n</w>
a s
n i
o s</w>
e g
v i
u r
e d
l a</w>
j e</w>
q u
р а
ا ل
с т
o v
u t
a t</w>
e k
s k
ا ن
e st
d a</w>
p ro
a l</w>
u l
s e</w>
i m
i k
o m</w>
a v
o t
ိ ု
a g
c h</w>
j a</w>
u m
o r</w>
n a</w>
a p
o d
н а</w>
н а
a b
2 0
t e</w>
l e</w>
b i
н и
t h
a c
r e</w>
at i
o s
ا ن</w>
t o</w>
e m</w>
i s</w>
а л
р о
e l</w>
u s
t er
o b
ە و
a j
o g
ိ ု</w>
e c
z i
u n</w>
s p
р е
к о
i st
o p
ո ւ
ا ر
n e</w>
qu e</w>
e d</w>
l a
p r
p ar
t a</w>
ە ک
e v
d en</w>
в а
f or
p re
m i
u s</w>
п о
m a
d o</w>
c on
д а
н о
v er
in g</w>
k a
t r
i c
d a
т а
i z
k o
n a
in g
t a
d i</w>
י ם</w>
. .
е н
t e
l e
i e</w>
s u
n o
к а
n e
d u
s e
en t</w>
i r
य ा
е р
т о
r u
p er
i a</w>
د ە
s z
m o
л а
l i</w>
v o
s a
ာ း
r a</w>
i g
d er</w>
n o</w>
य ा</w>
т о</w>
1 9
м а
.. .</w>
س ت
р и
t i</w>
i l</w>
з а
p l
ro p
u d
ا و
20 1
ו ת</w>
т а</w>
ေ ာ
е л
t o
б а
m e</w>
s a</w>
τ η
t u
p ri
k a</w>
an d
o g</w>
i r</w>
m in
д а</w>
z a</w>
m e
c om
о л
ا ی
a u
ب ە
တ ယ</w>
н е</w>
d el
d o
k e</w>
c e</w>
n g</w>
ە ی
s o
de s</w>
ա ն
v e
κ α
ar e</w>
b e
π ο
ÿ ÿ
g i
ئ ە
m a</w>
20 0
i t</w>
τ ο
в и
de t</w>
l u
н е
a m</w>
i j
r an
s i</w>
m en
в о
v e</w>
ک ە</w>
က ို</w>
k on
p or
th e</w>
d er
д о
п а
p a
el l
v a
д е
n y
တ ွ
м е
u r</w>
क ा
p i
ل ە</w>
e b
л е
ι κ
v al
ա ր
с а
м о
ا ت
u rop
k i
г а
l o
an d</w>
a z
ent e</w>
ပ ါ
т е</w>
p ol
j e
ە ی</w>
г о</w>
k t
မ ှ
an g
ပ ြ
т и
k om
k u
n i</w>
v an</w>
di e</w>
ã o</w>
0 0</w>
ေ ာ</w>
b er
ad a</w>
ەو ە</w>
l '</w>
ک ر
н ы
h o
ب و
in e</w>
a k</w>
د ا</w>
ե ր
л и
ک ه</w>
a i</w>
é s</w>
d u</w>
an g</w>
al i</w>
ch e</w>
b u
h e
s om</w>
ေ တ
ه ە
p u
t ra
m is
er e</w>
e k</w>
on e</w>
д и
j u
મ ા
al e</w>
k i</w>
i d
h et</w>
σ τ
н о</w>
က ြ
e f
n g
c a</w>
ö r
в е
v i</w>
व ा
ст а
ल ा</w>
o f</w>
ا ت</w>
т е
l es</w>
a st
k l
в а</w>
د ه</w>
h a</w>
v a</w>
ह ी</w>
म ा
e x
ա յ
m an
ρ ο
o u</w>
j i</w>
ati on</w>
ێ ت</w>
m u
г о
j u</w>
က ျ
k e
к а</w>
ک ی</w>
b a
b il
s l
a f
m i</w>
с о
t er</w>
s it
ह े</w>
f or</w>
j i
တ ော</w>
р ы
ို င</w>
б о
f in
п ро
li g
a u</w>
ی ن</w>
م ن</w>
ä r</w>
á l
k u</w>
y a</w>
h i
p ra
ó n</w>
г э
t en
k an</w>
v ar
ا م
ու մ</w>
တ ဲ</w>
و ه</w>
s am
d en
ب ا
w i
р у
ب ه</w>
د و
ν α</w>
g ħ
o st
an t
m er
g ra
m ed</w>
ı n
u m</w>
m il
l am
ц и
ဒ ီ
र ा
τ α
ו ר
r at
em b
es t</w>
E urop
st e</w>
स ा
ل ە
k o</w>
v en
з а</w>
f i
l ar
ב י
ر و
ت و
e a</w>
ч а
s er
g e
ی ں</w>
b l
on s</w>
o ch</w>
н и</w>
ו ל
ော င</w>
त े</w>
un d</w>
in a</w>
s u</w>
on i</w>
c u
d an
de l</w>
ن د
с и
क े</w>
л о
c i</w>
ب ۆ</w>
in ter
ဒ ါ
at t</w>
c z
s en
d an</w>
s o</w>
ေ း
κα ι</w>
ο υ
ု ံ
I n
ו נ
ر ا
ה מ
g en
н і
p å</w>
P ar
a h
ن ا
at e</w>
ွ န</w>
ە ر
ان ی</w>
ي ة</w>
م و
v ä
k ol
ش ت
پ ێ
e j
t el
न े</w>
х а
t en</w>
u st
ل ه</w>
ni e</w>
ה י
d is
at i</w>
v is
м и
क र
t re
al l
s t</w>
ש ל</w>
s ch
j o
m o</w>
ا م</w>
ε ρ
a d</w>
ီ း
ж а
т ы
in i</w>
u p
လ ို
တ ာ
б и
ی ن
c o
с я</w>
h o</w>
တွ ေ
ti l</w>
ι α</w>
it i
v ol
α ν
p e
r en
с к
o d</w>
po d
u l</w>
a f</w>
a ci
ω ν</w>
ī b
आ ण
a v</w>
u k
t ä
t an
e i</w>
с е
e z
ak o</w>
ent o</w>
t y
ч и
τη ν</w>
t u</w>
s on
for m
в і
п е
g e</w>
ε ί
un a</w>
ન ે</w>
म े
i m</w>
ч е
व ि
п ра
C om
क ी</w>
ال م
i o</w>
m ar
ب ە</w>
ε ι</w>
आण ि</w>
o k
il l
ל י
ပ ါ</w>
u t</w>
с е</w>
ی ان</w>
л ь
ह ो
e en</w>
a z</w>
ف ي</w>
တ စ</w>
t ar
s en</w>
a an</w>
л і
ရ ှ
b li
at a</w>
w a
f er
ئ ه</w>
de s
ц ь</w>
п ре
al i
r it
h ar</w>
t ur
т у
m et
о б
h t
ר י
v o</w>
х о
t é
r u</w>
ێ ن
س ت</w>
न ा
1 0</w>
ε ι
ÿÿ ÿÿ
g a</w>
ո ր
ž e</w>
h u
ա կ
ad o</w>
ه ا</w>
ба й
a ut
or g
o k</w>
s y
A n
st i</w>
f ö
it e</w>
l l
T h
st a</w>
re g
ר ו
ု ပ</w>
a i
k an
و ە</w>
ێ ک</w>
s ol
t ro
ک ە
j ed
ကျ ွန</w>
e p
n u
મા ં</w>
μ ε</w>
т и</w>
و ا
б ол
a y
un g</w>
ئ ەو
el e</w>
bi r</w>
आ हे</w>
о р
त ा
e h
ı n</w>
त ा</w>
א ת</w>
z e</w>
σ η</w>
م ان</w>
r i</w>
נ י
j a
os t</w>
τη ς</w>
o w
z a
t or
ה ו
C h
par a</w>
က ို
တ ို</w>
or d
ဆ ို
ئ ێ
မ ယ</w>
б у
л и</w>
ခ ျ
ա ն</w>
а р
j en
t em
ော က</w>
p er</w>
é r
d '</w>
p o</w>
ပါ တယ</w>
un g
i k</w>
i d</w>
μ α
p en
स े</w>
δ ι
il e</w>
த ு</w>
ુ ં</w>
ե ն
ti on</w>
j o</w>
b a</w>
l an
al a</w>
א ו
it i</w>
વ ા
est e</w>
r o</w>
s v
м и</w>
ی ه</w>
t il
न ा</w>
ल े</w>
ж и
ज ा
ж е
છ ે</w>
s el
in i
z n
ä n
a h</w>
d ar
l os</w>
d at</w>
r el
к і
ဖ ြ
an a</w>
o c
د ا
प ा
t al</w>
с у
et t
i v
п ри
ह ा
b y
g l
it a</w>
h an
д э
at o</w>
em ent</w>
т ь</w>
il i</w>
н ы</w>
á s</w>
n u</w>
w w
p h
um a</w>
m ə
ن ی
س ا
2 0</w>
ש י
f ic
т ел
k ar
e j</w>
к и</w>
τ ο</w>
r é
b o
c o</w>
re s</w>
t al
کر د
မ ွ
ç ão</w>
n í</w>
ä r
m on
м і
po r</w>
b et
19 9
ન ી</w>
मे ं</w>
an t</w>
ل ا
in d
ن ی</w>
re s
д ы</w>
д у
ra z
ન ા</w>
b e</w>
ဟ ာ</w>
v el
خ ۆ
v y
त ु
н я</w>
ल ा
त ो</w>
u z
क ा</w>
х э
α π
သ ူ
б е
ш и
о т</w>
д е</w>
b en</w>
ו ן</w>
မ ျ
ေတ ာ</w>
m en</w>
k or
ի ն
د ەک
k ö
м а</w>
с ы
ü n
n ing
ک ار
ू न</w>
ێ کی</w>
и з
î n</w>
n ov
ε ς</w>
န ဲ</w>
ati on
လ ာ
ပ ေ
م ا
t am
г и
อ ง</w>
l o</w>
t ak
d as</w>
pr z
s er</w>
မှ ာ</w>
ەی ە</w>
ு ம</w>
त ी</w>
A l
к и
ز ۆ
u j
d é
z j
α ρ
r á
u g
א י
ի ն</w>
т э
д з
τ ικ
p on
ра з
қ а
လ ို</w>
ci a</w>
is i
מ י
mis si
б ы
т і
n ing</w>
ա մ
ý ch</w>
خ و
u ro
t s</w>
ب ی
b u</w>
b i</w>
το υ</w>
er i
מ ו
ह ै</w>
б і
re c
e in
po s
ε π
p an
b y</w>
eg a</w>
ü l
p ar</w>
eg o</w>
å r</w>
в ы
er a</w>
ու թ
ت ر
н ь</w>
ν α
ي ن</w>
گ ە
ရ င</w>
ရ ာ
с ь
c on</w>
ғ а
τ α</w>
ท ี
ν ο
ar a</w>
न ि
d al
K om
σ υ
U ni
b el
v ar</w>
ί α</w>
P re
м ен
r is
1 8
й н</w>
k el
م ە</w>
zi one</w>
l ə
و ر
p as
ע ל</w>
o p</w>
अ स
k h
w e
j el
ութ յ
ခ ဲ</w>
ع ل
ئە و</w>
д ы
M ar
en d
b es
s å</w>
m at
j n</w>
д і
н у
р а</w>
м у</w>
P ro
C on
un i
or a</w>
p ř
ե լ</w>
t ë</w>
μ έ
in t
ä n</w>
al l</w>
в о</w>
ہ ے</w>
m eg
ни я</w>
ا ر</w>
त ी
u i</w>
t ag
с і
ە ن
pro c
w a</w>
v il
p un
к е
fö r</w>
es s
am a</w>
ो ं</w>
ण ा
l eg
л у
st a
p a</w>
ခ ု
လ ုပ</w>
pol it
گ ر
1 2</w>
A r
g el
ал а
f f
est a</w>
m an</w>
ા ર
к у
و ن
ש נ
g u
म ी</w>
ti v
s h
ั น</w>
is t</w>
c ol
p e</w>
z i</w>
ու ն
m ed
en e</w>
1 0
si d
ု တ</w>
ی ەک
ल ी</w>
ီ း</w>
ա տ
ни й</w>
c er
z u</w>
am o</w>
k r
र ि
n é</w>
к о</w>
g er
h a
il i
л ы
w er
s s
η ς</w>
it u
و ن</w>
π ρο
ա ս
m u</w>
ا ی</w>
ב מ
о т
m al
b ol
க ள</w>
π ρ
ch t</w>
l as</w>
a o</w>
या ं
ه ه</w>
t á
ס י
ב ו
م یں</w>
en s</w>
л а</w>
pro bl
ү ү
ն եր
ک ۆ
τ ων</w>
m er</w>
w y
un e</w>
န ေ
in st
or i
g o
ုံ း
n h</w>
بو و</w>
स ं
व र</w>
et t</w>
ш то</w>
di n</w>
k er
a j</w>
г а</w>
b ar
п и
r on
e urop
3 0</w>
μ ε
s ek
ни е</w>
л я
po st
र ी</w>
ст о
ن ه</w>
t ri
ş i</w>
ب ێت</w>
ျ ပ
ز ی
ရ ဲ</w>
en er
р э
ब ा
ક ર
ד י
ι σ
р і
ب ر
α ς</w>
च ी</w>
च ा
n em
tr an
n on</w>
γ ια</w>
ר א
fin an
נ ו
λ ο
c u</w>
к у</w>
πο υ</w>
y ang</w>
re d
Par lam
r å
k am
t in
en a</w>
ဖြ စ</w>
m å
so ci
f ör
ст и
s an
क ि
ä t
1 5</w>
n h
o č
ώ ν</w>
ێ ر
च ा</w>
n j
n í
5 0</w>
ို း
k un
si g
si st
k al
z á
ה ת
आ प
k y</w>
ո ր</w>
pro gra
ا ست
s é
l et
н і</w>
š an
de t
v or
া র</w>
n é
ت ا
s in
ov an
m ent</w>
i z</w>
st at
ק ו
p li
ח י
m or
k ur
c om</w>
ال أ
S t
it o</w>
ž i
ก า
i h</w>
o j
ш а
м е</w>
μ ο
k é
ü r
ik a</w>
г ра
1 1</w>
m et</w>
c or
pro du
d z
ह ा</w>
ə n</w>
k ul
ए क</w>
н я
ar i</w>
ာ င</w>
v er</w>
k at
ե ս</w>
х и
L i
g y
פ י
ၾ က
k en</w>
k ra
ā s</w>
ı l
ရ ွ
pre s
n er
ό τ
d r
v in
भ ा
D et</w>
L a</w>
d ra
par ti
et e</w>
ہ یں</w>
0 00</w>
زۆ ر</w>
ε υ
ik ke</w>
s á
u d</w>
. .</w>
θ ε
م ە
m as
ா ன</w>
c el
з на
ရှ ိ
g i</w>
e z</w>
b an
m é
ב ר
i h
n á
တွ ေ</w>
es e</w>
с ъ
ci on
g r
म ु
v á
il a</w>
sk e</w>
د ی
w or
org an
h av
س ە
e di
de m</w>
ह ि
ز ان
n en</w>
er i</w>
ن ە
ה א
م ه</w>
с а</w>
ե ն</w>
ל ו
st an
d os</w>
m it
م ي
h el
ที ่</w>
č i
ल ि
क े
ե ր</w>
д і</w>
m y
im a</w>
હ ત
г і
ή ς</w>
s em
de c
ro z
त र</w>
م ان
ர ு
l y
ent i</w>
j ek
ա վ
р и</w>
ad os</w>
D e</w>
d ru
ô ng</w>
ā r
ó w</w>
ल े
আ ম
c es</w>
w e</w>
σ ε</w>
m y</w>
ע י
s eg
h u</w>
o t</w>
v an
ت ی</w>
m es
τ ι
š t
ц і
un d
औ र</w>
م ا</w>
к і</w>
en i
द े
sk a</w>
k t</w>
p al
بە ر
g ar
n aj
ı r
ø r
ေတ ြ
l à</w>
т ы</w>
н э
န ှ
क ो</w>
ک ات
201 6</w>
ک ے</w>
n or
c ent
sa m</w>
r y
i e
तु म</w>
ח ו
п о</w>
en de</w>
ə r
เ ป
ov er
ی ت</w>
et a</w>
й г</w>
m od
л я</w>
h ar
p re</w>
ch en</w>
h al
o v</w>
г у
di g
V er
ە ک</w>
п і
n y</w>
έ ς</w>
ိ န</w>
E uro
ш е
ק י
ေ န
re sp
त ि
ե լ
o z
m el
च े</w>
и н
ist a</w>
α υ
re t
o h
ခ ြ
م ر
s ă</w>
ing en</w>
են ք</w>
m un
no sti</w>
am i</w>
t re</w>
м ы
l ar</w>
द ि
แ ล
š e</w>
ت ه</w>
r z
d y
л ю
க ி
h er
ا س
ο ρ
j an
f u
د ي
d om
š to</w>
ર ા
d at
န ိုင</w>
گ ه</w>
ul t
is e</w>
з и
on om
ဘ ူ
λ λ
l as
vo or</w>
ê n</w>
m á
a w
p om
on g</w>
m l
ci ón</w>
c are</w>
1 4</w>
c k
p el
h e</w>
min ist
ent s</w>
j as</w>
но го</w>
س ەر
ာ း</w>
τ η</w>
h an</w>
ه ێن
c ar
த ி
í a</w>
k um
س ی
ဘ ာ
ત ે
j um
c e
s ob
ö n
v ə</w>
ц а</w>
о с
ပ ဲ</w>
st i
R e
at ur
ب ار
ro s</w>
प र</w>
ט י
t ek
je g</w>
ak an</w>
تو ان
0 0
ъ р
ร ะ
ال ت
ה ש
h er</w>
מ ש
o f
m og
ż e</w>
b en
v r
c a
τα ι</w>
ت ا</w>
l á
ی ا</w>
ed er
d ol
an o</w>
ny a</w>
av a</w>
म ि
ė s</w>
est i
л о</w>
ti g
h et
d ob
f ü
အ ဲ
e g</w>
am ente</w>
b an</w>
ی ە</w>
ա ց
p at
א ח
မ ြ
ol og
j et
э р</w>
ەک ان</w>
di t</w>
س و
zj oni</w>
o u
d ə</w>
ag e</w>
ל ה</w>
ו ב
ov er</w>
m em
م ی
k ri
н э</w>
လို က</w>
s al
થ ી</w>
ны ң</w>
1 2
v at
α σ
y t
s on</w>
st ru
al s</w>
د ر</w>
n ation
c re
ا ڵ
د ر
e w
c ă</w>
D i
द ा
ျ ဖ
с ка
տ ե
ati ons</w>
p ut
ar i
п у
n et</w>
m as</w>
ал ь
a in
ن ا</w>
is s
с ко
מ ה</w>
u e</w>
di a</w>
ڕ ێ
est o</w>
v æ
ئ ەوە</w>
al iz
ÿÿÿÿ ÿÿÿÿ
ו ת
т ер
ε ν
f on
و ی
ံ ု
aci ón</w>
î n
l en
b al
g er</w>
pre d
n ot
o j</w>
ρ ι
ڕ ۆ
ц і</w>
צ י
ш ы
f il
ü n</w>
n os
k as</w>
к ра
ж е</w>
er s</w>
ان ە</w>
ာ က</w>
ו י
st ri
פ ר
ج ی
ڵ ام</w>
c ul
d on
л э
ra s</w>
par t
sp or
д о</w>
po ur</w>
sk i</w>
si a</w>
απ ό</w>
1 8</w>
ह े
im por
g od
с т</w>
em a</w>
īb as</w>
с э
g o</w>
- -</w>
ć e</w>
an i</w>
ह ी
в ер
vi s</w>
ar t
в и</w>
n ap
να ι</w>
p ent
E U</w>
о н
dan s</w>
au x</w>
א נ
Th e</w>
ب ک
г е
u v
s vo
เป ็
ic a</w>
on a</w>
M a
ن ے</w>
n ad
1 6</w>
f ac
ה ע
v ý
ن و
ni h</w>
ال ع
ı ğ
ω ς</w>
f l
s om
ა რ
ار ی</w>
in v
2 5</w>
s ec
ג י
t as</w>
ક ે</w>
n ek
pr in
δ ε
it é</w>
s ar
in form
ပြ ီး</w>
d zi
m ag
ग ा
่ า</w>
g en</w>
v on</w>
g al
f a
ف ر
ου ν</w>
س ه</w>
l is
n is
κ ο
ئە م</w>
k il
ั บ</w>
श ा
ب ۆ
ч е</w>
ci e</w>
ո ւ</w>
в я
i de
ب ي
و ل
f ra
th at</w>
ka d</w>
k k
E st
u je</w>
it u</w>
ett ä</w>
h og
ch i
r in
எ ன</w>
m ak
το υ
ա ռ
en i</w>
न ी</w>
an do</w>
સ ા
vi l</w>
લ ા
s n
ا ز</w>
t od
l em
on en</w>
ab il
si ę</w>
ta k</w>
e i
1 3</w>
м у
s at
n am
ma i</w>
ိ တ</w>
θ α</w>
me di
Europ e
p la
19 8
a ş
ပေ ါ</w>
j en</w>
ता त</w>
e si
el le</w>
1 .
su r</w>
ان ه</w>
d ü
g ru
da d</w>
á n</w>
l in
f un
g ö
ल ो
l og
com o</w>
ય ા
ر ی</w>
र ो
တ ာ</w>
e š
ότ ι</w>
ur e</w>
Europ a</w>
D en</w>
ст ра
V i</w>
ி ய
เ ร
z t
д и</w>
al le</w>
b or
λ ι
ın da</w>
õ es</w>
क ि</w>
ဖ ို</w>
و ت
π α
क र</w>
ე ა</w>
ת ו
қ ы
ל א</w>
ื ่
1 7
ə r</w>
αυ τ
μ α</w>
ме н</w>
စ ား
ထ ား
t om
ρ α
הו א</w>
e de</w>
र ी
Н а
εί ναι</w>
ā m</w>
mi t</w>
ب ین
til l</w>
ч ы
u z</w>
ur s</w>
j ä
v ē
p et
i i</w>
a is</w>
k re
pent ru</w>
ı ş
f el
a ção</w>
na k</w>
ск и
re z
w o
ak t
b eg
m ü
del la</w>
i et</w>
l ov
г ү
م ن
g j
n es
သ ိ
з о
ش ێ
ц е</w>
ت ر</w>
અ ને</w>
ક ા
w .
est i</w>
Q u
pu bli
it y</w>
ל מ
ใ น</w>
ш е</w>
ол о
ä ll
ั ้
f o
ww w.
i ch</w>
s m
f ra</w>
ul ui</w>
í t
a si
n et
or e</w>
en ti
U n
с по
่ า
1 9</w>
in ā
но ст
al la</w>
х ү
ộ t</w>
it e
व े
ل ێ
л і</w>
sz á
မှ ု
ί σ
ц е
ना ही</w>
ב ע
n ar
ר ה</w>
ד ו
u a</w>
ن ج
ד י</w>
Ç á
ת י
i em</w>
S e
l ed
b o</w>
sit u
้ า
e ci
в ал
ä m
or i</w>
ل ی
t ut
l er
k li
K on
ا س</w>
سە ر</w>
st av
po z
n eg
z en</w>
і н
ô i</w>
с и</w>
i er
ο ύ
l y</w>
1 7</w>
လ ူ
f il</w>
hog y</w>
வ ி
w it
ո վ</w>
1 6
n es</w>
I l</w>
ға н</w>
da k</w>
b r
ไ ด
το ν</w>
ell er</w>
ө р
í m</w>
н да
it à</w>
ય ા</w>
per son
d ur
at t
d ro
س ي
пре д
ل ي
m ente</w>
f ol
ဘူ း</w>
م ی</w>
ک و</w>
կ ար
ư ợ
v ed
स ु
ڕ و
ap a</w>
k ov
လ ည</w>
ەک ە</w>
v et
т ь
c an
щ е</w>
S a
ғ ы
us t</w>
ئەو ەی</w>
נ ה</w>
y e</w>
l u</w>
c ri
ەک ی</w>
е к
zi jn</w>
4 0</w>
in te</w>
پ ی
ב א
ס ו
re gi
ठ ी</w>
մ ե
र े
st ar
n em</w>
m ent
am os</w>
h en
π ερ
l ad
qu i</w>
f ar
op er
ไ ม
E n</w>
l ab
st r
k y
v é
k ap
ا د
im o</w>
ं ग
ह ण
1 5
ת ה</w>
de mo
а д
P ol
k m</w>
N e
progra m
و ال
m ul
is i</w>
i š
h at
ન ા
ж ы
р ы</w>
n ě</w>
si n</w>
g ro
а й
al es</w>
as e</w>
in c
an te</w>
دە ر
ın ı</w>
ф и
b ū
b ud
P ri
س ے</w>
ס פ
با ش
n t</w>
m in</w>
щ о</w>
m es</w>
प ु
عل ى</w>
ข อง</w>
ал ы
s ed
b le
မှ ာ
ז ה</w>
ר ים</w>
s av
e ch
t ö
ि क</w>
in di
kt or
ု ိ
ဘ ယ</w>
ဟ ုတ</w>
ে র</w>
သ ွ
д ен
ει ς</w>
c ó</w>
مو و</w>
o l</w>
u ra
သ င</w>
Com missi
ر ي
m ột</w>
а н
ב ר</w>
z el
υ ρ
h ol
i f
k s</w>
м э
ra w
ны х</w>
k ti
est as</w>
2 4</w>
ғ а</w>
ak u</w>
l ag
g an</w>
с ы</w>
z e
P er
க ள
eg ħ
h od
E n
بە ڵام</w>
ur a</w>
в у
ျဖ စ</w>
ο ι</w>
န ည</w>
ủ a</w>
h om</w>
en ie</w>
ნ ა
y ch</w>
s ab
il l</w>
ক র
e x</w>
ک و
c ủa</w>
2 1</w>
el la</w>
პ ა
ि त</w>
par lam
ц а
του ς</w>
h ab
h and
แล ะ</w>
ti c
n s</w>
այ ն</w>
ch t
en í</w>
z am
ڕ است
т і</w>
k ä
ن گ
é t
f re
un t</w>
g a
si on</w>
м о</w>
щ и
h y
α γ
b er</w>
ق ا
p ä
a g</w>
u ž
li k</w>
S ch
ה ק
ή σ
အ ေ
da de</w>
al t
en ia</w>
á r
w as</w>
са н</w>
m aj
er en</w>
in for
n ec
щ е
ە م</w>
k er</w>
m os</w>
с я
ко н
fü r</w>
vi r
2 2</w>
s es</w>
س ی</w>
р я
M in
o ok</w>
гү й</w>
ε κ
n as</w>
T o</w>
ı m
य े
ic e</w>
el a</w>
န ဲ
ε λ
К а
I n</w>
п ер
g an
य े</w>
s or
و ں</w>
सा ठी</w>
Pre sid
เป็ น</w>
વ િ
ה ח
ur o</w>
p ad
ko ji</w>
ur i</w>
à i</w>
pr é
k en
ни те</w>
ခ င</w>
တ ို
ု န</w>
ထ ဲ
ந ான</w>
ի ց</w>
н да</w>
ب ع
1 3
st rat
i g</w>
จ ะ</w>
vi en
di g</w>
ig e</w>
ה פ
n ost</w>
ə y
ri g
क ो
δι α
n ão</w>
2 5
ک ەو
n os</w>
po t
กา ร</w>
vi d
д ля</w>
မွ ာ</w>
з у
l ev
i ş
z y
া র
ক ে</w>
ý m</w>
m emb
F ran
1 00</w>
19 7
l er</w>
u č
st e
tr a</w>
d in
t ot
k un</w>
ba ş
ό σ
li g</w>
er ne</w>
ێ ش
н д</w>
တွေ ကို</w>
ст е
ati v
ni et</w>
n er</w>
h em
de v
s la
l ä
τ ρ
ज े</w>
ol e</w>
έ χ
σ την</w>
f e
y ü
म ला</w>
l j
it s</w>
н ня</w>
probl em
र े</w>
ક ો
l en</w>
ak a</w>
ությ ուն
ượ c</w>
с ле
v or</w>
b at
т ра
م ند
ri j
ғ ы</w>
อ ย
é n</w>
ו מ
l at
ac e</w>
P od
ש ל
ိ မ</w>
м і</w>
ut e</w>
a ł
b un
Euro op
b ur
ο υ</w>
т у</w>
ل ل
w ar
ה ר
is k</w>
a ç
ч то</w>
f i</w>
ov a</w>
π ι
y ar
ī g
კ ა
д у</w>
f ri
ئێ مە</w>
او ر</w>
ե մ</w>
an je</w>
б и</w>
n ev
vo or
ș i</w>
201 0</w>
in o</w>
1 4
ik o</w>
pr á
S u
க ு</w>
გ ა
ne j</w>
in en</w>
ה ם</w>
အ ား
p ag
kt ó
ەک ان
ı r</w>
i ç
an e</w>
pol iti
il or</w>
l é
հ ե
sz er
ત ા
v à</w>
ن او
ע ם</w>
ئ ا
ի ր
α πο
f ø
ئە مە</w>
ี ย
s um
k ter
il o</w>
k s
ת ו</w>
і н</w>
ای ک</w>
ć i</w>
в е</w>
on es</w>
e ti
æ r
st y
om a</w>
न े
i re</w>
ได ้</w>
ج و
으 로</w>
a zione</w>
l and</w>
an ia</w>
ד ה</w>
h t</w>
l and
is ke</w>
ά ν
ं त</w>
כ י
ί ας</w>
ပ ေး
м ал
z ak
v õ
ö l
à y</w>
ر ه</w>
я к</w>
ت ی
a is
f ik
ت ێ
τι ς</w>
ă m</w>
का र</w>
ပြ ော
y s</w>
y or</w>
re r</w>
ր ան
ου με</w>
t os</w>
c am
o ut
m us
it t
es s</w>
เ ข
n ä
่ ง</w>
ნ ა</w>
V i
ent a</w>
is ka</w>
B er
d ot
ش و
â n
2 3</w>
ol i</w>
έ ρ
đ ược</w>
ન ો</w>
t eg
ه م</w>
ჟ რ
B ar
ર િ
a b</w>
на та</w>
ય ું</w>
v el</w>
h or
an ti
īb u</w>
p ak
տ ա
ை ய
h r
ه ەیە</w>
လ က</w>
pl an
е т</w>
ни х</w>
st ra
မ ဟုတ</w>
м ы</w>
t ə
ै ं</w>
v u
aj u</w>
6 0</w>
k om</w>
P o
ق و
า ย</w>
g ran
վ ա
συ ν
η μ
ka o</w>
त े
ư ờ
impor tan
st en</w>
ac c
ed en</w>
p p
et te</w>
au f</w>
g ör
tag ħ
j er
ل ا</w>
il le</w>
M o
y h
प ण</w>
အ တ
επ ι
In ter
el i</w>
ni k</w>
g et
B u</w>
र ण</w>
di re
स र</w>
E v
х у
U E</w>
b is
र ा</w>
ू र</w>
a vi
n og
c á
2 8</w>
ch o</w>
ူ း
ल ं</w>
š i
es i</w>
201 5</w>
т ся</w>
r um
π αρ
ть ся</w>
व ा</w>
ن د</w>
e y
கி ற
м ер
ال ح
h at</w>
no g</w>
s mo</w>
l ju
г е</w>
sy st
po sit
ci j
s c
b est
з е
ကြ ောင</w>
ad i</w>
im i</w>
ध ा
ny ch</w>
b in
خۆ ش
પ ા
F or
א ר
sob re</w>
i on
נ י</w>
د رو
y o
ว ่า</w>
p ul
ای ی</w>
သူ တို</w>
сь ко
હ ે
j em</w>
k et</w>
ه ی
m ä
σ ης</w>
g ov
as i</w>
ज ि
ت و</w>
0 .
ת י</w>
ov o</w>
နှ စ</w>
2 .
د ار
s em</w>
Т а
ت ە
l av
as t</w>
ר ות</w>
k in</w>
ک ی
H er
ul le</w>
с во
ட ு
ո ղ
ה ג
ەی ەکی</w>
ե ք</w>
u it
с ь</w>
п ла
ү й
ی ہ</w>
า ก</w>
k in
ци я</w>
ot a</w>
ใ ห
στ ο</w>
k es
em o</w>
ש ו
fer en
ا ئ
f am
e c</w>
p as</w>
em os</w>
organ iz
p ār
r ó
no st
б ү
в ы</w>
a di
en g
et en</w>
но й</w>
пе ре
emb er</w>
a us
ế t</w>
por t</w>
j av
ij iet</w>
200 8</w>
ч у
ser vi
b ru
้ า</w>
ه ذ
a a</w>
ر ی
k ā</w>
é m</w>
с лу
de i</w>
ал і</w>
t t</w>
og ra
ớ i</w>
t ul
u si
ز ی</w>
i den</w>
လ ဲ</w>
g es
에 서</w>
u ri
с ел
i ja</w>
کر د</w>
t es</w>
आ म</w>
0 6</w>
í té
та й</w>
م ج
ma is</w>
mo ž
ה ב
မွ ာ
ti e</w>
kh ông</w>
z em
ნ ვ</w>
v ot
qu es</w>
200 9</w>
น ี
נ ו</w>
လ ဲ
ա պ
sit e</w>
α κ
о н</w>
tu k</w>
з і
te x
j on
å r
ە ڵ
δε ν</w>
هە موو</w>
ত ে</w>
i ch
e ik
200 7</w>
ц ца</w>
அ வ
ա ր</w>
ov e</w>
d as
n as
م ع
D ie</w>
ம ு
f t</w>
v š
s ho
ร า
ট া</w>
p ē
ל י</w>
u p</w>
s ak
det te</w>
2 7</w>
li k
ন া</w>
भ ी</w>
ı z</w>
ir a</w>
p it
в ъ
ၿ ပ
g em
ม ี</w>
ပ ိုင</w>
z on
O r
ပြ ီး
по д
ச ெ
ne k</w>
כ ל</w>
ય ો</w>
ئێ ست
વ ા</w>
ل و
s il
a p</w>
ک ان</w>
π λ
े ल</w>
għ all</w>
ب ا</w>
য া
י ה</w>
n ag
j ec
v od
fi ci
հ ամ
д ер
j est</w>
ती ल</w>
n um
ակ ան</w>
ەی ن</w>
en d</w>
ал а</w>
á t</w>
ka z
J eg</w>
а к
ni e
ό ς</w>
ကို ယ</w>
પ ણ</w>
أ ن</w>
ה צ
e y</w>
e in</w>
т ре
h i</w>
ble v</w>
ש ר</w>
i en</w>
am e</w>
n om
क ु
စ ိတ</w>
sa ya</w>
г і</w>
n ed
s ö
ti egħ
ت م</w>
di r</w>
n at
လ ုံး
ι ν
ر ة</w>
ө ө
per i
C o
श ी</w>
ပ ို
ვ ე
š i</w>
ni je</w>
ci ja</w>
य ो
ek a</w>
о д
pro jek
ر ۆ
ह ैं</w>
b ed
ning en</w>
ra d
sp ol
U S</w>
ف ي
ś ci</w>
м я
သွ ား
ா க</w>
st o</w>
prin ci
c ap
ڕ ا
b ag
or es</w>
ra p
m ás</w>
æ n
c y</w>
ji h</w>
em e</w>
бай на</w>
ast a</w>
ह ु
g ev
आप ण</w>
ર ે
o y
က ယ</w>
k la
ن ي
υ π
im e</w>
й ы
झ ा
u k</w>
ி ல</w>
na č
ฉ ัน</w>
စ ာ
г и</w>
в ен
po č
ъ л
ل ى</w>
eg y</w>
ο πο
स म
ı m</w>
ک ہ</w>
ü t
ר ת</w>
D an
ot el</w>
T i
ա հ
t y</w>
a ğ
մ ի
pro f
до б
Т о
e o</w>
201 1</w>
အ တွ
g et</w>
en ý</w>
е то</w>
ab y</w>
su b
al mo
M i</w>
y ou</w>
ut a</w>
e ine</w>
1 ,
ா ர</w>
a č
t at
200 6</w>
گ ۆ
3 1</w>
ά σ
ф ор
מ ע
o vi
ံု း
니 다</w>
آ پ</w>
л ы</w>
E S</w>
ար դ
p il
ik i</w>
ۆ ن</w>
t ā
N e</w>
des .
ž iv
te h
almo han
almohan des.
t or</w>
b re
n ë</w>
ni m</w>
m ad
ن ہیں</w>
ent re</w>
ב ה</w>
st er
v ed</w>
က ောင</w>
ab le</w>
eg y
d ar</w>
д ру
ო ჲ
f at
з и</w>
lar ı</w>
A mer
al is
tr ong</w>
ছ ে</w>
d re
к ө
Presid ente</w>
д ел
v ad
wit h</w>
f rå
ra v
த ு
ခ ံ
s es
л ен
ạ i</w>
ar d</w>
ר כ
ե ց
n ě
m is</w>
م ار
ε ξ
ov at</w>
0 7</w>
st ran
مند اڵ
t w
ت ح
b le</w>
વ ી</w>
on o</w>
2 6</w>
З а
ان ەی</w>
ค ุ
ε ί</w>
y ap
an ie</w>
aj o</w>
ра бо
k ako</w>
a x
ta i</w>
L e</w>
201 4</w>
y st
б а</w>
as a</w>
θ έ
u y
er t</w>
ո ղ</w>
n om</w>
л е</w>
का ं
сэ н</w>
ци и</w>
s ent
R eg
μέ ν
ա լ
s ul
wor den</w>
ht ml
e č
ונ ה</w>
ri a</w>
ու յ
ک ا</w>
a ch</w>
201 2</w>
2 9</w>
n ý</w>
ர ு</w>
h um
con c
б е</w>
un der
y n
ချ င</w>
â n</w>
К о
د ة</w>
un u</w>
f al
ە دا</w>
ە ن</w>
Ev rop
or g</w>
ט ו
A ku</w>
ικ ή</w>
í ch</w>
ak i</w>
ه ێ
r y</w>
a y</w>
el t</w>
ti r
ה נ
ەک انی</w>
ı na</w>
M al
ve z
kt en</w>
fu q</w>
K ar
ေ ပ
ا ب
C an
d y</w>
ά ρ
ij k</w>
ст у
n av
мо ж
k as
او ە</w>
ای ە</w>
ст во</w>
մ ի</w>
н у</w>
ung en</w>
פ ו
s et
Kom is
χ ρ
ா ல</w>
si g</w>
g li</w>
ונ י
in ti</w>
B o
چ ی</w>
v as</w>
v ě
un i</w>
19 6
jel en
ה כ
k op
ל ו</w>
s ä
श क
ێ ک
lig t</w>
kö z
स ि
я т</w>
hu wa</w>
on t</w>
ro m</w>
ש ה</w>
un tuk</w>
ي ر</w>
ti on
gen er
du ğ
အ သ
bi ex</w>
т ал
ر ا</w>
ka u</w>
a ch
ر و</w>
आप ल</w>
sk al</w>
թ ե</w>
z ar
ek onom
ရွ ိ
si m
v en</w>
ent es</w>
b as
g é
mil l</w>
y k
ск и</w>
pl at
ti dak</w>
ခ ု</w>
τ ρο
ti n</w>
be z
а в
ไ ป</w>
ti k
ко м
on der
မ ဲ</w>
ست ی</w>
j er</w>
u di
kom is
ri o</w>
گە ر</w>
c en
p ë
в ре
या त</w>
ကြ ီး
ef f
201 3</w>
dr ž
เ ล
к е</w>
ai re</w>
ป ระ
ل ك</w>
ग ो
הי ה</w>
is che</w>
M on
ar be
ק ה</w>
ห น
d s</w>
আম ি</w>
आ हे
m ot
တ င</w>
n ö
a de</w>
ب کە
u c
u x</w>
é ho</w>
v u</w>
z o</w>
ەو ەی</w>
g eb
k em
e vi
с пе
s ag
ու ն</w>
ی ار
resp on
o ci
b b</w>
რ ვ</w>
a ik
ј е</w>
ה ס
ο ν
N a</w>
T er
m ē
j á
ર ી
s ht
na m</w>
מ צ
क ड
ज े
t un
چ و
બ ા
Parlam ento</w>
га а
ख ा
պ ատ
19 4
ပ ုံ
ί ν
v it
w ar</w>
in de
έ π
i on</w>
it en</w>
zi oni</w>
n el
e er
ç o
ئێست ا</w>
z er
sol u
ի ս
П о
ო პ
க ு
ત ા</w>
მ ა
d am
us i</w>
ت ەوە</w>
po si
کرد نی</w>
ค ร
т ро
φ ορ
E r
ื อ</w>
ev a</w>
r .</w>
لە گە
ال ج
ا ل</w>
ст ва</w>
al mente</w>
إ لى</w>
p t
l et</w>
မျ ား
del l'</w>
е м</w>
к ла
ά λ
p ir
тел ь
ट ा
हा ला</w>
an im
sp eci
ந ீ
လ ေး
z vol
n olog
w ie</w>
ا ف
р о</w>
ม า</w>
ت ۆ</w>
ing s
ל כ
inv est
ကြ ည</w>
n al
ro d
ن ي</w>
z u
и ли</w>
h un</w>
sla g</w>
in t</w>
lig e</w>
ek s</w>
lo c
n el</w>
ရှ င</w>
र ु
া ন
b ra
အ ရ
र त</w>
s ur
E k</w>
ա շ
ل ة</w>
हो ते</w>
ге н</w>
थ ा</w>
m m</w>
သ ြ
တာ က</w>
נ ים</w>
et i</w>
in de</w>
g re
ar ea</w>
2 4
or o</w>
ί ζ
す る</w>
ю м</w>
og så</w>
r un
ст ь</w>
ấ t</w>
au g
م ة</w>
இ ரு
α λ
m om
ק ר
sk o</w>
a an
श ा</w>
h eb
val st
ئە گەر</w>
8 0</w>
et s</w>
ל ח
ွ င</w>
म ो
ва не</w>
ε δ
m ö
bi l</w>
li ch</w>
pro t
म ध</w>
ti ca</w>
B e
श ि
b ek
э нэ</w>
ati a</w>
p es
ü ç
p é
ว า
ta a</w>
အဲ ဒီ
دە توان
ی دا</w>
ال ق
m ist
па р
á z
ό ν
si e</w>
l al
b at</w>
ش ت</w>
ြ န</w>
န ောက</w>
an da</w>
ג ם</w>
va i</w>
у л
or it
v z
г ла
a c</w>
s lu
я та</w>
f ir
ti es</w>
ки й</w>
گ و
ա գ
ang e</w>
is en</w>
ร ์</w>
و ە
ဒါ က</w>
ec onom
d ov
na š
b ro
0 1</w>
κα τ
ni cht</w>
w ir
um u</w>
h ə
E U
ž en
f ot
ві д
he id</w>
c in
гэ та</w>
a us</w>
sk i
parlam ent
အ စ
den ne</w>
гэ ж</w>
ჲ გ
kon tro
ra n</w>
up p
ე ბ
0 ,
ra l</w>
hav e</w>
ત ે</w>
v aj
ही ं</w>
Қ а
ન ું</w>
son o</w>
پێ وی
מ א
ەو ێت</w>
s var
E i
wa ar
း က</w>
เ พ
ды ң</w>
ေ ရ
C ar
د م</w>
थ े</w>
М а
is chen</w>
ั ง</w>
आहे त</w>
S er
íté se</w>
meg jelen
မ ိ
б ли
ό τη
S en
200 5</w>
א ו</w>
es z
b ör
ш а</w>
L e
و ر</w>
s ə
μ β
م ح
Ա յ
an ja</w>
लि ए</w>
d t</w>
ס ט
ны е</w>
ko h
zj on
प ूर</w>
is sa</w>
am ento</w>
ү р
لە سەر</w>
ד ים</w>
է ր</w>
al t</w>
inst itu
ז י
ci o</w>
द ी</w>
တ ကယ</w>
д ал
it el
infor ma
อ น</w>
ε ται</w>
э д</w>
ال إ
tran s
200 0</w>
min n</w>
y or
a q</w>
و ي
ov á
य ु
d ag
ant es</w>
य क</w>
тэ й</w>
ש ב
B el
t ar</w>
or t</w>
န ေတ
п ры
b ev
os s</w>
મ ે
m ě
પ ર</w>
a ť</w>
f ør
prz y
န ေ</w>
v í
r ä
n á</w>
ات ر</w>
வ ே
t em</w>
в ол
b ul
M an
j y</w>
men g
pr i</w>
ك ان</w>
ל א
ا ي
E l
હ ો
ен ня</w>
po s</w>
ol a</w>
kom mer</w>
ad al
un der</w>
бо л</w>
N o</w>
λο γ
а с</w>
द ु
k w
да р
is a</w>
kl ar
α ν</w>
הי א</w>
ه ات
j ak</w>
د ۆ
N or
ب ر</w>
Parlam ent
la h
ت م
u se</w>
რ ჲ</w>
to t</w>
คุ ณ</w>
ไม ่
פ ה</w>
ஒ ரு</w>
D e
3 .
di rec
r ati
நீ ங</w>
in du
ko v</w>
pra v
о на
מ ו</w>
s us
ર ો
ны м</w>
. com</w>
pr o</w>
ed er</w>
پ ر
ικ ο
dar i</w>
e b</w>
š í</w>
ட ி
k it
ц я
om et
megjelen ítése</w>
po sl
ma ar</w>
જ ા
ခြ င</w>
E x
qu i
Ei rop
ت ەن
ג ו
vi a</w>
er ing</w>
ب ل
بو و
ချ က</w>
par te</w>
do w
سا ڵ
k at</w>
wer den</w>
den gan</w>
چ ی
ј а</w>
ယ ူ
ဆို ရင</w>
om e</w>
ჟ ვ</w>
ш о
polit ik
n ày</w>
U S
က ိန</w>
in in</w>
เ ด
კ ჲ
ક ે
ро з
ห ล
کات ێک</w>
t ôi</w>
sp re
ک ان
al o</w>
ေ အ
h ed</w>
ל פ
ۆ ر
ב ת
ան ում</w>
ku ri
j at
п а</w>
ն եր</w>
t v
N on</w>
ت ے</w>
ให ้</w>
m al</w>
و ەک</w>
B i
ко то
မ င</w>
eh n</w>
is k
ц ен
pol í
ရ ဲ
á ci
t ap
ન િ
ot t</w>
ن ین</w>
ā d
ப ே
n ých</w>
i p</w>
i č
l ī
အတွ က</w>
רא ש
ı k</w>
ت ان</w>
ب ن
v et</w>
għ al</w>
ра н
अ प
ө н
в ел
ka i</w>
T o
j os</w>
ه ۆ
si ch</w>
เ ม
O n
bi o</w>
ت ە</w>
é e</w>
S ie</w>
o š
ব ে</w>
ч и</w>
ka j</w>
q ə
E z</w>
in s</w>
bi r
n ăm</w>
ال ش
pl us</w>
T ra
ب ێ
el ek
ို က</w>
in f
G o
ज ी
E l</w>
è re</w>
પ ો
ก ับ</w>
ک ر</w>
l ine</w>
שנ ת</w>
P h
inter nation
лы қ</w>
u li
та к</w>
organ is
ρ ά
S T</w>
ế n</w>
re t</w>
ت ھ
و ق
m ell
p ap
gl ob
с ло
ா ம</w>
væ re</w>
η ση</w>
ုံ း</w>
al g
di f
او ه</w>
y y
z ap
ဗ ျ
Н е</w>
ش ی</w>
er o</w>
h r</w>
T ur
p ada</w>
t s
A d
ed a</w>
ا و</w>
ל ים</w>
y i</w>
ef t</w>
no u</w>
va st
200 4</w>
պ ես</w>
या ला</w>
ن ة</w>
ri st
μ ά
p le
di en
ul d</w>
ي ه</w>
کە س
an ce</w>
y b
c at
ad as</w>
ڵ ێ
s po
ol duğ
च ं</w>
ب ن</w>
y ra</w>
A c
ئ ام
▁ ่</w>
u ş
з ы
د ان
ні ң</w>
لەگە ڵ</w>
9 0</w>
б ер
e u</w>
n ak
pa í
न ु
ic k
એ ક</w>
ω ν
ığ ı</w>
ات ە</w>
n ego</w>
त ं</w>
ê n
و ا</w>
con si
ا د</w>
proc es
ال ك
je w</w>
a il
ဆ က</w>
ra di
f ost</w>
е д
ө г
ห ร
um s</w>
th is</w>
о д</w>
t ol
te ch
av e</w>
Ե վ</w>
ž el
de st
ნ თ
ای ن</w>
υ πο
no t</w>
ப ி
ထ ပ</w>
ա ղ
д ол
sam o</w>
ներ ի</w>
p ko
га а</w>
li m
sk ri
ક ાર
на й</w>
ը ն
d op
c as
မြ င</w>
H o
ب را
c ur
m ë</w>
या साठी</w>
tr at
z it
strat eg
qu '</w>
έπ ει</w>
vi de
ئ ے</w>
ın ın</w>
0 8</w>
ti ons</w>
א ה</w>
del le</w>
d á
у р
ic i</w>
I N
pre z
ir o</w>
אח ר</w>
ی ان
V o
t aj
то м</w>
қ ұ
ст и</w>
מ ן</w>
ությ ան</w>
č e</w>
ar ī</w>
19 5
das s</w>
t ako</w>
pres ent
at u</w>
v ál
d os
ur ó
ष ा
e .
อ ง
me g</w>
ot i</w>
ти в
ni a</w>
s ú
pol i
raw l</w>
ου ς</w>
m ol
f l</w>
ne j
न हीं</w>
ut o</w>
ex ist
H otel</w>
T E
k et
li st
ट ी</w>
ant s</w>
κα τα
b ə
ب ەک
at ti
c rawl</w>
m í
ည ီ
h ist
ن س
ي د</w>
ות ר</w>
pko ehn</w>
sk é</w>
เ ก
ներ ը</w>
cz y
го во
ä l
လ ေ</w>
ั น
ε ύ
d ė
б ы</w>
но в
H et</w>
S i
en o</w>
S z
то й</w>
ng a</w>
ό λ
ئ ی
ва т</w>
အ ောင</w>
မျ ိုး
μ πο
op p
g ad
တ ူ
ел е
. 2016</w>
s k</w>
ד ר
ö z
ش ه</w>
pro st
เ ธ
k ad
t as
ё н</w>
c k</w>
с ла
ع ة</w>
an de</w>
а у
מ ת
j al
ro v
sht ë</w>
o se</w>
چ ون
os pod
7 0</w>
ut il
ب ة</w>
προ σ
S å</w>
ф і
g u</w>
for ma</w>
ст а</w>
ườ i</w>
la i</w>
di es
ı z
d od
М о
ko t</w>
કર ી</w>
ნ ვ
é l
t it
ال س
տ ար
reg ul
int eg
း ေ
f av
ar ia</w>
ব া
li ber
4 .
S e</w>
con tin
a š
to im
شێ و
か ら</w>
u den</w>
šan as</w>
с у</w>
el ő
व ी
à o</w>
ү ү</w>
og a</w>
περ ι
ळ े</w>
ệ n</w>
ti e
ن ەوە</w>
ost i</w>
3 5</w>
دە بێت</w>
း ကို</w>
а т
it ä</w>
бол о
د ان</w>
थ ा
ற ு</w>
201 8</w>
A m
ρ ω
ม า
ic o</w>
ί ες</w>
b et</w>
ג ר
po tre
ا ز
γ κ
в э
ே ன</w>
.. ..
م ي</w>
st and
el d</w>
h it
n en
p is
j in
ટ ે</w>
est á</w>
מ ת</w>
ar io</w>
P or</w>
heb ben</w>
o i</w>
as s
m nt</w>
ွ ဲ
g ang
I I</w>
ké p</w>
خ ەڵ
ત ો</w>
ર ી</w>
כ ן</w>
I k</w>
בי ן</w>
د ن</w>
t ab
da des</w>
Г э
ter min
tem per
กา ร
چ ه</w>
ss d</w>
в ро
ki en</w>
ک یا</w>
m ut
स ी</w>
G e
د ات</w>
ว ิ
A z</w>
st er</w>
מ נ
پ ار
ø r</w>
d ı</w>
ण े</w>
ت ع
c um
t et</w>
σ ι
ك ه</w>
př í
ي ا</w>
ह ो</w>
di r
ո ն
N i
an os</w>
201 7</w>
tur a</w>
گ ی
đ ã</w>
it t</w>
P or
an s</w>
तु म
lə r</w>
τικ ή</w>
का ही</w>
मा झ</w>
st ell
с па
O g</w>
ร ั
Pod uj
သ ာ
ت ۆ
त ि</w>
eder bör
Poduj atia</w>
w at</w>
pr en
j ā
ա տ</w>
რ ა
θ η
de ze</w>
K i
מ ים</w>
zvol ený</w>
่ ว
ש ים</w>
A L
ál l
ร ิ
ke z
a de
σ χ
ci je</w>
inter es
da ha</w>
de ò</w>
я го</w>
h ot
τ ερ
де н</w>
մ ենք</w>
с ре
A N
ו ע
ell es</w>
द ा</w>
δ ο
e h</w>
ל ק
ω ρ
der e</w>
da g</w>
ł a</w>
ن م</w>
х а</w>
0 9</w>
B u
v b</w>
ik u</w>
ლ თ</w>
द ो
D an</w>
ك ان
c it
د ی</w>
ol ar
finan ci
Eirop as</w>
อ ก</w>
ac e
t on</w>
k ë
ώ ρ
am er
ko je</w>
θε ί</w>
ությ ուն</w>
ش ە
то ва</w>
z aj
к ъ
A t
i es
gru p
қ та
p at</w>
n in</w>
هە ڵ
G u
ги йн</w>
ं ग</w>
d ə
پ ا
or ang</w>
ื่ อ</w>
نا و</w>
ნ ჲ</w>
ч о
қ о
ф е
at en</w>
щ а
ta m</w>
ā ci
l ak
he eft</w>
د ڵ
ст о</w>
ва м</w>
ны й</w>
р у</w>
g li
met er</w>
el l</w>
С а
ка то</w>
သ ား
μα τα</w>
م ل
درو ست</w>
V al
R om
Ε υρ
ه او
де й
am b
M er
m s</w>
o si
ä än</w>
de y
ر د</w>
בי ת</w>
כ ו
h om
သ ူ</w>
L u
चा र</w>
com un
ه و</w>
ú ng</w>
j oni</w>
ู ่</w>
το ς</w>
y l
کرد ن</w>
ל ע
t ill
ме т
n ol
k ita</w>
घ े
lar ın</w>
ut i</w>
d ən</w>
il la</w>
เข า</w>
व ी</w>
ö s</w>
' s</w>
લ ો
h in
iç in</w>
az zjoni</w>
в ър
હત ી</w>
શ ે</w>
वा ट
ဒါ ပေ
w ir</w>
almohandes. org</w>
бол ь
ত ু
www. almohandes.org</w>
и х</w>
دو و</w>
ွ စ</w>
or d</w>
да г</w>
mo et</w>
زۆ ر
า น</w>
z ah
â y</w>
ί ου</w>
க ா
an ti</w>
ف ا
i c</w>
na cion
c es
ja g</w>
seg u
ি য়
de b
ל ב
તે મ
ж ә
М и
1 .</w>
ж о
st itu
er na</w>
č no</w>
üç ün</w>
2 3
h ö
pos si
S lov
ရ ေး
е й</w>
း အ
ါ င</w>
ज ो</w>
y an</w>
t ā</w>
an to</w>
αν α
တာ ပါ</w>
ó l</w>
t is
او ن</w>
ב ות</w>
h ov
ဆ င</w>
જ ે
ati ve</w>
z ab
მ ჲ
ec e</w>
ét é</w>
з да
j ak
جی ه
la st
пе ра
ပါ ဘူး</w>
si on
વા માં</w>
r t
ت ق
ti s</w>
р ъ
z o
ле к
ला ग
ты н</w>
A T
pr í
นี ้</w>
li j
ค วา
2 ,
န ာ
ti m
пра ви
le p
ज ी</w>
с і</w>
T ér
f ut
h or</w>
б ра
produ c
te is
as sa</w>
c il
و ہ</w>
г ен
တ ည</w>
ста в
r en</w>
au ch</w>
af f
in ten
ın dan</w>
но ст</w>
P i
mo d</w>
ţ i</w>
A b
တ န</w>
0 5</w>
Kom missi
သ ည</w>
ti ve</w>
k lu
μ ια</w>
I m
v ag
သ က</w>
di m</w>
بە ر</w>
z ad
ţ i
ώ ς</w>
t av
د ي</w>
ا ست</w>
ng ười</w>
com e</w>
ہ م</w>
أ ن
ו א
p ec
k ir
इ स</w>
т ө
ć u</w>
a ħ
ြ က</w>
ğ i</w>
regi on
pi e
ब ो
st á
m ik
k ut
ح ي
ส า
n atur
å n
ш і
l ē
ал и
ell o</w>
mə k</w>
son t</w>
s sz
mil li
C O
यां ना</w>
J a</w>
ত া
र क</w>
Tér kép</w>
ve ik
ที ่
ע ה</w>
ट ी
pr is
en ce</w>
M il
i de</w>
و ل</w>
ભ ા
τ ε</w>
B al
α ι
д ра
дэ э</w>
မျ ား</w>
ئەو ەیە</w>
4 5</w>
ا ں</w>
प े
x i</w>
ո լ
ட ும</w>
دەک ات</w>
या च</w>
г у</w>
b ak
q ë</w>
an h</w>
τικ ά</w>
อ า
20 0</w>
ب ال
چ او
મા ટે</w>
im p
ấ y</w>
στ ι
m and
v re
ին չ
ver sit
Europ ese</w>
ch od
ত ো
ու մ
z zjoni</w>
2 6
ل ەو
מ י</w>
æ l
જ ો
بو ون</w>
D a</w>
k ro
g ar</w>
te k</w>
A R
z in
ικ ά</w>
l jen
ning er</w>
ả i</w>
t at</w>
ч но</w>
al it
ک ار</w>
i es</w>
o ff
ն ա
h y</w>
δ η
का रण</w>
en s
ph p</w>
α λλ
жә не</w>
é es</w>
ं च</w>
h uma</w>
ст ы
πα ϊ
վա ծ</w>
րան ք</w>
kol l
ac k</w>
ဒ ီ</w>
ch er
လ ျ
ı s
ċ i</w>
di k</w>
အ ခ
ני ת</w>
מ ח
da w
က ၽ
တ ိုင</w>
ì nh</w>
ą c
isi ón</w>
n ut
J ag</w>
गो ष</w>
ர ி
o ž
ပါ ပဲ</w>
แ ต
դ ր
n od
ب خ
国 家</w>
մ աս
વ ર</w>
ن ە</w>
ั ง
ၾက ာင</w>
य ों</w>
י ו
200 3</w>
կ ան
νο μ
akt ar</w>
y cz
но м</w>
ст во
ս տ
ры н</w>
bu de</w>
ر ب
h en</w>
મ ો
t ä</w>
ڕۆ ژ
စ ု
လ ှ
el i
y m
ב או
હ ા
ق ة</w>
း က
ti d</w>
L es</w>
C .</w>
3 2</w>
st ā
დ ა</w>
os a</w>
u f
bil o</w>
es sa</w>
ک ێش
هذ ا</w>
こ と</w>
d av
z w
T e
em pl
h as
di s</w>
í c
si s</w>
ро д
č i</w>
к алі</w>
ิ ด</w>
I z
ol an</w>
li d
G M
на я</w>
کار ی</w>
w en
am ent
ci as</w>
adal ah</w>
J o
а ра
ç a</w>
ti va</w>
мо же
ни к</w>
ra m</w>
por t
á ra</w>
j är
a ar
Sa ya</w>
த ை</w>
c ep
ב ל</w>
ม ัน</w>
πο λ
ност и</w>
अ ध
πρ έπει</w>
دە ست</w>
ij i</w>
پێوی ست
с ве
द र</w>
b it
y er
ต ้
का य</w>
e uro
я в
g est
ણ ે</w>
ç ı
στ η</w>
ді ң</w>
indu stri
do or</w>
ေ း</w>
સ ં
y an
ب ھ
s ad
ë shtë</w>
С о
ni k
ั ก
ေ ျပ
ü z
5 .
ั้ น</w>
ەن د</w>
l ang
ش ا
ရ ာ</w>
pi ù</w>
s et</w>
သ ံ
к то
ω ση</w>
ש רא
a po
к ри
ش ار
ה ל
tran spor
p i</w>
. php</w>
f t
ал е</w>
ig en</w>
ก ล
le ž
ա զ
й о
lig a</w>
ე ვ
nj ë</w>
li v
א י</w>
ספ ר</w>
дз і
ener gi
प र
لە و</w>
al ar
s us</w>
ġ ġ
Б и
р е</w>
fam il
هی چ</w>
उ त</w>
ev e</w>
с ер
b li</w>
z at
ر ف</w>
้ ว</w>
ու ր
하 는</w>
а д</w>
а р</w>
س ک
k rat
כ ה</w>
ra k
w ord
ჱ ა
લ ી
as zt
Euroop an</w>
و ان
y m</w>
ө н</w>
al u
ष ा</w>
O b
e ur</w>
p en</w>
ד ות</w>
ी च</w>
ထ ုတ</w>
F in
am s</w>
ं ड
200 2</w>
el s</w>
ক ি
پ ر</w>
ка к</w>
j em
هە ر</w>
es a</w>
os ob
س ر
b iti</w>
ل ای
ra t</w>
g ia</w>
ci al</w>
am ent</w>
ώ σ
è s</w>
ik e</w>
या चा</w>
ပ ဲ
5 00</w>
w sz
mo eten</w>
R o
k ing</w>
e uro</w>
äll or</w>
ц и</w>
по л
णा र</w>
τα ς</w>
ef ter</w>
จ าก</w>
αυτ ό</w>
la ş
Min ist
Ne w</w>
վ ում</w>
an c
да н</w>
w in
ہ وں</w>
de fin
ö n</w>
ни и</w>
хо ди
dis se</w>
ο ς</w>
ه ي</w>
ն ում</w>
ن ام
я на</w>
ר י</w>
ل ی</w>
an i
пра в
b are</w>
m ost</w>
med lem
el y</w>
l ı</w>
т во
ე ჲ
ś ć</w>
c ad
ကၽ ြန</w>
ob il
pre c
L '</w>
ag a</w>
d ě
b ar</w>
P al
i ż
га р
ti k</w>
ц ь
0 4</w>
သ ုံး
ə m</w>
j ako</w>
ст ро
Э нэ</w>
l ji
ı q</w>
ग ु
E s</w>
ל ש
ել ի</w>
ă r
μα ς</w>
cá c</w>
m ek
g y</w>
Н е
s al</w>
f rom</w>
ब र</w>
သြ ား
t ų</w>
گۆ ڕ
D E</w>
ळ ा
გ თ
Т э
г ле
s me</w>
lig ger</w>
rel at
temper atur
મ ુ
vi še</w>
เ จ
cent r
ந ி
y en</w>
व े</w>
ερ γ
دە ی
200 1</w>
s ve</w>
sin d</w>
ב ח
e an</w>
י ן</w>
רי ת</w>
ικ ό</w>
d it
T u
လာ း</w>
i p
ar ti
8 .
ên cia</w>
li o</w>
ב ש
არ ა</w>
م ع</w>
ه ای</w>
j ar
Р а
ম া
ü l</w>
z ī
j ū
ord in
v al</w>
ग ा</w>
ذ لك</w>
o a</w>
ი ს</w>
ภ า
र ू
B an
દ ે
к лю
or szá
di o</w>
H ar
tr i</w>
u h
he er</w>
o it
ဒီ တော</w>
be i</w>
př ed
po d</w>
տե ս
ەی ت</w>
arbe j
т ұ
ri s</w>
sa k</w>
ć a</w>
bi j</w>
यां च</w>
M i
ผ ม</w>
G en
к ре
कर ण</w>
μ φ
tu di</w>
tiv it
ầ n</w>
lah ko</w>
и те</w>
ב שנת</w>
L at
နဲ ႔</w>
но ї</w>
ậ t</w>
ە تی</w>
K ällor</w>
क ल</w>
consi der
ov é</w>
נ ות</w>
प रि
ч ы</w>
хи й
di c
ע ו
ati e</w>
Р е
அவ ர</w>
ક ર</w>
ա կ</w>
צ ו
િ ં
A ng
ե տ
ဆို တာ
ல ை</w>
e e</w>
al og
e ż
ч ен
λ η
9 .
P et
कि या</w>
س ل
ז ו
h ọ</w>
nad en</w>
چ ۆن</w>
န ား
π ως</w>
Est ados</w>
б ле
v ec
li s</w>
3 3</w>
تەن ها</w>
ko ja</w>
am bi
ել ու</w>
ri k</w>
ço x</w>
k á
લ ા</w>
ใ ช
à nh</w>
ל ת</w>
ř í
ە ت</w>
sk ih</w>
pë r</w>
po st</w>
S am
ал и</w>
မ တို</w>
দ ে
an che</w>
tex t</w>
ک ھ
ar t</w>
kil omet
नि र</w>
τρο π
a ja</w>
em ent
н д
ầ u</w>
M en
bil a</w>
du c
ќ е</w>
સા થ
პ ვ
та р
د ەو
या ची</w>
e f</w>
s op
pli c
ко но
h vor</w>
o ut</w>
ی ک</w>
šan u</w>
이 다</w>
دە ست
2 7
st var
b ħ
ni ca</w>
a ž
y d
ư ớ
מ ות</w>
on t
ال ن
i an</w>
ונ ים</w>
A part
ול ם</w>
ခ ေ
u sk
ċ ċ
ка н
j es
ור ים</w>
part ner
m ó
бы ло</w>
v ới</w>
т ри
не то</w>
่ น</w>
j ou</w>
ב י</w>
ச ி
સ ુ
द ल</w>
الت ي</w>
ဒါ ကို</w>
vi g
ए क
ind ə</w>
တ ိ
վ եր
ال و
х і
ك ن</w>
un s</w>
τ ελ
ပြ န</w>
e en
πρ ό
и з</w>
t op
ہ اں</w>
st re
and re</w>
o bi
ad minist
u it</w>
ય ાર
ст вен
ek k</w>
ဟ ာ
а б
ەک ەی</w>
փ ո
0 2</w>
ت ای
ش ان</w>
c an</w>
ப ு
j est
z as
fin ns</w>
ov i</w>
կար ող</w>
แล ้ว</w>
k im
am at
այ ս</w>
á n
и то</w>
al ist
con tro
ва н
ည ာ
ə t
del en</w>
ম ি</w>
j ot
d re</w>
do kum
3 6</w>
ল ে</w>
و و
კ ა</w>
f é
0 3</w>
st or
بک ەین</w>
زی اتر</w>
بی ر
הי י
ור ה</w>
ה ד
कड े</w>
համ ար</w>
C ol
k ar</w>
е ди
მ ვ</w>
П ре
y w
צ ה</w>
tr en
چ ە
Commissi e</w>
ে ন</w>
g ə
gen om
ز ر
st vo</w>
ज र</w>
mi d
si k
D u
п ы
n ega</w>
ဆ ုံး
tod os</w>
sch af
ra c
P o</w>
el en</w>
э р
έ να</w>
း စ
က ား
П ро
ra s
I S
għ and
ti g</w>
ေတ ြ</w>
s å
လ ောက</w>
vi et
ئ اس
n it
n je</w>
b on
এ ক
т я
j am</w>
o je</w>
med el
น า
b ö
е н</w>
es it
кра ї
આ વ
é j
S h
importan te</w>
ب که</w>
ж да
na d</w>
cion es</w>
τα ν</w>
დ ჲ</w>
ro ku</w>
т ъ
โ ด
š ta</w>
ev er
a q
Б о
เร า</w>
od er</w>
ро ку</w>
бай гаа</w>
h ø
મ િ
tan to</w>
u w
d al</w>
det ta</w>
е тся</w>
ci r
ни йг</w>
va d</w>
k os
ल ी
ρο ύ
d iti
δ υ
K ol
C ent
сле д
a ñ
هە ر
б ъ
т ү
g aan</w>
ություն ը</w>
M or
ко ито</w>
z ag
شو ێن
be z</w>
wi j</w>
w ill</w>
ni ka</w>
उ न
ہ و</w>
s ni
ő l</w>
گ ی</w>
ə c
A s
h as</w>
வ ா
po pul
उ न</w>
Can ada</w>
ü ber</w>
ji et</w>
o b</w>
ac tu
k val
ո վ
d or
wi ed
ချ ိန</w>
ပြီး တော</w>
i ed
wir d</w>
so u</w>
א ר</w>
چ ەند</w>
u re
ń st
ni c
st ro
այ ին</w>
ı ş</w>
ज ा</w>
M ag
ë n</w>
ā k
z av
av ec</w>
လ မ</w>
เธ อ</w>
l ement</w>
di ver
s as
qu esto</w>
t on
frå n</w>
ل ي</w>
उ प
с о</w>
παϊ κ
i x
ع ام</w>
ပ ျ
ul i</w>
ní ch</w>
شت ی</w>
k ed
ไม ่</w>
خ ت
ဝ င</w>
L o
k od
ب ڕ
stru c
sv et
ब ं
tiegħ ek</w>
स े
委 员
j as
ဆို တာ</w>
ό μ
ri n</w>
र ख
委员 会</w>
G i
an ya</w>
چ ا
s ü
έ λ
ang an</w>
מ ס
7 5</w>
6 .
ề u</w>
ç ões</w>
sk up
ב ים</w>
í v
sk a
מ פ
an n
ற ு
המ ש
ł o</w>
շ ատ</w>
क रा
ik e
l it
ရ မယ</w>
D er</w>
l ut
ร ร
ब न
P u
με τα
อย ู่</w>
ar d
f ak
다 .
d he</w>
э с</w>
ရ ိ
го ди
κ ά
ศ .</w>
tel ef
સાથ ે</w>
ए का</w>
v es</w>
ল া
l æ
ю т</w>
ထ က</w>
ch ten</w>
W e</w>
ø n
ī jum
h á
ж а</w>
אנ י</w>
A S
ма н
kon kur
ယ ောက</w>
l us
خ ان
m ento</w>
ti v</w>
I D
ti vo</w>
se e</w>
ш у
پ ەی
M at
posit i
स ो
ni ek
ك ل</w>
E N</w>
ին չ</w>
ع ن</w>
A fri
éj sz
re aliz
sa u</w>
ে ছ
aut om
मा झ
. ศ.</w>
بار ەی</w>
ەی ەک</w>
ó s</w>
со н</w>
मा हि
ال خ
व स</w>
на й
pre mi
ေ လ
w il</w>
дэ г</w>
en do</w>
f og
tr o</w>
en u</w>
kol l</w>
in u</w>
īb ā</w>
ι στ
մ արդ
a ł</w>
ικ ής</w>
ห ม
lju di</w>
wi ę
đ ó</w>
ш ы</w>
ل م</w>
с ці</w>
hu v
အ ကြောင</w>
bu t</w>
ab a</w>
dü ş
ji m</w>
n ə</w>
da h</w>
ה ראש
ב ס
हण जे</w>
ا ص
ки х</w>
vo j
j ų</w>
ci d
з үй
л ь</w>
ọ c</w>
เ ท
લ ે
ز ي
l ja</w>
ά λλ
su a</w>
f li
om rå
hi er</w>
zi on
செ ய</w>
A li</w>
ta j</w>
ی ش</w>
م ل</w>
a pro
at or
▁ ้</w>
ј а
ا ً</w>
כ י</w>
f ran
ol u
fre m
ati va</w>
ka ž
proc ed
s li
u res</w>
ب ل</w>
al d
sist em
ā l
তু মি</w>
ini z</w>
m l</w>
E N
tu l</w>
s ú</w>
qu esti
ش ر
દ ા
né ho</w>
en ne</w>
В и
ý mi</w>
s is
ל אחר</w>
O N
ட ு</w>
st abil
C or
ни м</w>
per o</w>
جی او
ē j
כ נ
हो ती</w>
iss ão</w>
ny m</w>
ڕێ گ
h ad
ლ ა
īb a</w>
ж ен
ی ا
y le</w>
J e</w>
σ ύ
ال ف
f ron
Ε πι
am is
eg en</w>
K at
ny t</w>
г ру
न व</w>
شت ێکی</w>
С е
с ка</w>
ગ ા
ပ တ</w>
vi r</w>
ø re</w>
ч ки</w>
2 8
ဆ ို</w>
š ie</w>
i š</w>
ve z</w>
ه ر
pa k</w>
ל ות</w>
v in</w>
လ ိမ</w>
europ ea</w>
E uró
ھ ے</w>
πο ι
. html
c al
ing er</w>
ול י
en en</w>
เ ส
k ak
او ی</w>
нэ г</w>
ก ็</w>
e ľ
em p
sé g
उ स
დ ა
πο λι
K an
ভ া
reg ist
ra da</w>
p us
G ħ
Д о
dal am</w>
S i</w>
ου λ
ac ji</w>
š č
တွေ ဟာ</w>
inst rum
خ وا
N o
ال ذ
க ும</w>
گ ەو
қ а</w>
လ ွ
по ли
e it
લ ી</w>
u ž</w>
de ci
v am</w>
do st
و ێن
א ל</w>
मा न</w>
ור י
al ter
گ ەر
ņ em
huv ud
l ø
а м
ж у
ra g
ор га
ต ั
आ ता</w>
ā k</w>
mil i
स ा</w>
ိ ဳ
च ित</w>
b ri
ar g
ڕاست ی</w>
ب د
k õ
ထ င</w>
하 고</w>
ó l
г ол
लो कां
λ ό
א שר</w>
at s</w>
ü k</w>
ડ િ
vä t</w>
o ch
э н
ai res</w>
M e
resp ec
י די</w>
ti d
v ent
sp raw
ot o</w>
ી ને</w>
tri bu
ლ ვ
or is
ст ви
y aş
j on</w>
3 4</w>
sk ulle</w>
lə r
ग ी</w>
Ե ս</w>
к ел
ق ي
кото ры
որ ծ
parti ci
ئەو ان</w>
हो ता</w>
la y
my ös</w>
မှ ု</w>
l an</w>
sl ed
ک ن</w>
έχ ει</w>
ка за
ul t</w>
ร ู
г ля
č in
আম ার</w>
σ ημ
ش ی
та к
ิ น</w>
po sta</w>
வே ண</w>
य ंत</w>
A p
ચ ા
দ ের</w>
دەک ەن</w>
r ž
as ı</w>
ال ر
р т
ц ы
su p
问 题</w>
ப ெ
ئێ مه</w>
ჱ ა</w>
demo c
j un
f is
om i
hel y
éjsz aka</w>
و ان</w>
ब द</w>
t an</w>
I s
ल क</w>
ေ သ
ال ص
à m</w>
er n</w>
ক া
इ स
ا ء</w>
ra r</w>
پێ کە
v es
ર ૂ
աշ խ
f und
в се
за қ
ti m</w>
ئ ی</w>
ра с
la ik
D o</w>
pu t</w>
ا ب</w>
temperatur en</w>
ast e</w>
ရ ယ</w>
ä ä</w>
ch é</w>
ლ თ
되 었
o di
á r</w>
A ut
j et</w>
मु ळे</w>
έ ν
ek o</w>
ک چ
s '</w>
E w
ist en</w>
ึ ง</w>
پ ە
nu k</w>
d la</w>
ko w
zjon ijiet</w>
ư ơ
eb o</w>
હત ો</w>
ε γ
ەی ان</w>
kö n
U T
t est
خ ر
ဒါပေ မဲ</w>
ap ar
wa ż
باش ە</w>
bi h</w>
то го</w>
რ თ</w>
گەو ر
ու ս
ij u</w>
bi j
i b
d ö
word t</w>
ö ver</w>
la h</w>
am en
g t</w>
gl ed
3 8</w>
ונ ות</w>
ग े
ē r
y r
ת ם</w>
ک ات</w>
இ ல</w>
ק ט
K au</w>
та м</w>
ش ي
k ó
h å
ჟ თ</w>
K or
ج ۆر
ag ħ
f en
մ ան</w>
კ ჲ</w>
d il
f r
it ar
ա մ</w>
क ृ
ိ ပ</w>
in té
u h</w>
2 9
त ून</w>
un ha</w>
ho a</w>
199 9</w>
medel temperaturen</w>
d ır</w>
ค น</w>
ro b
હ િ
mi r
अ से</w>
ال ب
r ät
g ang</w>
f ul
сь кий</w>
ท ำ
ra m
pra c
kl ad
ка з
ch er</w>
ل ئے</w>
پ ێ</w>
с ць</w>
եր ի</w>
ad op
H ol
aç ões</w>
ၾက ည</w>
M en</w>
T r
s un
ဘ က</w>
տե ղ
Con se
ek š
न ी
რ ჲ
ח ה</w>
k rit
europ e
מ ר</w>
E R
af na</w>
ب او
t te</w>
દ િ
र का
E gy
s unt</w>
stru kt
c r
کرد ن
З а</w>
ե կ
ရ တယ</w>
бай сан</w>
่ อ
e ig
c rit
ણ ા
ப ா
d je</w>
G re
ar bet
da ar
ü k
գ ի
kun nen</w>
wa ć</w>
သ မ
e id</w>
v om</w>
း မ
р і</w>
ust a</w>
कि ं
sp ar
O K
f el</w>
d og
ம ா
a qu
સ ે
no ści</w>
må naden</w>
kl ju
م ث
is l
h os</w>
мо же</w>
র া
ای ه</w>
tu r</w>
આ પ
ત ી</w>
c lar
Com isión</w>
b lo
en sk
O n</w>
a w</w>
ก ัน</w>
con tra
3 ,
ε σ
u kan</w>
کەو اتە</w>
ل ێر
இரு க</w>
ေအ ာင</w>
3 9</w>
н ды
z t</w>
E L
ت ەو
hi ja</w>
ска за
l í
会 议</w>
ê tre</w>
li n</w>
dar b
by g
بع د</w>
j ev
Σ υ
4 6</w>
ي ك
T ür
du t</w>
ni ce</w>
ân d</w>
ட ிய
ự c</w>
st ad
n ə
де ка</w>
с ва
wi ą
W i
ન ે
ق د</w>
z en
S ig
7 .
ن گ</w>
mer c
3 7</w>
l on
mer eka</w>
ונ י</w>
en cia</w>
و ج
A us
P ra
Com issão</w>
გ ა</w>
ေန ာက</w>
ست ان</w>
ε ων</w>
ە م
tä m
di z
ल ो</w>
aw ak</w>
ե ղ
း ဆ
П а
те х
सा ंग
у ла
сько го</w>
ف ێر
ပြ ောင</w>
E ng
ma q</w>
հ ար
သံ များ</w>
ap pro
s ø
ผ ู
su l</w>
եր ը</w>
র া</w>
य ह</w>
n å
s vi
на м</w>
ta hu</w>
tod o</w>
نی ە</w>
δι κα
ق ی
tra kten</w>
ite v</w>
pa si
G ru
pre sid
ի մ
ف ی
هە ند
ک انی</w>
Euro pos</w>
4 8</w>
נ ג
po ten
st en
ederbör d</w>
ست م</w>
하 였
ז ו</w>
t ent
f ig
श ो
Ευρ ω
d í
R a
ча с</w>
خو ێ
น ะ</w>
ко в</w>
am p
Н а</w>
prz ez</w>
ن مو
qu al
E S
п ри</w>
य ला</w>
at ă</w>
ह त</w>
ควา ม
но то</w>
ێ ر</w>
kom missi
C at
ả o</w>
T V</w>
tig t</w>
က တော</w>
c as</w>
R i
ι νο
en za</w>
το ύ
ի կ</w>
дз е</w>
ק ים</w>
e urs</w>
н ь
א ם</w>
Π ρ
i di</w>
η τ
ी ल</w>
ע ות</w>
م ت
ij os</w>
an y</w>
ա լ</w>
5 5</w>
र ति
ד ו</w>
w ij
S al
l ec
un o</w>
T ö
b ę
p ek
س ب</w>
ста н</w>
ap li
j ut
တွေ က</w>
με ν
Euroop a</w>
st va</w>
ט ה</w>
lab or
un da</w>
k is
u vo
é g
ર ે</w>
mat eri
S ec
ө л
ல ை
لە م</w>
á t
j adi</w>
as .
ώ ν
in den</w>
အ ရာ
هە رو
tre bu
ó k</w>
м ного</w>
ন ি
sist ema</w>
ز ه</w>
b od
l ap
D es
ст і
ва ння</w>
ij ke</w>
a iz
այ ն
ak s</w>
Y or
का म</w>
ş ə
ar na</w>
tr on
ال ا
श क</w>
ण ी</w>
vil le</w>
ան ի</w>
sen ti
ক ি</w>
s od
ны я</w>
ro m
og ħ
այ դ</w>
π τ
hab en</w>
ł y</w>
L is
э то</w>
მ ვ
ve č
N aj
כ ך</w>
मा र</w>
স া
ح ت
ко л
στι ς</w>
F re
сто я
GM T</w>
z dra
વ ે
دو ای</w>
b re</w>
ал і
ว ั
k ül
st em
Amer ik
p aj
ı y
во з
ві д</w>
k ada</w>
l es
so k</w>
de sp
u w</w>
გ ვ
ه ەو
გ ჲ</w>
5 6
на с</w>
paí ses</w>
Б а
تر ین</w>
ပေ ါင</w>
वा स</w>
ал о
mis s
kam i</w>
m ô
probl ema</w>
M ad
de j
מ ר
अ ं
s ẽ</w>
q i
v ra
k el</w>
အ င</w>
ဘူ း
D o
kter é</w>
c ost
ш і</w>
f s</w>
m ati
ט ר
کر دو
ed il
ð A
s as</w>
па ра
tur e</w>
रा त</w>
า ง</w>
ein en</w>
ÿÿÿÿÿÿÿÿ ÿÿÿÿÿÿÿÿ
um e</w>
ku i</w>
แต ่</w>
е м
ו ם</w>
č as
kam u</w>
த ெ
फ ि
ی ی
да н
ય ુ
l or
må ste</w>
ր ա</w>
all y</w>
و م</w>
f az
K os
l jan
ટ ે
w el
tä ä</w>
gang er</w>
h ọc</w>
g over
m ere</w>
இ ந</w>
f e</w>
ρο υ
u ar</w>
ن ها</w>
li m</w>
T ar
ի ր</w>
v ak
m at</w>
ast i</w>
ec z
ữ ng</w>
et o</w>
Б и</w>
या स</w>
о ро
ti a</w>
હત ું</w>
hi ch</w>
င ါ
ပြ င</w>
ن ظ
ri e</w>
g ada</w>
हो त</w>
па д
ці ї</w>
ti me</w>
S el
li č
I t</w>
هذ ه</w>
λ α
yo ur
a it</w>
ئەو ە
ین ی</w>
ப ோ
ञ ा
би д</w>
अ र</w>
val aszt
દ ી
th ể</w>
valaszt as.
g ü
ma z
ktor é</w>
ێ ژ
જ ી
դ ա</w>
ta d</w>
le en</w>
н ен
ش ک
ein er</w>
ба р
el s
tan t</w>
ar y</w>
စ စ</w>
t h</w>
अ नु
ધ ી</w>
ү з
G er
ц ы</w>
ב ק
zi a</w>
l ot
l àm</w>
بھ ی</w>
th re
Ew rop
ึ ่ง</w>
ing s</w>
l eri</w>
ं द</w>
ij as</w>
რ ო
მ თ
ри я</w>
i ci
t ing</w>
jä l
ti j
at es</w>
e w</w>
de put
đ i</w>
хэ эр</w>
o ike
e ž
م ێش
та ко
س م</w>
ter r
κα θ
inc lu
ti es
હત ા</w>
c ji</w>
લ િ
ç al
er et</w>
ن ات
پێکە نین</w>
ộ c</w>
ნ თ</w>
c í
ေ ရာ
zi k</w>
ţ ii</w>
vä n
ام ی</w>
f ej
o ur</w>
่า ง</w>
k ə
เ ช
้ น</w>
us s</w>
ဗျ ား
습 니다</w>
tam b
lo ài</w>
wi e
أ و</w>
ст і</w>
ú l
ย า
T ri
d on</w>
i et
nec es
ικ ών</w>
re b
кі в</w>
သ တ</w>
המ ו
w hich</w>
ө ө</w>
k imi</w>
В а
ла р</w>
ro l
ह शा</w>
som s</w>
et ti</w>
st ä</w>
μ η
S o
ươ ng</w>
้ ว
က ြ</w>
com pl
ע ד</w>
f å</w>
आ म
f a</w>
ü h
к ү
hand l
i do</w>
ی یەک
ni ci</w>
M is
K u
g un
c s
ա ջ
այ ց</w>
ist e</w>
G ro
ל ג
r s
W ÿÿÿÿÿÿÿÿÿÿÿÿÿÿÿÿ
T ôi</w>
M it
મ ે</w>
τ ες</w>
de ğ
ní m</w>
व र
ու ք</w>
چون کە</w>
ħ afna</w>
об ла
ה ן</w>
H an</w>
od po
t et
ə k</w>
က မ</w>
g s
դ ե
י ותר</w>
у ча
polí tica</w>
ד ת</w>
dan a</w>
tur i</w>
আম া
mas ı</w>
στ α
fo i</w>
στ α</w>
u ut
Р о
n ji
έ κ
x a</w>
ပါ င</w>
ध ी</w>
me er</w>
ه ر</w>
ka ik
լ ին
ဖ ွ
д я
या वर</w>
p s</w>
ە و</w>
aci ones</w>
D em
и ма
сы н</w>
发 展</w>
хэ рэ
و ی</w>
כ ול
Par lement</w>
چ ار
tamb ém</w>
ن ت
US A</w>
mu si
š o</w>
ri i</w>
श े
u g</w>
ав то
t ing
m ents</w>
ை க</w>
sk u</w>
st ud
પ િ
т ру
us a</w>
ج ان
con cer
ố ng</w>
алы қ</w>
D ia</w>
မ ှ</w>
ñ or</w>
z b
ov ať</w>
پێ ش
u por
sl ag
ty m</w>
но ви
ş ı</w>
گ ا</w>
ب ات</w>
त क</w>
ini ų</w>
ர ிய
sol id
ter e</w>
ó i</w>
م را
5 1</w>
ī gi</w>
گ ەی
it os</w>
не н</w>
ك ي
ख ू
ہ ا</w>
щ а</w>
שרא ל</w>
for m</w>
H u
м но
ပ ညာ
G r
si den
ni s</w>
အ လ
al ebo</w>
H r
4 4</w>
ဆ ီ
အ လုပ</w>
Uni on</w>
ке н</w>
pr ó
š u</w>
għ u</w>
v est
на н</w>
po zi
ე ა
a al
in san
գ ործ
პ თ
د د</w>
.. ..</w>
τ ά</w>
ա բ
є ться</w>
ту р
di y
मा न
कर ने</w>
si o
ט ים</w>
bil i</w>
j ist
Επι τροπ
γ ρα
מ ק
prot ec
κ ε</w>
са м</w>
sk ab
ill ä</w>
ul e</w>
o de</w>
მ ა</w>
က ုန</w>
log your
logyour run
com mun
r al
ρ γ
fun k
ج ێ
со б
خو ار
ت ص
ri c
م او
k ab
el o</w>
sho w
ότη τα</w>
ျ ခ
ка б</w>
Parlam ent</w>
zi e</w>
do cum
st u</w>
ре н
ی اری</w>
ন ি</w>
ન થી</w>
خوێ ند
in s
pom o
ка та</w>
r unt</w>
medlem s
dow s</w>
R us
y on</w>
it en
ال ي
ال ث
g ospod
ு க</w>
ж ұ
ch te</w>
อ น
R u
հե տ
m är
gov or
စ ွ
မှ န</w>
G ar
έ σ
أ ي
in tel
ە ها</w>
G al
เ ว
pi o</w>
svo je</w>
t í
фор ма
خ ه</w>
emb ros</w>
ले ल</w>
ξ η</w>
ڵ ی</w>
да м</w>
Tö bb</w>
du r</w>
yü k</w>
n ement</w>
צ ות</w>
zit ter</w>
گ ا
v on
і х</w>
d war</w>
ب چ
n an
ב ו</w>
pri v
ال ط
ग या</w>
me z
bil e</w>
i da</w>
gar anti
nation al</w>
ל ה
ұ л</w>
န စ</w>
ત િ
sp er
ε φ
ं ना</w>
dė l</w>
d ata</w>
g ri
l d</w>
工 作</w>
ig a</w>
s í
g ün
i er</w>
р т</w>
τικ ό</w>
h vis</w>
Wÿÿÿÿÿÿÿÿÿÿÿÿÿÿÿÿ ÿÿÿÿ
rez ult
V or
pl an</w>
ո ս
za č
国 际</w>
res ult
probl em</w>
vi ņ
ss ä</w>
ist ä</w>
đ ầu</w>
с ал
sp e
л ер
ότ ερ
l at</w>
z et
V ol
שנ י</w>
פ י</w>
for sk
ο ν</w>
T ran
mor e</w>
Б і
با شت
စ က</w>
ī t</w>
q a</w>
ب ێ</w>
بکە ن</w>
жы л
гэ эд</w>
dis c
Europe an</w>
4 2</w>
p us</w>
в се</w>
N a
H e
स ी
ק ר</w>
ÿÿ ÿ
ла р
ç ok</w>
S an
n ur</w>
ht ml</w>
R es
M ed
oc k
ge en</w>
del se</w>
j ą</w>
m soms</w>
im ent
an al
то а</w>
il ə</w>
น ั้น</w>
d um
и ма</w>
anim e.
ن ێ
di ge</w>
U n</w>
az ă</w>
B r
Ĉ u</w>
i u</w>
ွ က</w>
ست ه</w>
z al</w>
ب دە
sp ek
स ून</w>
تھ ا</w>
े त</w>
ا پ
a ż
х гүй</w>
al l'</w>
S te
ब ि
вэ л</w>
რ ვ
च ि
P r
re k
li ke</w>
ד ם</w>
lu i</w>
z y</w>
na ar</w>
pri č
ღ ვ</w>
ח ות</w>
ի կ
сы ның</w>
con tribu
ac i</w>
x e</w>
ب ان
O d
ર હ</w>
u da</w>
ni g
ess ere</w>
pra w
οπο ί
Д е
der es</w>
ch úng</w>
y s
á c</w>
D it</w>
किं वा</w>
ב עי
ni ec
ol la</w>
μ ι
3 00</w>
đ i
ты м</w>
is esti</w>
F og
le de</w>
сы нда</w>
у да
bi ja</w>
ut es</w>
с но</w>
ी त</w>
ро ва
ရ ပ</w>
ব ল
h am</w>
گ ر</w>
ва ж
м ә
ma k</w>
á d
ش ە</w>
у т
प ो
A v
u š
ba h
အ ခြ
μο υ</w>
си сте
B en
ב צ
g res
p y
pun kt
घ ा
เป็ น
el u</w>
ц э
bi amo</w>
s ät
ส ิ
K o
ं द
то ль
दो न</w>
on u</w>
பே ா
D er
हण ून</w>
дз е
v s</w>
k ot
ב פ
з ра
و ەر
联 合
z al
χ ώρ
s ão</w>
т я</w>
щ о
и м</w>
အ ာ
Ch ú</w>
mu ka
ł o
l os
та р</w>
ს ა
ไ ร</w>
לי ת</w>
ש י</w>
ေ ၾကာင</w>
J oh
m os
ड ि
מ כ
t om</w>
ह णा
tam bi
τ ε
a al</w>
тер и
dzi e</w>
le x
R O
т ен
sp ra
tambi én</w>
م ق
C re
Қа зақ
พ ระ
ส ุ
в і</w>
sy n
ха р
ற ி
d ap
h ä
报 告</w>
P a
ist i</w>
it or
U nie</w>
o kol
ma h
dec lar
ի մ</w>
ва та</w>
e š</w>
U N
Е вро
е е</w>
B ud
g ed
3 0
ன ால</w>
ÿÿÿ ÿ</w>
一 个</w>
væ r
श िक</w>
vi ol
เ อ
ל נ
ко м</w>
sam me</w>
Commissi one</w>
યાર ે</w>
מ ט
પ ર
ί δ
re a</w>
OK text</w>
h ak
vi d</w>
con tra</w>
ی ەک</w>
ต ิ</w>
ে ই</w>
ي م</w>
z or
ան գ
jo j</w>
I r
vag y</w>
ն ել</w>
ड ा
ч на</w>
τ ι</w>
ه ا
ပါ မယ</w>
4 1</w>
ac a</w>
pa i</w>
ú n</w>
א ים</w>
ra č
n ed</w>
ста н
mi a</w>
জ ন</w>
sl ut
ան ք
tem po</w>
in d</w>
at ea</w>
هەرو ەها</w>
vä r
s os</w>
ا ين</w>
εδ ρ
ni č
d s
d ů
કા ર</w>
ter i
th u
ژ ی
မှ တ</w>
ồ i</w>
στ ε</w>
ر ف
ś ci
ئ ای
la sti</w>
ս պ
όσ ο</w>
sp ē
ખ ા
پر سی
ต ร
ка р
Uni one</w>
n '</w>
m ū
бол но</w>
तुम च</w>
c er</w>
in im
tra b
က ု
4 9</w>
гэ эр</w>
κα λ
6 5</w>
α φ
qu est
produ kt
nj eg
联合 国</w>
ậ n</w>
t ör
ခ န</w>
μπο ρ
यो ग</w>
ch i</w>
on line</w>
त र
ય ો
প ার
con sum
B ul
ч ер
m å</w>
fot ogra
ướ c</w>
то в</w>
é p
2 .</w>
ko sk
ב ת</w>
nh ững</w>
çal ış
ad y</w>
ل ۆ
l um
g am
ယ ာ
ை த</w>
nos ť</w>
lal ás</w>
- -
Pro gra
Çá ã
ת ן</w>
ေ က
ա փ
но е</w>
ந ா
λό γ
கிற ேன</w>
та н
si one</w>
P os
ме ж
potre b
b ab
Her r</w>
ห า
u er
ap r
d .
સ મ
es se</w>
آ ن</w>
ပြ ီ</w>
h em</w>
в у</w>
n år</w>
princi p
ová ní</w>
á k</w>
sp ec
બ ી
ဖ ို
d ē
ج ا
αλλ ά</w>
ικ ές</w>
qu anto</w>
k vad
دە چ
စ ဉ</w>
ба р</w>
son ra</w>
n hi
A C
h ere</w>
th e
ti ka</w>
N ov
V ə</w>
أ ك
S tre
A ust
Yor k</w>
d å</w>
sk ut
D as</w>
u ż
ေျပ ာ
b ë
on da</w>
հ աս
s ut
re solu
по лу
հե տ</w>
եր կ
и л
ф о
ст ру
y ak
ئە مە
s ev
бы ў</w>
em u</w>
ုိ င</w>
я кі</w>
உ ள</w>
உ ங</w>
ң і
کۆ مە
ჟ ყ
si m</w>
હ ી
ფ ვ</w>
āci jas</w>
atti ec
ח ל
ذ ا</w>
то р
ө өр
lig en</w>
ül t</w>
ä h
ك ة</w>
ag ra
am i
ה אי
ჲ რ</w>
y ti</w>
о й
er er</w>
a os</w>
h on
pi er
ation en</w>
kilomet er</w>
iti es</w>
مج ھے</w>
medlems stat
g az
j it
ю ть</w>
aj ā</w>
н де</w>
ե ց</w>
ရဲ ႕</w>
cas o</w>
em ente</w>
ئە نج
s ult
b ase</w>
ik an</w>
pro vin
ব ি
П е
प ि
y er</w>
lan det</w>
či ų</w>
l ob
zi ņ
on i
ש ם</w>
ü r</w>
အ ထ
ان دا</w>
ņ ē
ku p
á ng</w>
ap i</w>
g å
ost at
ડ ા
င ယ</w>
း စား
ဒါ ဟာ</w>
b az
我 们</w>
я ны</w>
ند ی</w>
kun ne</w>
ჲ რ
G ra
F ac
व ह</w>
လ ံုး
g år</w>
4 ,
यां नी</w>
l ud
ού ν</w>
प ै
ั้ ง</w>
s ini</w>
ko u</w>
er ede</w>
ئ ۆ
J ah
5 2</w>
ist o</w>
जे व</w>
il s</w>
P en
קו ם</w>
ну ю</w>
ट े
ờ i</w>
sá g
ne h
пе й
ap art
199 8</w>
พ ว
gen de</w>
сько ї</w>
4 3</w>
ז ר
Commissi on</w>
s ē
ка к
sk ých</w>
по мо
ด ี</w>
ot e</w>
к ры
t ed</w>
μ ερ
ν ται</w>
soci al</w>
k on</w>
че ски
In st
z ur</w>
ჲგ ა</w>
फ ा
al ă</w>
por que</w>
있 다</w>
ми ни
но в</w>
ско й</w>
y j
en je</w>
ბ თ
D om
x im
ร ์
қа ра
સ િ
te ur</w>
n or</w>
زان م</w>
जा स</w>
स ू
ка м</w>
տե ղ</w>
де п</w>
t ý
အ ခု
တွေ နဲ</w>
بۆ یە</w>
ung s
el j
k us
f år</w>
अस ेल</w>
at er
íc í</w>
ü m
ki f</w>
M us
ن ف
μα τος</w>
var i
ه م
o jn</w>
L on
ي ر
მ თ</w>
ما ش
ب هێن
कर ू</w>
နေတ ဲ</w>
b bli
j ę</w>
ma i
коно ми
F ra
น ั
c ă
ب ين</w>
י י
t es
ն ա</w>
as z
वि चार</w>
è me</w>
jä sen
u ver
si t</w>
е цца</w>
demo krat
pro ti</w>
it ar</w>
in fra
ck et</w>
re fer
f em
း တဲ</w>
ब े
eb ru
I C
โด ย</w>
l ə</w>
orszá g</w>
ဆ ိုင</w>
ա վ</w>
g eg
ve ľ
9 9</w>
ба с
s y</w>
နေ ရာ
Fog lalás</w>
po v
b om
स र
upor ab
ע ים</w>
ี ่
m am
ab or
ա խ
এ খ
י ת</w>
و م
شت ێک</w>
ве т
con di
н к
sz ob
si de</w>
ч а</w>
m est
5 6</w>
း တစ</w>
մաս ին</w>
o ti
кі я</w>
ט י</w>
ù ng</w>
del ay
δ ύ
ה עי
h ad</w>
ц ел
у с
fø l
sig ur
m us</w>
di st
üt ün</w>
ы н</w>
ट र</w>
μ ό</w>
Vo or
מ ד
koll ha</w>
el ec
olar ak</w>
ک ەی</w>
в ни
do ğ
որ ը</w>
б ел
ע ת</w>
mod o</w>
ε ια</w>
jum u</w>
मि ळ
a ya</w>
e v</w>
م ۆ
o ja</w>
í ch
a in</w>
ေ ပါ</w>
ө з
ین ه</w>
ъ т</w>
min us</w>
আ র</w>
su per
v å
政 府</w>
s ot
д ър
se k</w>
k or</w>
ကြ တယ</w>
t we
N h
drž av
ช า
m el</w>
cu i</w>
v as
ev rop
L E
้ อ
ki m</w>
ti ek</w>
е го</w>
lar a</w>
d ing</w>
el or</w>
jo š</w>
F er
r ö
બ ે
l ek
Н и
v ə
í n
ха ра
ك ر
e ğ
I ng
pē c</w>
ە ت
em s</w>
pe č
5 9</w>
sz ál
stat en</w>
ط ر
e p</w>
ek i
O R
ст ы</w>
ર ા</w>
σ α</w>
ph ải</w>
des sa</w>
it er
தி ல</w>
ठ े
v ä</w>
uk sen</w>
کار ی
A k
ամ են
le ur</w>
μ π
ком па
må l</w>
het en</w>
h il
es per
b rit
க ொ
et ta</w>
ன ை</w>
Kom isi
c â
જ ે</w>
ost a</w>
p å
god ina</w>
3 8
so ur
d ak
h eder</w>
提 供</w>
T im
l op
se u</w>
আ প
um i</w>
si z
c op
ț i</w>
J ed
ج و</w>
ڕاست یدا</w>
组 织</w>
ac est
פ ת</w>
p t</w>
ट ि
delay ed
pa š
ef ter
ထဲ က</w>
dokum ent
p õ
ل ێ</w>
ườ ng</w>
me k</w>
ક ો</w>
ovan je</w>
दे श</w>
progra m</w>
bi a</w>
h vor
ol o</w>
v ào</w>
তো ম
ли йн</w>
com pet
b ran
ու ց
kom un
ל ת
ra j
И н
η μα
ע ר
w sp
Europ ej
in iti
ات ی</w>
ύ ρι
کۆمە ڵ
co oper
ল ো</w>
S ar
ва ць</w>
યા ં</w>
pas s
aci je</w>
k st
P ot
σ τον</w>
z ul
نە خۆش
ha ar</w>
ष ण</w>
א ך</w>
en da</w>
n ú
থ া
eni u</w>
mem ber
am u</w>
અ ં
ñ a</w>
Д а
4 7</w>
ż i</w>
B ro
om en
a ud
ti o</w>
ม ี
αν τι
י ש</w>
са мо</w>
5 4</w>
ז כ
хэрэ г
ळ ी</w>
တို ႔
se pt
ပြ ု
p á
এ টা</w>
god ine</w>
pro pri
inform ation</w>
या र</w>
г ро
ю щи
ό χ
сь ка</w>
w ur
αν ά
á m</w>
5 0
and ra</w>
f ter</w>
contin u
ни ето</w>
ন া
un ci
र मा
ο ικο
ļ u</w>
б я
п ло
ad z
ب ی</w>
før ste</w>
I T</w>
שנ ים</w>
en as</w>
R ob
ты ң</w>
پ ه</w>
nu est
вел и
گر نگ
لە بەر</w>
দ ি
sk og</w>
t ac
T re
z é
O h</w>
mi ş
သ ေ
с ен
با ش</w>
מ ש</w>
pred sed
دە م
ب ي</w>
su c
f akt
ха м
хэ л
dra g</w>
ro š
о р</w>
ה שי
pe ci
கள ை</w>
B ra
k ell
ко й
p ati
ش ان
na h
ف ق
Κ ο
т ря
N i</w>
η γ
V en
sk at
b org
ք ան</w>
لە بەر
p in
po zn
ျပ ီး
K al
hu x</w>
ע צ
А л
ма й
т ті</w>
mi r</w>
бай х</w>
F il
въ з
pod por
רו ן</w>
W or
თ ჱ
var a</w>
ન ી
ev en</w>
સ ર
id än</w>
вал и</w>
d ent
ա ծ</w>
ro č
va ir
ε τ
re ik
do en</w>
س ەی
t ec
по ве
ag re
li ik
s æ
wią z
rez er
og le</w>
co un
i ra
kel l</w>
o x
it et</w>
3 6
ka ip</w>
pr il
ті к</w>
х ра
M edi
i da
ду к
li a</w>
dig t</w>
at ud</w>
на у
က လေး
بکە م</w>
b b
um ent
ပ ထ
פ רי
दि स
س م
st and</w>
वि श</w>
si en</w>
ျ မ
di en</w>
न ं
κο ιν
ι ο
φορ ά</w>
אח ד</w>
th ích
во д
от но
ar te</w>
ги йг</w>
pro d
ber g</w>
ա ք
c ris
has zn
à n</w>
тел и</w>
я е</w>
g ol
כ ת
প া
sam a</w>
ac est</w>
je j</w>
P at
rig ht</w>
ú bli
po w
ij o</w>
5 8</w>
या मुळे</w>
म ग</w>
կ եր
est ab
ထား တဲ</w>
st el
m õ
бі р</w>
jum s</w>
m á</w>
y o</w>
پێ ش</w>
E m
ب و</w>
ด ้ว
y ol
လျ ှ
o ħ
ب ه
ν έ
म ध
Î n</w>
5 ,
ս կ
is z
g ì</w>
u ch
κ υ
e ar
ê m</w>
m nog
ovan ie</w>
ў с
ell en</w>
่ อ</w>
ig i</w>
B il
stell en</w>
sk im</w>
տ ր
UT C</w>
u b
ning s
z ou</w>
كان ت</w>
pu bbli
li chen</w>
ж и</w>
é ri
č o</w>
Ευρω παϊκ
den s</w>
pel o</w>
ф а
та й
ক ো
ва р
دو و
ek si</w>
ח ק</w>
စ ည</w>
িয় ে</w>
f an
am in
دە دە
ni cz
і м</w>
ز ار
ան դ
h ran
y ax
b ü
ś my</w>
အ မ
bu vo</w>
بک ات</w>
man a</w>
st ra</w>
մ եր</w>
ավ ելի</w>
is ia</w>
s j
ec on
an ju</w>
वा र</w>
တ ောင</w>
ั้ ง
ы г</w>
ţ ia</w>
ে ছে</w>
τ ί
om en</w>
ста ви
היי תה</w>
प ी
er ia</w>
os i</w>
স ে</w>
စ ကား
ی م</w>
ра з</w>
e ş
pro to
nar od
a ur
ac ak</w>
ve au</w>
dal īb
T ak
met a</w>
đ ến</w>
د نی</w>
கிற து</w>
ве да
м үү
ရ ောက</w>
vš et
そ の</w>
h ele</w>
पा हि
t ú
ол и
त री</w>
đ ể</w>
่ ง
ā kum
ك ن
פ ות</w>
พ .ศ.</w>
ст е</w>
چ ھ
д на</w>
z eg
е в</w>
pred stav
بو د</w>
د و</w>
ve k</w>
j ur
न ों</w>
ک م</w>
n ja</w>
aut res</w>
gi o</w>
в ла
रा ं
г да</w>
क ी
à ng</w>
tagħ hom</w>
o ji</w>
M O
ini ci
ri z
র ে</w>
lə ri</w>
ц я</w>
ဖ က</w>
с ли
n ella</w>
هۆ ی</w>
سا ڵ</w>
ό ρ
na v</w>
э э
kon om
ס ה</w>
ə n
paj ji
Гэ та</w>
व त
எ ன
5 7</w>
ထဲ မှာ</w>
n an</w>
K un
us ed</w>
o cu
بەک ار
va ik
εί α</w>
ock så</w>
n å</w>
ந ாம</w>
prá v
in om</w>
지 만</w>
5 3</w>
ol i
i ent</w>
prof es
ig t</w>
o ko</w>
l än
y ar</w>
ро в</w>
က ာ
ло ги
a ć</w>
p av
de ve</w>
у д</w>
ge ç
ણ ી</w>
A s</w>
id enti
ต้ อง</w>
s aj
כ ל
ח ת</w>
mu ut
ė j
j ali</w>
ing år</w>
at er</w>
Д а</w>
di fic
d aki</w>
پەی وە
٠ ٠</w>
či au</w>
ek e</w>
hist or
ဦ း
พ ร
klju č
or t
w al
до о</w>
دە دات</w>
เ ค
ჟ ვ
Z a</w>
j sou</w>
қа н</w>
pri mer
og u</w>
g esti
س ات
в си
بوو م</w>
வ ெ
ê u</w>
h ur
em me</w>
nec ess
дэ эр</w>
k es</w>
el eg
આ વ</w>
ટ ી
respon sab
al so</w>
с вя
fil m</w>
n ým</w>
ob jec
ề n</w>
եր բ</w>
I ch</w>
mod er
in es</w>
ä t</w>
г ер
ά δ
خو د</w>
ق ع</w>
b us</w>
el es</w>
ti ge</w>
но му</w>
ար ձ
ơ n</w>
il g
y ı
ர ும</w>
င ြ
အ ကြ
a zi
ู ก</w>
ה ט
gi v
ī s</w>
ва с</w>
m no
si l</w>
လို ႔
per s
bil i
bel ang
ko z
या चे</w>
el se</w>
gospod ar
bet re
са на
ig u
z ost
ի ս</w>
ті н</w>
те р</w>
こ の</w>
ज ो
s ang
ना ही
த ான</w>
and ere</w>
οπο ία</w>
J u
jo ka</w>
M ak
ၿပ ီး
z nač
ב ד
á ch</w>
en é</w>
k ke</w>
D is
a .
ל הי
த ா
د ن
A B
en vi
ti sta</w>
کۆ م
vi sta</w>
vo isa</w>
Lat vi
h ed
م ر</w>
se b
d ži
με γ
дз я
h eden</w>
שנ ה</w>
An da</w>
sá g</w>
К и
ef ek
بار ه</w>
တ က</w>
t el</w>
B rit
A g
ž u</w>
הי ו</w>
m ange</w>
нда ғы</w>
pa ńst
s ci
زان ن</w>
па с
अ ग
ứ c</w>
Voor zitter</w>
aj te</w>
č len
lu gar</w>
خ ێ
cri min
1 1
U kra
د ای
na ch</w>
း သ
ու ղ
no w</w>
meg et</w>
ser v
í me</w>
شت ه</w>
خ را
บ า
ta ut
c os</w>
de d</w>
વ ધ
च ु
olduğ unu</w>
mo t</w>
f in</w>
j š
pra vi
တာ ကို</w>
ול ה</w>
یەک ی</w>
भ ि
мэ дэ
ժ ամ
T or
မျ ှ
ко й</w>
li mit
ne i</w>
ř ed
ب ہ
ήσ ει</w>
ш и</w>
ma ste</w>
къ м</w>
က န</w>
tiegħ u</w>
ہ و
ско го</w>
f ly
C er
s ų</w>
ec i</w>
Τ ο</w>
D a
vil l</w>
pa ys</w>
M a</w>
κ λ
했 다</w>
h am
y al
æ r</w>
4 00</w>
ti co</w>
nh ư</w>
ti t</w>
é ben</w>
س ة</w>
fra m
Kommissi onen</w>
s le
د او
k te</w>
э э</w>
A pa</w>
valasztas. hu</w>
ö ver
ભ ાર
util iz
ş ey</w>
κατ ά</w>
sig ni
ဖ န</w>
ان ت
t ego</w>
ó mi
d ır
Z i
or az</w>
ма р
အ ဲ</w>
si den</w>
ố i</w>
ov á</w>
ჟ თ
ე თ
ป ี</w>
са й
k si</w>
пу бли
ř í</w>
ز انی</w>
έχ ουν</w>
z ast
vä l
M et
ra ž
ی ەوە</w>
ساڵ ی</w>
ke it</w>
ا ح
ம ி
ati v</w>
ב ן</w>
re form
အ များ
က နေ</w>
g al</w>
te j</w>
पा सून</w>
မ ာ
အတ ြက</w>
ڕو و
tre ba</w>
ka m</w>
s ı
т но</w>
lu b</w>
ב רי
t õ
ડ ી</w>
in k</w>
т гэ
aci ja</w>
лі к</w>
น ิ
ố c</w>
k ör
ס ף</w>
któ re</w>
с ли</w>
to g</w>
per ti</w>
j sem</w>
β α
εί ς</w>
l ại</w>
ب چو
ה בי
mo že</w>
ե ս
пі д
mog u</w>
प त</w>
เ ห
sl ä
st op
N u</w>
re m
kh i</w>
yh te
य ू
pre d</w>
αρ χ
E in
de gli</w>
د انی</w>
स ग
not eik
на н
ձ ե
k us</w>
h aj
ավ որ
s hi
ნ ჲ
n ą</w>
ή ρ
post av
ဒီ လို
J an
bo l</w>
б ва</w>
д ний</w>
dat ab
و أ
க வ
ig i
τικ ής</w>
з я
eg in</w>
ти я</w>
म ी
mə y
Х а
ं ड</w>
ι ο</w>
my cket</w>
pri ekš
rap por
u la</w>
g or
prz ed
ö ssz
ot t
ní ho</w>
mu ito</w>
қ ар
сту п
هێن انی</w>
ئێ وە</w>
úl ti
soci ale</w>
et ti
d z</w>
ц у
κ ρα
է ին</w>
થ ા
li et
pä ä
ю у</w>
EU R</w>
ہ ی</w>
бе з</w>
at ed</w>
kvad rat
sav o</w>
দে খ
παρ α
ب ین</w>
a ast
em y</w>
wa y</w>
sek tor
အ န
ဆ န</w>
Πρ ό
ە ز
ئە م
an za</w>
n ab
s ell
ı yor</w>
tr y
ve č</w>
г оло
ein em</w>
σ ία</w>
ха н</w>
ჟ ა
Ch ar
ci ju</w>
di stri
pré sent
ج ا</w>
હ ી</w>
ً ا</w>
М е
по ло
uni on
jan u
мер и
अस ते</w>
κ ρ
Sen hor</w>
աս տ
ה או
ħ aj
ท ำ</w>
B aş
l ö
ရွ င</w>
वे ग
א ן</w>
τη ρ
m hux</w>
Н о</w>
ski ej</w>
í tá
ro k</w>
ţ ie</w>
ду ма
en n</w>
on d</w>
syst em</w>
အ ခ</w>
au f
s z</w>
mis e</w>
փո խ
社 会</w>
ան կ
re d</w>
प ड
Hr vat
ả n</w>
အ ချိန</w>
بە ڵ
է ի</w>
m obil
dy n</w>
တ ီး
αυτ ή</w>
H am
k ning</w>
μέ νο
bis a</w>
9 5</w>
म ा</w>
min t</w>
دا ر</w>
อ ร์</w>
هە مو
ակ ան
kä yt
M ich
ск ла
ү ш
x u
ku š
s ą</w>
ק י</w>
ผู ้
پ ۆ
L os</w>
գ ր
pod at
ko j
rat i</w>
하 여</w>
er it
g ek
מי ת</w>
п я
st ør
э рэ
ن ج</w>
မွ ာက</w>
н ша</w>
j an</w>
ە مان</w>
بی رۆ
پ ڵ
अप ने</w>
Uni ón</w>
ré sz
ва л</w>
א ות</w>
kl as
an den</w>
R E
ты қ</w>
P an
ér t</w>
o or
ို း</w>
ا ع
پ اس</w>
ö r</w>
m are</w>
h in</w>
form and</w>
e ch</w>
ge w
inde x
g as</w>
fac e</w>
घ ड
org .2016</w>
almohandes. org.2016</w>
m än
ме р</w>
း ေတြ
int re</w>
א לי
Y ou</w>
P on
သ န</w>
ud vi
в ра
t us
fö re
ies pē
impor t
g ál
ac ağ
ب ڵێ
n heer</w>
em is
con tr
कर ते</w>
တ ုန</w>
z um</w>
e it</w>
с си
ng o
ש ות</w>
सा थ</w>
sol o</w>
کە م
sid ent</w>
ch ar
ه ي
S an</w>
au si
ل ع
စ ရာ
र ों</w>
Uni ão</w>
os sa</w>
W il
vis i
အား လုံး
ေပ း
t ale</w>
ถ ึง</w>
đ ây</w>
મ ળ
બ ં
Т е
g ie</w>
мен т</w>
वा त</w>
ren de</w>
ez e</w>
gran de</w>
N ap
or ev
ו ח
u u
prez ent
pl uss</w>
ch es</w>
थ ि
պ ար
199 7</w>
ab ri
င ံ
مر ۆ
با ز
ē tu</w>
han no</w>
ख े
val ti
š ana</w>
ư ng</w>
εί χ
ak se</w>
зи ден
бе ре
օ ր
ř eb
те л</w>
ש ת</w>
vi du
j agħ
ي ع
e et</w>
b in</w>
А ле</w>
è res</w>
op ini
on ze</w>
kön nen</w>
ji ġ
l ill</w>
ве к</w>
ج ار
Or gan
мя не</w>
zi ch</w>
la z
ộ i</w>
ใ จ</w>
про из
ли ч
א מ
bis s</w>
st ö
hi m</w>
ბ ვ
W in
한 다</w>
ง าน</w>
S ol
t ās</w>
م ام
vi t</w>
ور ی</w>
v ề</w>
ပ စ</w>
h ai</w>
তোম ার</w>
ed z
F or</w>
log ħ
ئەمە ش</w>
st ø
dru ž
k os</w>
s re
han s</w>
են ց</w>
inter ven
servi ces</w>
č lan
ย ์</w>
si ón</w>
પ ૂ
j am
emb re</w>
бе з
o us</w>
ש מ
va š
v lá
В і
k ā
hav et</w>
ن زی
سا ل</w>
к ер
တ ရ
es en</w>
no ch</w>
S ta
ب ح
thre ad
h va</w>
k ết</w>
tra bal
mom ento</w>
β λ
vē r
ε ν</w>
Go ogle</w>
Т и
D ar
bi e</w>
n jih</w>
nu o</w>
რ ა</w>
या ने</w>
θ υ
vi o</w>
ĉ i</w>
el ijk</w>
c os
있 는</w>
т ала
ं ब
yo ur</w>
sp i
گ ە</w>
مان ە</w>
ç ek
c ette</w>
3 7
ке т
ค ือ</w>
ส ั
жи л
ro s
6 4</w>
ื่ อง</w>
இரு ந</w>
j ar</w>
v ri
tra va
Κ α
ش ده</w>
aut or
A f
ro n</w>
vil ket</w>
w an
લ ે</w>
fund ament
An h</w>
ent os</w>
ve el</w>
kap it
ध ा</w>
थ ी</w>
at an</w>
მ ო
B a
s el</w>
ό ν</w>
ра й
ج ار</w>
ίσ ης</w>
વ ું</w>
i je</w>
က ေတာ</w>
ב רו
ին ձ</w>
re du
न स
к ти
ot her</w>
s ą
ве н</w>
ث ر</w>
άρ χ
ệ t</w>
ch a</w>
ό πως</w>
လ ုံး</w>
qu er</w>
τικ ές</w>
el y
ў ся</w>
આ વી</w>
ha y</w>
h ac
よ う</w>
ات ه</w>
h all
во ди
wied zi
je z
њ е</w>
ο λ
kt et</w>
ra k</w>
ျပ ီး</w>
λι ο</w>
d om</w>
ני ה</w>
ان ەیە</w>
ێ ن</w>
h az
А н
ma at
memb ri</w>
д ө
นี ่</w>
un k</w>
бі р
ण ी
bi en</w>
I T
Н о
ak e</w>
ב נו
кі н
al ne</w>
ро м</w>
živ ot
м я</w>
س ێ</w>
၀ ၀</w>
í t</w>
ent en</w>
f ie</w>
શ ા
ब द
к өр
方 面</w>
ва ть</w>
va ž
жұ мы
A ko</w>
อ บ</w>
ي م
ва нето</w>
gr und
P as
qu esta</w>
m ű
stvar i</w>
бы ла</w>
sa o</w>
ī v
kul l</w>
то му</w>
ด้ว ย</w>
sp ør
ل ے</w>
se in</w>
paí s</w>
t ud
B ur
ne što</w>
про бле
ەک و</w>
နဲ ႔
ေ ခ
im as</w>
চ া
ġ ġ</w>
ข ึ
v í</w>
y el
G es
í r
vi da</w>
m ar</w>
қ ты</w>
mi g</w>
בו ר</w>
อ ะ
l ing
tech nolog
ạ n</w>
поли ти
kom pl
ek et</w>
ad at
ν ω
st ati
खू प</w>
ik i
ά ζ
r š
เร ีย
lo ž
n ø
EU :
jen a</w>
ill er</w>
Th am</w>
er in</w>
d ô
ब ु
ப ார</w>
ف ت
ti et
T om
ţ ă</w>
ho u</w>
ja un
fic a</w>
μ ία</w>
و ڵ
mil it
बा द</w>
vš ak</w>
أ ح
slu ž
N em
चा ल
ол ь
по ч
g in
श न</w>
K aj</w>
બા દ</w>
k ur</w>
र ज</w>
خەڵ ک</w>
y az
ні й</w>
T a</w>
the ir</w>
ty ö
ပ ု
au k
je ho</w>
м не</w>
ţ ion
म हत</w>
mis sar
щ и</w>
pro w
á cie</w>
L i</w>
כ מו</w>
א ל
er d</w>
li sta</w>
ل م
ä ng
на род
ng h
zi en</w>
L in
ал е
ни ю</w>
în t
é t</w>
m ing</w>
ပ ံု
for t
ب ژ
P S
о ты
သိ ပ</w>
D en
ո ց
tö ö
सा रख
l il
δ ρ
ва ния</w>
ई ल</w>
de k</w>
થ ઈ</w>
پێ ی</w>
bħ ala</w>
b us
st ol
ar ch
min e</w>
st udi
N ew
Ш то</w>
zi m</w>
С и
关 于</w>
in tro
ει ρ
er ad</w>
ed y</w>
199 6</w>
в ся</w>
ட ி</w>
ag ri
अध िक</w>
men o</w>
com p
қ ала
վ ել</w>
դ ուք</w>
கள ுக</w>
J y</w>
س ي</w>
б ро
it et
no us</w>
Ó Ç
х дээ</w>
k hoa</w>
ရ တဲ</w>
on y</w>
th ành</w>
ற ும</w>
der n</w>
แ ม
ف ة</w>
kat eg
haszn ál
с ни
о на</w>
vo i</w>
ț i
υ τ
о ста
h ər</w>
об раз
q q
stad en</w>
tem a</w>
n ji</w>
გ ჲ
mil j
ht t
s si
I t
စ ီး
о ни</w>
â u</w>
டு த</w>
மு டிய
ün k</w>
sé g</w>
об ще
europ eo</w>
ασ φ
ز م
ေရ း
ყ პ
po u
u de</w>
em i</w>
ben ef
b ý
In form
we et</w>
r ī
ဆ ောင</w>
ت غ
vide o</w>
के ले</w>
show thread
ел и
l og</w>
လ ုိ
ن ر
ma y
κ .</w>
D on
ist an</w>
မ ွ</w>
trebu ie</w>
so u
M ən</w>
Uni versit
h ora</w>
θη κε</w>
iz man
та ка</w>
t ừ</w>
ر ية</w>
ما ل</w>
ag o</w>
ृ त</w>
ज न</w>
P ost
ႀ က
ال مو
est os</w>
भा र
ပ န</w>
i ar</w>
le urs</w>
ते व</w>
rat a</w>
У краї
O p
kan s
al en</w>
પો તા
k sz
P ad
pri orit
ki ye</w>
lež it
бо д
ထ ည</w>
خ ي
min im
M ij
con stitu
સ ી
ih in</w>
ျ ခင</w>
an nya</w>
د ە</w>
у ы
ք ում</w>
mut ta</w>
ত ো</w>
la g</w>
以 及</w>
ent re
அ து</w>
த து</w>
ण ा</w>
w n</w>
l ing</w>
ь ю</w>
ob lig
м ж
produ k
ம ற</w>
ήσ εις</w>
er in
a im
ול י</w>
μο ύ</w>
y ıl
dé vel
с пра
दि या</w>
C i
ကျ င</w>
mi el
و ت</w>
é ny
S eg
ħ a</w>
ậ u</w>
g ost
ج ب</w>
الذ ي</w>
ბ ა
хү мүү
I h
ú č
စ ံ
ver sch
C E
av ad</w>
д на
h te</w>
sen a</w>
П ри
bi z</w>
य त</w>
է լ</w>
тря бва</w>
یەک ان</w>
သ ေး
гэ сэн</w>
da m</w>
πολ ύ</w>
ap ie</w>
pro posta</w>
વ ી
b t</w>
लो क</w>
na z
20 20</w>
sk il
t j
B ir
θ ούν</w>
شێ وا
भा ग</w>
com pro
ü ş
လာ က</w>
os o</w>
ס ים</w>
g ün</w>
व ड
Mal ta</w>
c ada</w>
cz y</w>
pel a</w>
V el
p ik
st ato</w>
10 .
uč in
sl ov
ма г
အ ခု</w>
g ł
hem m</w>
re ci
ક હ</w>
št ev
де т</w>
h ur</w>
tagħ na</w>
in ės</w>
ba ik</w>
ิ ง</w>
လ င</w>
du zu</w>
mé ny
օ գ
श ी
düş ün
ó ł
iti on</w>
z ar</w>
ц о
as h
מ מ
մի ջ
ծ ում</w>
K ap
ac cor
mo ż
ậ p</w>
b ütün</w>
T y
j á</w>
daw n</w>
ו כ
ჱ ნა
cu t</w>
n æ
ab er</w>
naj bol
d us</w>
ver slag</w>
پێویست ە</w>
go t</w>
ပထ မ
men nes
ת ר</w>
in y</w>
க ூ
ال د
at en
G ener
ре з</w>
qu ando</w>
هە م
kri min
Komisi ja</w>
မ ေး
ဖြ င</w>
t um
í n</w>
æ iske</w>
ટ ા
ψ η</w>
it ed</w>
း လဲ
တို က</w>
l t</w>
ob jek
pl om
ગ ુ
कर ता</w>
ob č
at el
inā t</w>
mar k
kö vet
ط ل
th ế</w>
ապ ես</w>
kul tur
di ri</w>
F O
jed no
պ ետ
В ы</w>
th áng</w>
k em</w>
ju ga</w>
ho z</w>
ל ס
pu ol
ન ો
hel t</w>
ေ ပါင</w>
la de</w>
li che</w>
ک ن
про дук
ru l</w>
W at</w>
Tür kiye</w>
g zi
ก ร
sp rá
နေတ ာ
ta hun</w>
r ut
ท ี</w>
O vo</w>
or s</w>
st rá
ю ць</w>
ш ен
Б е
ன ி
อะ ไร</w>
ο ύ</w>
ג ה</w>
or ig
ó rio</w>
1 50</w>
s ố</w>
z ą
is ation</w>
c el</w>
க ெ
ре д</w>
မ ရှိ
D ette</w>
에 는</w>
k é</w>
ան ակ
ն րանք</w>
ev o</w>
बो ल
س ط
é sz
dzi ał
sel v</w>
ဝ န</w>
к ро
val a</w>
ส ม
进 行</w>
lag i</w>
u o</w>
6 7</w>
oc cu
ρ ε
T he
A u
σχ ε
प ह
स ह
bli r</w>
ab sol
र स</w>
ခေ ါ</w>
men e</w>
j or
у а
ب ڵ
دەک ەم</w>
स क
je š
pod ob
տ ն
ရှိ တယ</w>
ب گ
ж ү
ко го</w>
ż a</w>
d va</w>
ər ə
S E
η λ
St ati</w>
ান ে</w>
en c
ול ו
ئای ا</w>
ë r
9 8</w>
z ato</w>
w o</w>
is ch</w>
bol eh</w>
8 5</w>
ü ber
ност ь</w>
man i
ग ों</w>
l l</w>
ێک دا</w>
is o</w>
Europ ea</w>
t ě
kon feren
ri sti
a it
al an</w>
ل ات</w>
se en</w>
ד ר</w>
ל או
n un</w>
ตั ว</w>
น าย</w>
к ру
den na</w>
၀ င</w>
5 .</w>
л ған</w>
c li
jek k</w>
S T
माहि ती</w>
A D
ا ڵ</w>
ró w
ছ ি
st o
b ot
dalīb valst
ді к</w>
ін де</w>
Europe ia</w>
भ ू
K er
ओ ं</w>
х у</w>
ằ ng</w>
me u</w>
ધ ા
с пи
ma in
aj n</w>
Ç Ê</w>
me đ
ზ ვ
่ ะ</w>
म ू
s r
la ste</w>
inter net
ş ey
h ekk</w>
ต า
ut an</w>
wor k</w>
het er</w>
s õ
נ ת</w>
as pec
મા ં
an no</w>
Fac eb
वि द</w>
n al</w>
й м</w>
v last
қы з
ινο β
ત િ</w>
be fol
д ъл
मु ला
pi em
այ ի</w>
.... ....
ဆ ုံး</w>
મ ં
sat u</w>
pri me
logyourrun .com</w>
www. logyourrun.com</w>
о го</w>
ரு க</w>
199 0</w>
про гра
व ळ</w>
vor es</w>
rap port</w>
הש ת
pr on
խ ն
ci i</w>
نات وان
دا د</w>
aj ą</w>
ا ج
وت م</w>
با سی</w>
tic as</w>
jo t</w>
ர ி</w>
ส ำ
R ec
ad u</w>
ż y
om s</w>
y g
П і
ού λιο</w>
સ ે</w>
A l</w>
ма ти
n ó</w>
વા ની</w>
ع و
alog ue</w>
di ğ
եց ի</w>
k ie</w>
lī dz
ту ра
п ъл
ta ip</w>
d v
l ó</w>
at bil
si z</w>
ap pli
c ar</w>
or de</w>
ک نم</w>
ટ ી</w>
વ ે</w>
פ ור
A ss
ח בר
uk sia</w>
be en</w>
συ μ
q ar
jot ka</w>
دەک رد</w>
دەک ر
ရ ပါတယ</w>
k ü
si o</w>
O t
ինչ պես</w>
хэ н</w>
ה גי
အ ုပ</w>
במ ש
ко ето</w>
né es</w>
tal ál
แ บ
س ب
פ ן</w>
i ri
ل ك
m b
ru m</w>
ja ar</w>
le y</w>
வி ல</w>
ố n</w>
ค ม</w>
w ł
s ür
eff ec
кой то</w>
θε ση</w>
K h
vi c
indi vidu
م د</w>
ка х</w>
چا ہ
ti en</w>
ar ang</w>
ო პა
du p
un ter
t ü
И з
ти те</w>
ál ní</w>
sk er</w>
ر ب</w>
这 些</w>
ë n
م ص
ба с</w>
ñ o</w>
Д и
sk á</w>
она ль
ма р</w>
வ ு</w>
ek s
ան ց
f as
is ko</w>
e el
ul ti
st an</w>
ộ ng</w>
на ч
ak ti
pr v
ေ ထ
B as
ел ь
im iz</w>
dis pon
کر نے</w>
ρο ς</w>
b end
du m</w>
هە مان</w>
г д
ر ین</w>
وا ر</w>
இ து</w>
av o
bul un
isi in</w>
ho z
ци я
τ ά
ké p
l lam
ั ย</w>
r ồi</w>
da ar</w>
وق ت</w>
မ က</w>
y en
it as</w>
зүй л</w>
ar ter</w>
ś wi
ध न</w>
ەک ەم</w>
h än
ki h</w>
di d</w>
con segu
em ents</w>
am en</w>
ျပ န</w>
á ny
hat ó</w>
же ние</w>
nam e</w>
y c
st up
း နဲ</w>
us es</w>
ngo ài</w>
ڕ ە
at á
و ایە</w>
l å
Inter net</w>
ی ش
ur t</w>
n ói</w>
अस ं</w>
ώ π
то р</w>
с ві
शि क
ล า</w>
о ди
အဲ ဒါ
na ud
bi s</w>
بە م</w>
دەک ەین</w>
но ва
त ो
ار ه</w>
हो तो</w>
ո չ</w>
ج ي
ग े</w>
ον ται</w>
ق ی</w>
ז את</w>
hav de</w>
բ ոլ
ფ ვ
V is
س ر</w>
א פ
E m</w>
ä ven</w>
pri ma</w>
itu d</w>
י שראל</w>
U nj
av i</w>
ma il</w>
B es
199 5</w>
pä ät
f er</w>
ů m</w>
ды қ</w>
c sak</w>
nu d</w>
a ang
на д</w>
v at</w>
jed an</w>
包 括</w>
u en</w>
ι α
ล ง</w>
c le
εργ ασ
ven tion</w>
بین ی</w>
κ ει
ב ע</w>
wi er
про ек
g å</w>
on er</w>
t à</w>
s ó</w>
tic le</w>
ப ட</w>
باش ه</w>
9 7</w>
dap at</w>
Unj oni</w>
ի շ
sec tor</w>
하였 다</w>
بک ەیت</w>
per ust
гэ хээр</w>
aç ı
j għ
ка ко</w>
jen i</w>
bi ết</w>
өө р</w>
zb og</w>
B un
mes i</w>
mil l
ри н</w>
u an</w>
j ust</w>
y z
Ar voisa</w>
в ле
c ro
इ त
c ab
ေက ာင</w>
mi ş</w>
η σης</w>
ευ ρ
হ া
на д
j og
huvud staden</w>
у чи
vo j</w>
S tar
่า ง
بە ش
тел е
ve ć</w>
жи во
ל ט
ст ер
бы ць</w>
re com
ē t</w>
F i
no i</w>
га то</w>
c ô</w>
г ре
e il
pri jat
ন ে</w>
sz av
ئام ا
ژ مار
ור ת</w>
ύ τερ
econ ómi
min dre</w>
ה ו</w>
H or
क ं
а ко</w>
võ im
որ ոն
ει σ
бо ла
Ra ad</w>
ज ू
પ હે
is mo</w>
pu hem
pri m
ed s</w>
պետ ք</w>
com me</w>
a zioni</w>
ئ ي
st år</w>
όν ο</w>
t ī
mə n</w>
r ing
E r</w>
se perti</w>
כ ש
po sk
ق بل</w>
b ị</w>
anime. net</w>
ши х</w>
ма га
дър жа
ี่ ย
خۆ ی</w>
ic k</w>
स मा
са мо
post o</w>
pro iz
j au</w>
үш ін</w>
hum an
t ev
ি ক</w>
เ น
kr y
kh ảo</w>
www. msoms</w>
ж ер
M ac
de z
ığ ını</w>
en f
อ ก
an st
κα ν
م س
क हा</w>
οικο νομ
ပ င</w>
for ma
вре ме</w>
re tar
mi en</w>
մե կ
di ese</w>
хэ д</w>
συ μφ
f ebru
ati k</w>
М ы</w>
nač in</w>
bi zt
ar ı</w>
elő tt</w>
M as
ov al</w>
ت ش
д но</w>
āci ju</w>
W ir</w>
ت ي</w>
મ ી
ul o</w>
λο ς</w>
аб о</w>
مث ل</w>
այ ս
sö y
ขึ ้น</w>
ე ვ</w>
ро ці</w>
के ला</w>
ရ န</w>
फ क</w>
רי ה</w>
во го</w>
hol d</w>
ũ ng</w>
po pol
j az
on orev
ж і
та н</w>
ج ی</w>
K en
д не
j es</w>
in io</w>
m ing
dével opp
ή ματα</w>
้า น</w>
as em
z au
ba x
B et
რ თ
pro v
famil jen</w>
ra h
हा त</w>
m .</w>
g ot
d ri
ի տ
q ed</w>
ov u</w>
க ே
חי י
شێو ەیەکی</w>
3 .</w>
vi z
V I
પ ે
qu er
wsz yst
bu at</w>
б лі
ان ي</w>
M e</w>
ნ წ
รู ้</w>
ին ք</w>
f iz
מ או
sz cz
ра м</w>
ци он
q ab
ва в</w>
ز ە</w>
an y
af ir
بی ت</w>
ن ده</w>
an ın</w>
वा द</w>
тэ н
ب ای
ren d
k ār
je k</w>
tä r
h af
શ િ
4 8
ко ри
j kun</w>
acc ep
A ll
ма т</w>
aci on
a š</w>
ar en</w>
sk ý</w>
E C
E s
پ ان
ска та</w>
D N
del e</w>
कर ून</w>
fa it</w>
कु छ</w>
မှာ ပါ</w>
i res</w>
pun kt</w>
an ı</w>
м л
بر ی
м да
խ ան
dur ante</w>
posit ion</w>
stru k
ë r</w>
š ķ
เร ื่อง</w>
gr und</w>
gj øre</w>
бе ше</w>
wo uld</w>
š al
י צ
ح ص
ژ یان
ąc ych</w>
되었 다</w>
боль ш</w>
Re publi
b ól</w>
jen e</w>
ო ა
en ja</w>
si itä</w>
do k</w>
S il
ak in</w>
ப ு</w>
हे ं</w>
ла н
пре з</w>
vo t</w>
for me</w>
ed el
p am
rel ativ
4 7
p ů
go ed</w>
ר ק</w>
dec isi
ေန ရာ
al c
T el
न ो
ه ل</w>
belang rij
ik kel
c sol
ter rit
re con
n ord
T i</w>
schaf t</w>
ú j
tam ente</w>
P l
ં ત
ေ ဒ
bi er
kä sit
ά γ
nation ale</w>
נ פ
ד ש</w>
תו ך</w>
o kt
a ul
B C</w>
ت ك
wa ar</w>
k ów</w>
cij os</w>
რ ჲგა</w>
း မှာ</w>
μπο ρού
ning ar</w>
աշխ ատ
for di</w>
ū r
ছ ি</w>
politi k</w>
ကြ ား
ဒါ ေပ
ā t</w>
ज गा
h is
iz i</w>
ħ ed</w>
ro ll
er ci
ब रो
polit ica</w>
am me</w>
der s</w>
i f</w>
ไ ห
le ş
আ ছে</w>
ut en</w>
ह र</w>
i b</w>
ή ταν</w>
да т</w>
dest in
internation ale</w>
re st
K ri
หร ือ</w>
अध ि
az i</w>
s ed</w>
ä Ê
ح ة</w>
те ре
ţ a</w>
մ ան
лэ х</w>
sk u
conc lu
n ın</w>
un do</w>
sul la</w>
အ မြ
it ik
ст ву
А р
é ta
હો ય</w>
دەر بارەی</w>
دڵ نی
p úbli
dan t</w>
p u</w>
re kao</w>
m ora</w>
ra ste</w>
Επιτροπ ή</w>
de mos</w>
кі м</w>
જ ણા
mi jn</w>
enti n</w>
कर त</w>
dur ch</w>
it al</w>
่ ม</w>
S oci
he it</w>
go uver
ئ او
val sty
da e</w>
ვ ი
. Källor</w>
ફ ો
ħ ab
im in
으 며</w>
ger ne</w>
eh en</w>
დ ჲ
du e</w>
হ য়
ım ız</w>
ہ ر</w>
l ı
ဆို တဲ</w>
m und</w>
ill en</w>
di rit
g on
פ ע
S tra
b ad
су р
gö z
j ik
A N</w>
c lu
ле н</w>
val d
kan n</w>
чи н</w>
ри йн</w>
کەو ت
тэ р</w>
na še</w>
з вол
bi t</w>
бі ць</w>
sn itt
hi er
йо го</w>
ာ တ</w>
G ol
ki em</w>
रि त</w>
s ada</w>
п ро</w>
ر ت</w>
dire kt
K in
n är</w>
अ व
av an
puhem ies</w>
gra d
अ न</w>
w is
ક િ
vi el
ရှ ာ
s pos
რ პ
D at</w>
is ə</w>
ใช ้</w>
S to
قو تا
at or</w>
আম রা</w>
S p
ज ु
pro pu
वि चा
parti cul
ap plic
b ara</w>
th ey</w>
al no</w>
od en</w>
di k
st u
သ စ</w>
m ā
أ ع
δη μο
š kol
vi h</w>
лі к
eff ek
के ली</w>
I tal
si y
tr æ
τ ών</w>
on do</w>
sta de</w>
ק ו</w>
पे क</w>
М ар
ကျ ောင</w>
ွ ေး
об ра
ա ծ
خ ص
qə d
sk ého</w>
b or</w>
ได ้
ဒ ါ</w>
t kun</w>
dob ro</w>
es so</w>
ن ەک
il k</w>
про це
ق س
nak on</w>
K ul
n ell
απο τελ
ร ับ</w>
dru gi
mu y</w>
Un ter
α ξ
s ự</w>
In di
ر ي</w>
par t</w>
ط ة</w>
श ु
s ä</w>
bet y
ब घ
ac ă</w>
at u
те н</w>
ə t</w>
σημ αν
Р ос
v ap
sig lio</w>
सं ग
tu m</w>
հ այ
пи са
D ob
w eb
3 9
υ χ
dey il</w>
ст ва
પ ુ
I st
ir i</w>
ն ույ
հ ավ
ство то</w>
ە ش</w>
้า ง</w>
де гі</w>
lan den</w>
通 过</w>
К у
כ די</w>
до м</w>
σ αν</w>
ч у</w>
ท าง</w>
ר ו</w>
و انه</w>
no w
п ра</w>
ori ent
Li ên</w>
bes kre
ү л
μέ λ
s at</w>
қ ал
ug h</w>
ین ەوە</w>
T od
ra d</w>
pr æ
ick é</w>
de man
أي ض
ε θ
i du</w>
ni co</w>
ક ા</w>
д ва</w>
kter ý</w>
t ả</w>
presid ente</w>
htt p</w>
dé c
בי ותר</w>
س ا</w>
de te</w>
ευ ρω
mun do</w>
ז מן</w>
ჟრ ა
на ли
á lis</w>
di men
se j
တွေ ရဲ</w>
i el
des de</w>
pp en</w>
vä x
ac tiv
نە خ
က ူး
mell em</w>
m t</w>
æ Þ
r ă
ri cht
g ul
form ul
ն րան
í nh</w>
бу в</w>
в э</w>
sk ap
k av
ri l</w>
nod roš
m ums</w>
ac k
ί κ
ku d</w>
خ لا
ž i</w>
ą cy</w>
ni mi</w>
lid staten</w>
q al
vi ce</w>
то бы</w>
gu ar
או תו</w>
ბ პ
သ ို</w>
199 4</w>
del eg
раз ви
טי ת</w>
န က</w>
am as</w>
ٹ ھ
ל הת
z mi
di ri
an det</w>
ıy la</w>
πλ η
ar á</w>
έ γ
N ations</w>
h ul
lá t
זו ר</w>
ჟ ლ
ရ ေအာင</w>
یەک ەم</w>
و ێت</w>
ح ال
F o
र हे</w>
in nov
datab as
ικο ύ</w>
ရ ုံ
ၿ ဖ
ထ ောင</w>
á c
lij k</w>
ol eh</w>
C hi
бу ду
sem ua</w>
K ita</w>
အ ပိုင</w>
机 构</w>
le i</w>
č ne</w>
D al
lu t</w>
p li</w>
Parlament et</w>
کۆ ڵ
خۆ یان</w>
ر ہے</w>
ք ը</w>
K op
1 1.
ၿပ ီး</w>
ла га
Com is
ç ə
N uk</w>
δ ημ
бі ль
ခု ကို</w>
už í
ழ ு
м ле
ب گر
V ar
अ ने
fun c
الم ع
တ မ</w>
ն որ
ळ ा</w>
па ві
ư a</w>
ту т</w>
ש ע
N g
im pl
ni ej</w>
tá r
ย ัง</w>
cil vē
та му</w>
de bat
နေ တယ</w>
情 况</w>
ji em</w>
uni ver
Egy es
dov ol
r í
ဒီ ေတာ</w>
de termin
j ul
E ste</w>
j uli</w>
ว ัน
F F
ι ρ
и с
4 0
че ние</w>
ф у
wer k</w>
เล ย</w>
re m</w>
o iden</w>
po is</w>
J e
че ски</w>
но ю</w>
τη ση</w>
dal la</w>
ر ہا</w>
ę dz
tut ti</w>
ב ג
lī dz</w>
t ı</w>
ovan ja</w>
կ ատ
m ą</w>
A M</w>
た め</w>
m à</w>
tä vä</w>
லை .</w>
V e
ה רו
သ ာ</w>
ग ि
ي ات</w>
ji p
E sp
d ür
Ե ր
بی ر</w>
هات و
об лы
g at
ID T</w>
י ח
ф ек
d ø
M ol
τικ ών</w>
i ş</w>
ל צ
пе н</w>
g á
ң ы
ті в</w>
नि क</w>
תי ת</w>
ար հ
pol ic
développ ement</w>
le i
ə l
ch an
G L
rel azione</w>
g ab
is kt</w>
w el</w>
g äll
χ ωρ
á rio</w>
เ ต
H vis</w>
to e</w>
方 案</w>
S ek
Πρό εδρ
ကြ ာ
h ospod
C am
ס ט</w>
ski ego</w>
ה חו
ex pl
dü ny
रू प</w>
st or</w>
u ste</w>
ie x</w>
pë r
R I
ө в
चा ंग
er te</w>
e ww
не го</w>
Di rec
ב ני
komis sion</w>
hå ll
其 他</w>
jo h
fut uro</w>
орга ни
n är
for slag</w>
א בל</w>
ņ u</w>
b ec
mal o</w>
syst em
लो गों</w>
b ut
sel le</w>
po h
yap ıl
بە خ
چی رۆ
cer ta
w ol
A M
এ ই</w>
tr z
কি ছ
մ ո
ط ور</w>
G ran
ел о
બ ો
日 本</w>
ब हु
კა კ
ба н
O s</w>
ق ه</w>
sk om</w>
ne w
di ret
m ê
6 1</w>
sz ab
n ar</w>
l oro</w>
at ten
အ ိမ</w>
کچ ھ</w>
Y a</w>
پ ی</w>
P op
پ س</w>
s iniz</w>
бъ де</w>
internation al</w>
se i</w>
τ έ
B or
eh dot
ં ગ</w>
တ ုိ
ế u</w>
г ал
ac tivit
ци ята</w>
ור י</w>
ess ä</w>
gl av
T rat
Europ ä
Con siglio</w>
zjon ali</w>
бо йы
те к
ov ých</w>
ي ن
ա ղ</w>
ব ে
t us</w>
ри те</w>
j ę
ं ची</w>
tom e</w>
tat s</w>
Por tu
אי נ
ite it</w>
li e</w>
ko ju</w>
ra st</w>
u j</w>
ek en</w>
ख ु
d ön
h á</w>
upp dat
لەو انەیە</w>
A S</w>
ą c</w>
そ れ</w>
at í
sa ist
nacion al</w>
Th is</w>
का ही
4 9
य चे</w>
m ă
تو انی</w>
Lo ài</w>
k ą</w>
6 6</w>
mul ti
y eni</w>
ิ น
re j
m ac
gl as
M .</w>
lo w
ku in</w>
inter ess
t oga</w>
ซ ึ่ง</w>
wy ch</w>
re present
ք ի</w>
ի ծ
دەتوان ین</w>
فق ط</w>
Р у
ლ ა</w>
მ ი
ရှိ တဲ</w>
র ি
si h</w>
au t</w>
er ingen</w>
iv at</w>
вер си
d ab
I ni</w>
வ ர</w>
k aj
ò n</w>
m est</w>
प ू
N y
из и
بل غ</w>
sk ich</w>
su dah</w>
к ли
5 7
pre t
tra di
दा र</w>
dire kti
ó w
si do</w>
po ur
ma ğ
t t
و ع
z er</w>
פ קי
b öl
ေတြ ကို</w>
Ma ar</w>
ك و
ob lasti</w>
μά δ
iti k</w>
g os
disc us
вал а</w>
K ur
tut to</w>
tär ke
l ü
pri mer</w>
4 .</w>
ك م</w>
ál y
ré gi
ی یە</w>
oħ ra</w>
з ер
ח ים</w>
ေ လာက</w>
s ap
sn itt</w>
য ে</w>
b å
t vr
வி ட</w>
Би д</w>
sam t</w>
köz ö
st el</w>
é gal
H el
ar b
H an
kommissi onen</w>
世 界</w>
hy vä
હી ં</w>
dum p</w>
सा र</w>
a id
re ž
M c
demo kr
A w
bel ir
行 动</w>
б ал
ृ ष</w>
Stre et</w>
ak tiv
ট া
on der</w>
ε χ
к ен
sel ho</w>
mo z
д ня</w>
in di</w>
au se</w>
σ κ
ar es</w>
нда й</w>
Egyes ült</w>
з і</w>
το ι
которы е</w>
da y</w>
ti kai</w>
c ré
ال دو
raz lič
ad ores</w>
ण ं</w>
व ं</w>
le bih</w>
λο ύ
zi o</w>
อ ี
ch uy
ဗ ီ
я то</w>
mi j
ש ב</w>
ี ย</w>
qəd ər</w>
com mer
ел і
ri os</w>
ו ה</w>
a x</w>
g es</w>
v ek
ิ ด
da j</w>
န ော</w>
ஆ னால</w>
am es</w>
b á
e iro</w>
di al
n ada</w>
th ực</w>
ва н</w>
amer ik
sed a</w>
k dy
re š
finan si
բ եր
ни я
uppdat erad</w>
tä y
li e
ра в
n est
fö ran
زی اد
ки м</w>
ст ре
να ς</w>
vin d</w>
jär jest
P a</w>
ă rii</w>
6 ,
v os</w>
lad dad</w>
ऊ न</w>
ju ri
slä ktet</w>
Қазақ стан</w>
databas dump</w>
ner laddad</w>
ب توان
pro te
st im
l le</w>
Բ այց</w>
6 3</w>
ậ y</w>
ίν ει</w>
an ça</w>
as ında</w>
д ни
خۆ ش</w>
gi or
Å rs
bu l</w>
ச ு
infor me</w>
og o</w>
bę dzie</w>
iż da</w>
ры н
я н
J os
te a</w>
s ł
बरो बर</w>
ic al</w>
a des</w>
း ဟာ</w>
ắ c</w>
σ ο
з не
r æ
pes so
ห า</w>
پا شان</w>
ह ते</w>
ing in</w>
κο λ
s sen</w>
স ে
f en</w>
já k</w>
un '</w>
ati vo</w>
com missi
ter a</w>
f is</w>
ل و</w>
б о</w>
अ शी</w>
ف و
partici p
mah dol
ist or
pro jec
var maste</w>
ле р</w>
ை ப</w>
tak é</w>
sa ğ
א בי
6 2</w>
ma z</w>
Մ ենք</w>
k le
پرسی ار
om is</w>
mē r
pl ac
द ू
demo kra
ლ ი
kö zel
ist i
επ ίσης</w>
Års medeltemperaturen</w>
ob er</w>
т кі
kal laste</w>
ရ ေး</w>
โ ร
вси чки</w>
P M</w>
բ ան
ό μεν
no u
دە هێن
janu ari</w>
ef ec
de vel
pri n</w>
ov ali</w>
stand ar
ко р
ר ץ</w>
od u</w>
i ų</w>
ci vil
ва ти</w>
Joh n</w>
सं स</w>
s red
u koll</w>
yü z
گر ت
မ လဲ</w>
ј у</w>
N ik
ла го
sch ap
O L
ta ħ
u vi
어 요</w>
ز ار</w>
ku iten
na hi</w>
Κο ινοβ
त ू</w>
مرا ج
f est
az t</w>
ci jas</w>
bes lut
મ હિ
w z
st ör
c et
o da</w>
v ul
h al</w>
tan i</w>
vo us</w>
ni ch</w>
ب بین
men os</w>
Conse jo</w>
rz y
c ũng</w>
း နည</w>
proc es</w>
9 6</w>
per met
ե թե</w>
առ աջ
ەر ی</w>
م ەوە</w>
S em
Mij nheer</w>
c t</w>
з ь
вел ь
Con selho</w>
רא ה</w>
այ լ</w>
վ րա</w>
i fic
не т</w>
j aut
वा पर
үү л
စ ီ
ą ce</w>
अस तात</w>
הראש ון</w>
पु ढ
sk ej</w>
199 3</w>
ки те</w>
po t</w>
men y
i est
ر ان</w>
կ ամ</w>
val u
דר ך</w>
ခ ါ
လို ႔</w>
ग र</w>
pre ss
ל ד
beskre vs</w>
ht s</w>
نا س
де й</w>
ek i</w>
θέ σ
Li et
ၾက ီး
ng ày</w>
an der</w>
е р</w>
ก ำ
ıl ar</w>
C ity</w>
C u
elek tron
in to</w>
del ijk</w>
ny el
လဲ ဆို
W ar
m än</w>
शा स</w>
ं ने</w>
w ere</w>
ב נ
α ί
fam ili
sa y
П о</w>
ει δ
ra f
lo k
да в
शक तो</w>
णा ऱ</w>
ő k</w>
ev er</w>
TE D</w>
дей стви
г на
ج ه</w>
ή θε
a za</w>
j sme</w>
ω π
च ी
کە م</w>
g eri
ێ تەوە</w>
တာ ပေါ</w>
κ ρά
छ ा
piem ē
да а</w>
라 고</w>
ak tu
ба чы
เม ื่อ</w>
раз у
다 고</w>
lis h</w>
P e
ख र
ra st
yh teis
Europ e</w>
pa ž
מ בר</w>
لا ی</w>
可 能</w>
äm ä</w>
h ay
st ab
دۆ ز
f ung
İ n
ви ч</w>
j í</w>
ī st
P er</w>
म त</w>
ē s</w>
ב ט
mu l</w>
م ش
শ ু
э л
φ έρ
特 别</w>
da ud
ti ene</w>
Б ъл
લ ો</w>
પ ી
вы х</w>
D el
poz or
or do</w>
ст ъ
အတ ိုင</w>
N ie</w>
ել ով</w>
q u</w>
προ ς</w>
de ts</w>
ge bi
bag ai</w>
n õ
em ber
ка я</w>
bes ch
พ ิ
も の</w>
199 2</w>
ко ва</w>
ר ב</w>
လ ွန</w>
က ူ
เ บ
kom en</w>
Б у
دي د</w>
ма н</w>
op p</w>
I s</w>
ζ ή
situ ation</w>
S tr
بہ ت</w>
ைய ில</w>
بە و</w>
에 게</w>
7 2</w>
an ni</w>
Mo ž
h ó
to k</w>
ç o</w>
ek ļ
an u</w>
T A</w>
d aj
फ ो
по зи
ह म</w>
ab out</w>
ती न</w>
σ ας</w>
ån are</w>
in n</w>
Is ra
p ur
c est
մե ջ</w>
هە ست</w>
کە س</w>
چار ە
بە ست
ast ă</w>
ဘာ သာ
T an
ठ ा
o on</w>
inv ånare</w>
לי ה</w>
D ru
vol t</w>
س نة</w>
c al</w>
A B</w>
व त</w>
sv ě
Πρόεδρ ε</w>
ર માં</w>
tran spar
no j</w>
sk ega</w>
is la
milli meter</w>
tr ä
per so
õ ig
Kon tak
h äl
အရ မ</w>
du a</w>
ら れ</w>
م ه
men jadi</w>
R os
c las
re i</w>
t ó
pre par
μ η</w>
ti ên</w>
201 9</w>
Gen om
men s</w>
ам ь
во й</w>
6 00</w>
س ن
deb ate</w>
al iment
dies er</w>
importan t</w>
por oč
sho uld</w>
د ام
sp un
mi ento</w>
என க</w>
di plom
Ё н</w>
v se</w>
ұ л
he b</w>
ć emo</w>
snitt lig</w>
mi et
ת ר
नाही त</w>
ک س</w>
ύρι ε</w>
m ec
A P
g rat
دە بین
a ž</w>
ol gál
wię ksz
ג ד
T em
ခံ စား
sam men</w>
үү нийг</w>
с пі
Ο ι</w>
tw ikkel
rå det</w>
م ت</w>
Pro du
नं तर</w>
gj it
မွ တ</w>
ટ ર</w>
f are</w>
го да</w>
sy n</w>
ци те</w>
ре зу
ד ע</w>
ั ก</w>
в клю
šan ai</w>
ма т
ע רכ
zam an</w>
s ant
M S</w>
re vi
ب ت</w>
d ent</w>
ac z
ફ િ
에 서
ė l</w>
і м
olduğ u</w>
L a
я з
ဘ ဝ
kom mun
genom snitt</w>
ren del
merc ado</w>
น า</w>
सि ं
ქ ვ</w>
ש לו
ס י</w>
fat to</w>
I sl
th ere</w>
J ap
polit ika</w>
ш ко
ụ c</w>
at ori</w>
na zion
kan ı</w>
ak t</w>
ver k
K ako</w>
pi ed
Faceb ook</w>
strukt ur
D u</w>
ể n</w>
i x</w>
kad ar</w>
tag e</w>
လ ေး</w>
а н</w>
τη μα</w>
ท ร
wie ħed</w>
pro vo
πρ αγ
म हि
arbej de</w>
vi m</w>
К он
r il
م ای
ny e</w>
פ ים</w>
j ista</w>
wur de</w>
per gi</w>
v rij
ä än
ин форма
F R</w>
p an</w>
тел но</w>
in ov
z at</w>
pun to</w>
finan č
kter á</w>
ر ە</w>
я р
m ış</w>
Л е
կ ր
ү нэ
я кія</w>
sour ces</w>
ө з</w>
း ပါ</w>
Та к</w>
a đ
en den</w>
v ật</w>
들 이</w>
n ederbörd</w>
ku ul
安 全</w>
si es</w>
I nga</w>
al leen</w>
ள து</w>
12 .
š a</w>
ร ถ</w>
ब ी
I l
in ta</w>
هە ست
شێ وه</w>
pre zi
mi embros</w>
år sn
ش د</w>
ла а</w>
im ą</w>
כ ים</w>
ю тся</w>
ви те</w>
ال غ
nig aste</w>
ла ся</w>
tor raste</w>
ba ğ
Genom snittlig</w>
U r
reg nigaste</w>
årsn ederbörd</w>
ก ษ
ә ле
ệ c</w>
relat ório</w>
ж ал
n ederbör
a e</w>
l em</w>
א ור
То ва</w>
do u
B on
ف ع
nederbör d.
λ ά
F ar
ē m</w>
ко ято</w>
ि त
j s</w>
é ly
m me</w>
و ەکو</w>
ခြ ား
in er</w>
gi bi</w>
he z</w>
θ ρ
ıs ı</w>
ча ст
po de</w>
Bud ap
st at</w>
Euró p
pro mo
တ တ</w>
ဗျား တို</w>
น ้
ä ä
En t
ül et
pro gres
h än</w>
ق ا</w>
ה לי
कर तो</w>
у ни
li el
Α υτ
sit ä</w>
Fin an
6 8</w>
բ ան</w>
تا قی
ac ti
f æl
n ust
al ni</w>
ม าก</w>
ľ ad
по след
B ir</w>
ă n</w>
સ ો
ဂ ျ
တ ု
υπ άρχ
ئ ین
ن ق
can di
j ob
R en
est is</w>
े च</w>
ос нов
ot áz
ше ние</w>
neg oci
他 们</w>
s w
яв ля
执 行</w>
دەتوان ن</w>
u ju</w>
ရ ီ
за р
ب ش
c ông</w>
tel ah</w>
有 关</w>
ท ุ
is so</w>
ट क</w>
тех но
מש פ
5 8
H a</w>
э кономи
v á</w>
ски й</w>
y et
B re
အ ပ</w>
el em
lar ını</w>
δυ να
en or
M an</w>
dec ember</w>
í as</w>
mil ij
î m
ra z</w>
ար կ
ս ա</w>
roz hod
pre ci
هە بێت</w>
ic z
under arter</w>
ရဲ ႕
пол з
ա դ
comun ic
teg en</w>
is et</w>
z dro
e uró
וב ר</w>
de g</w>
z god
y je</w>
ت ار
با ر</w>
s ing
б ө
probl é
क मी</w>
دي نة</w>
o us
K ir
bý t</w>
ł on
ges ch
қ ол
ွ ား
gra d</w>
Cat alogue</w>
ë m</w>
к ал
שו ב</w>
18 8
kl am
be har</w>
medi das</w>
πρ ώ
spol eč
ရ ိုး
د ایە</w>
har us</w>
छ ो
par ti</w>
bun u</w>
ါ က</w>
ч тобы</w>
for ts
k end
Ö ssz
man if
ė jo</w>
ंग े</w>
შ ე
d ul
φ υ
if ad
ավ որ</w>
S im
by t
आ होत</w>
حي ث</w>
س رو
გ თ</w>
sem pre</w>
ны ми</w>
ბ ჲ
ма ш</w>
ت ي
ī dz
Un ited</w>
su d
με τ
u ar
c m</w>
भ े
و تی</w>
10 00</w>
I S</w>
আ স
i eg
S pan
n ama</w>
uj í</w>
est er</w>
comun it
ံု း</w>
re i
e de
alter n
چە پڵ
sek ä</w>
কর ে</w>
ع دد</w>
д ва
सा ं
e el</w>
ရ အောင</w>
م ست
av o</w>
ktor ý</w>
ne bo</w>
гу р
da ž
n ú</w>
प ना</w>
र च
er ea</w>
no ti
U m
Europe iska</w>
မ ည</w>
đ ang</w>
Рос си
añ os</w>
χ αρ
ლ ი</w>
ĝ i</w>
не об
को ई</w>
ві й
रा ज</w>
தி ய
program me</w>
ни ми</w>
B ak
п ен
di ff
Se ñor</w>
ფ ა
ק ת</w>
st am
zi j</w>
व ण</w>
fac il
v and
ev et</w>
ker es
че н</w>
سات ھ</w>
η φ
d ra</w>
vě t
צ ר</w>
ဖွ ဲ</w>
کەو ت</w>
व ै
sk oj</w>
म हा
خ ی
wer k
જ ી</w>
इ न</w>
la u
к ва
Wi j</w>
ne ed</w>
خ ار
ရ ိုက</w>
πραγ μα
گ ے</w>
к м</w>
ve ć
S o</w>
bū ti</w>
ér té
ન માં</w>
kvadrat kilometer</w>
ó r
по в
6 .</w>
ब त</w>
mo h
ắ n</w>
av at</w>
आम च</w>
қа ты
سک تے</w>
а та
દ ર</w>
vi k
περ ί
वत ः
েছ ি
E M
می ر
ال ي</w>
lə ş
R å
s ov
жа ң
lu c
то в
сказа ў</w>
рабо т
ji ch</w>
program ma</w>
ant al</w>
да ра
mar k</w>
ใช ่</w>
C op
ni i</w>
as pek
કર વામાં</w>
jist għu</w>
મ ને</w>
S tu
ل ية</w>
ne ž</w>
는 데</w>
a ar</w>
à s</w>
کو ئی</w>
h es
եր ե
i ev
ר ט</w>
ماو ەی</w>
o ğ
aj u
P E</w>
it er</w>
sa ja</w>
တ ိုး
စွ မ</w>
י הו
ամ բ</w>
al ta</w>
B us
K um
de mon
v ro
Q ue</w>
ti den</w>
لی کن</w>
な ど</w>
ü gy
та та</w>
за й
M od
y at
niec ības</w>
за қ</w>
لێ کۆڵ
گە ڕ
က ိ
ဖြ တ</w>
စ ေ
å t
al go</w>
мож но</w>
ё й</w>
pl y
ოპ ჲ
ek in</w>
အ မျိုး
8 .</w>
а су
sa ug
no ść</w>
и г
gen s</w>
m ali</w>
lo kal
မ ူ
M u
ք ր
ناو ی</w>
ل ف
a je</w>
ni t</w>
ħ ad
по д</w>
l ık</w>
B ag
at bal
as í</w>
ci u</w>
ec ek</w>
ent u
ता ना</w>
Ti dak</w>
P rin
Sa vien
ဆ ံုး
res s</w>
ற ி</w>
proc ent</w>
ত ি
d te</w>
ni veau</w>
Europe es</w>
M aj
कि सी</w>
n on
ni ej
ا ط
ры п</w>
ġ a</w>
C E</w>
وا ب
H ot
а т</w>
tij d</w>
经 济</w>
as u
bez peč
ew od
бол он</w>
up p</w>
пе р</w>
र हा</w>
ter mé
f ine</w>
ú c</w>
va h
as sist
طر ح</w>
se ç
O m</w>
д ж
πο υ
ро ди
မျ က</w>
사 람
bel ə</w>
x o</w>
f ah
ност та</w>
слу ча
و ش
kan di
I D</w>
pé ri
O N</w>
org en</w>
t ại</w>
ar ă</w>
κ άν
بەر ەو</w>
دە ی</w>
هە نگ
mi š
या कडे</w>
دا خ
tor i</w>
ο δ
א ז</w>
ठ ी
ေ ဆ
Ewrop ea</w>
d intre</w>
äÊ Ï
st ví</w>
h æ
ك ما</w>
e id
မှု ကို</w>
бо до
invest ig
ni o</w>
mi er
אי ן</w>
g ent
si r
p taut
ရ ုပ</w>
de sen
gör ə</w>
ро б
ar on</w>
ք անի</w>
telef on
ļ a</w>
เจ ้า</w>
ı c
ne uvo
het ő
үү д</w>
जी व
כ אשר</w>
ये क</w>
கெ ா
7 7</w>
д ви
ت ەک
spør gs
دە ڵێ
7 .</w>
бу ло</w>
op re
B os
mē s</w>
h ang
tar af
lis u
бай даг</w>
အ ဓ
ရ က</w>
O l
ق ور
lig ere</w>
бо р
प ी</w>
г да
हु ए</w>
tr ên</w>
mak en</w>
அ ந</w>
te j
दा ख
ob ec
ast ro
tik el</w>
ad or</w>
si ve</w>
તા ં</w>
ক ে
पा ह
pri je</w>
د ى</w>
9 2</w>
आ ज</w>
la di
e qu
दे ख
E ner
ر ده</w>
रा ष</w>
հ ր
փ որ
bli ž
M y
ค ร</w>
દે શ
ள ி
و س
pr an
envi ron
המ י
ဖ ိုး
ફ ે
g ust
ێر ی</w>
ра т</w>
по с
સ ર</w>
μα τ
H r.</w>
tren ut
U R
ड ी</w>
こ れ</w>
бойы нша</w>
ա դր
gäll er</w>
a ir</w>
ग ई</w>
κυ β
on twikkel
ष ेत</w>
u we</w>
c ə</w>
ot ros</w>
نی ا</w>
un ca</w>
тра н
bi z
win dows</w>
چ ۆ
H en
то т</w>
ri f
P rä
B ol
ေ စ
võ i</w>
del a</w>
부 터</w>
ви х</w>
E ta</w>
χ ή</w>
r ə
रा ह
zdra v
κα ν</w>
tagħ ha</w>
и ме
по тре
projek t</w>
g ali</w>
ίζ ει</w>
ре ги
w koll</w>
hand el
แ ห
نج ا</w>
tä n
ст ор
הל ך</w>
de di</w>
k rá
ն չ
ရ ော
ေ လ</w>
vá m</w>
it és</w>
ەکان دا</w>
А ко</w>
συ γκ
ช ่ว
á j
меж ду</w>
น ัก
C H
cap ac
ation er</w>
än kan
č it
ai d</w>
jed in
ק ות</w>
د ام</w>
bur g</w>
أ س
ッ ク</w>
dar ba</w>
ow ych</w>
to ho</w>
з е</w>
in is</w>
של ו</w>
pa esi</w>
گ ف
活 动</w>
妇 女</w>
dro its</w>
bli ver</w>
em pres
tro r</w>
g ir
h ver
Ս ա</w>
ab on
ol iko</w>
ra pi
ڕ ی</w>
م نا
ơ i</w>
co urs</w>
Par k</w>
ac tion</w>
vy š
sk ol
လ ာ</w>
li l</w>
ņ a</w>
P ak
սկ ս
ز م</w>
jel ent
to ut</w>
k ia</w>
ol isi</w>
เข ้า
šan ās</w>
အသ က</w>
wo or
प हि
svo j</w>
sta at</w>
s an</w>
人 员</w>
бы лі</w>
де р</w>
άσ εις</w>
Inter national</w>
ser i
st ore</w>
所 有</w>
trava il</w>
ان ا</w>
ە ر</w>
ەکان یان</w>
Б ұл</w>
த ே
der ech
av no</w>
It ali
ג ל</w>
ọ i</w>
kra j
I A</w>
Per o</w>
ми на
ک ا
let a</w>
P la
b bi</w>
pe ut</w>
kla d</w>
edi r</w>
jaut ā
до в
vi en</w>
тако ж</w>
ર હે
πρ όσ
း တယ</w>
č aj
Li fe
تای بە
п и</w>
उन के</w>
li it
ra š
' t</w>
ed o</w>
то зи</w>
em er
ના ં</w>
tod as</w>
É tats</w>
s ac
ب ية</w>
사 용
A ra
se g</w>
d əy
wen n</w>
х ыг</w>
ре к
á g
at au</w>
не ние</w>
ang o</w>
لای ەن</w>
тұ р
ř ej
c ele</w>
ol yan</w>
શ ન</w>
ch ỉ</w>
ob ser
вель мі</w>
მ ე
נ ס
me e</w>
Conse il</w>
ડ ે
ک ێ
بو وە</w>
هێ شت
mol to</w>
ди йн</w>
at ë</w>
э к
επ ί
толь кі</w>
u gi
ம ாக</w>
કો ઈ</w>
м ол
ー ル</w>
с ля</w>
spol oč
း တွေ
жа н
ज ग
м ұ
sy d
o fer
খ ু
ғы н</w>
и спо
μά των</w>
ત ી
ध ी
h əy
ne w</w>
سو پاس</w>
st ill
ڕ ی
k vin
פ ת
ра н</w>
si ons</w>
sa hi
ט ר</w>
ισ μού</w>
कर े
ra it</w>
חי ים</w>
ti p
ex per
हो तं</w>
ừ ng</w>
नि य
o are</w>
при я
ت ج
իծ աղ</w>
R ap
ं त
ті ң</w>
στ ή
es p
ė ti</w>
h är</w>
ke hit
အ ရင</w>
er ung</w>
7 1</w>
te e</w>
ڵ ه</w>
یەک ێک</w>
خ ێر
y ö
พร ะ</w>
sp r
s ă
ถ ูก</w>
ing o</w>
ဗျ ာ</w>
eb en</w>
ले ले</w>
at as</w>
R ef
сле д</w>
f lu
devel op
K e
k ér
tiv os</w>
b ac
terr oris
pri or
غ ير</w>
ڵ ێت</w>
f aire</w>
ي ل</w>
an an</w>
vi e</w>
વા ર</w>
o fici
আমা দের</w>
S ą
c é
ک ام
कर तात</w>
ก ระ
दु स
pen s
im mer</w>
ain si</w>
ศ า
מ ב
ни ма
ation al</w>
far ë</w>
С ъ
अने क</w>
d vi
w illen</w>
مو ن</w>
pra vo</w>
j om
C ro
or y</w>
um o</w>
gy ven
li kum
g or</w>
solid ar
P ir
sz í
re j</w>
पा र</w>
t ento</w>
הב רית</w>
अस ा</w>
pl ace</w>
na ch
ש ח
so st
ու ր</w>
决 议</w>
ná vr
gö ra</w>
แ ร
սպ իս
ewod nicz
ф ер
li stade</w>
တ ဲ
س ن</w>
c ə
μπορ εί</w>
et te
de ki</w>
А қ
со н
dif fer
aqu í</w>
na h</w>
han ya</w>
мэ д
kes ku
se ñ
thu ộc</w>
ան ց</w>
ro l</w>
ф ак
ج ل</w>
cz łon
ا ض
ain da</w>
Ευρ ώπ
так же</w>
tak że</w>
progra ma</w>
פ ר</w>
H i
ম ি
se bagai</w>
то л
ka it
С та
uz ņē
စ မ</w>
us am
ски я</w>
ب م
pre st
дру ги
S av
ரு ந</w>
мы з</w>
lan de</w>
z es</w>
Συ μβ
e qui
و ص
בר ה</w>
po int</w>
रि क</w>
ци ал
С у
pa ci
ке з
12 56
kon tak
ה פר
för slag</w>
si is</w>
کرد م</w>
Eng lish</w>
j ë</w>
र श</w>
j ung
হ বে</w>
nis u</w>
т ку</w>
بۆ چی</w>
der en</w>
ו ו
ال سي
r us
per man
đ ị
ي ق
अस तो</w>
מ ספר</w>
nh à</w>
း ကို
ני ות</w>
ય ે
اد ة</w>
ko st
ագ ր
nom bre</w>
то ч
J er
a ŭ</w>
ந ீ</w>
je č
боло х</w>
di fer
á sá
ین ە</w>
جۆر ە</w>
그 리
εί ο</w>
на сел
લ ગ</w>
199 1</w>
institu tion
ț ii</w>
ď al
nov a</w>
հ իմ
ti po</w>
ြ ဲ
ing ar</w>
č et
8 00</w>
θ ερ
ổ i</w>
M el
Ar be
ઇ ન</w>
र म</w>
si d</w>
Sig nor</w>
ब ना
कि न</w>
k í
รา ช
S on
ოპ ვ
ッ ト</w>
တို ႔</w>
ня ма</w>
थ ो
pr a</w>
ர ை</w>
vi mo</w>
1256 gzi
po b
zag ot
ان ەوە</w>
هەند ێک</w>
שי ת</w>
σχε τικά</w>
le j
F ir
ब ै
da i</w>
leg isl
di mo</w>
F on
и р
Par a</w>
ev en
ন ে
ві н</w>
S tor
પ રિ
html windows</w>
c is
э с
ał a</w>
7 ,
D is</w>
קי י
இ ங</w>
די ה</w>
de sig
gro up
de sta</w>
ồ ng</w>
gen nem
jäsen valti
ז ר</w>
Kommissi on</w>
на з
p ed
נ ול
r ation</w>
e es
ó b</w>
پ ڕۆ
ত ার</w>
т тя</w>
ho w</w>
ud el
mes mo</w>
н г</w>
m j
ல ாம</w>
s emb
ה צי
су м</w>
prof esi
стру к
wor d</w>
y ön
á l</w>
ti em</w>
झा ली</w>
حت ى</w>
I V</w>
ri m
б ұ
mo dific
publi c</w>
t ega</w>
о бо
کۆ ت
प द</w>
φ ερ
sch ap</w>
ול ים</w>
po ch
အခ ါ</w>
ड ॉ
min ut
ха д</w>
ta g</w>
र ू</w>
ื อง</w>
me hr</w>
me j
جو د</w>
ro v</w>
ни й
fi k</w>
9 9
zul len</w>
န ိ
ill ag
д во
w et
хо ё
ע י</w>
د ت</w>
in o
má is</w>
Slov en
தெ ரிய
di em</w>
य ी</w>
n ào</w>
ج ۆ
پێ ک
πρ ω
E T
रा ज
မှ မဟုတ</w>
th em</w>
z an
ու զ
ماش ای</w>
би ш</w>
fo arte</w>
и сто
h las
пі в
ک نه</w>
ل ت</w>
мо й</w>
ч ала
c ả</w>
A .</w>
mi l</w>
इ थे</w>
ren ce</w>
έρ γ
od o</w>
у у</w>
Wÿÿÿÿÿÿÿÿÿÿÿÿÿÿÿÿÿÿÿÿ È</w>
গ ু
ड ी
O d</w>
est ar</w>
کات ی</w>
am ely
t ū
beg yn
γ ν
A y
қа й
ř i</w>
жа м</w>
eww el</w>
پ ہ
n elle</w>
D aar
fl ere</w>
ت ب
ကြ ီး</w>
ur ile</w>
Ф ран
yor um</w>
ме ди
입 니다</w>
ar ri
પર ંત
ва й
কর তে</w>
برا ی</w>
এক টা</w>
te de</w>
ho l</w>
V il
vi ệc</w>
I M
ci ma</w>
ά ς</w>
po vez
没 有</w>
et aan</w>
gen om</w>
v år</w>
et y</w>
ag en
nor mal
no e</w>
ab er
չ ի</w>
အ ဆင</w>
mus í</w>
الم ر
ım ız
مر ی
хо д</w>
ic ă</w>
D ec
टा ळ</w>
ம ே
ch o
ج ه
zi ja</w>
im i
ပ ို</w>
ש ורים</w>
ژ م
k ů</w>
থ ে
uni versit
7 6</w>
vy t
स न</w>
ဒီ ယ
ထ ွက</w>
all et</w>
uni i</w>
પરંત ુ</w>
적 인</w>
st as</w>
V ý
ос ь</w>
ka h
я ви
वा ढ
τρ ό
ace astă</w>
κατ ά
di ci
ск у
gör ün
on de</w>
е в
ek om
aj iet</w>
अ सा
ण ू</w>
bes k
ا ق
ம ூ
х ал
per f
人 权</w>
M es
ė tų</w>
сти ту
y ak</w>
mon di
pun o</w>
ার া</w>
mom ent</w>
pri s</w>
ob li
υρ γ
g ing</w>
მ ჲ</w>
zn á
ро в
sk on
mi o</w>
ви де
parlam entin</w>
l õ
Pro bl
व ून</w>
S om</w>
Ch ina</w>
ব ার</w>
S P
بع ض</w>
ar am</w>
մ տա
uj em</w>
ال ل
мен е</w>
а да
بەر دەو
ut vec
सं बं
F eder
е це</w>
đ e</w>
з у</w>
ø konom
Life .Källor</w>
R é
V ide
क ॉ
bel eid</w>
о гра
p amat
er on</w>
u u</w>
itt ad
ธ ิ
मे ंद
भा व
es peci
ã äÊÏ
я а
7 8
х үү
ра не</w>
Al la</w>
C ap
па й
हो ंने</w>
sh um
val i</w>
તે ઓ</w>
タ ー</w>
fic e</w>
دەم ەوێت</w>
उ द</w>
জ ান
συ μβ
vol vi
it es</w>
N at
ար գ
du i
ო თ
kans sa</w>
об е
7 8</w>
w ant</w>
大 会</w>
जि स
ś cie</w>
l ong</w>
nie uwe</w>
וב ה</w>
ب د</w>
ھ ر</w>
ال ه
ком п
il y</w>
вре мен
D avi
al d</w>
eg t</w>
by ć</w>
s est
ی ہاں</w>
ri k
ေ ျ
by ť</w>
جیاو از
لێ دان</w>
person as</w>
S om
म ै
רא ש</w>
qu ad
ام ا</w>
bet æn
gö st
ισ μό</w>
દ ી</w>
ակ ի</w>
th eo</w>
Л и
Ε Ε</w>
for bin
ett ava</w>
europ é
သ ု
t ą</w>
हा ं</w>
ữ a</w>
ज ून</w>
α φορά</w>
em pre
е те</w>
न क</w>
я ко
ש א
що то</w>
st än
d ate</w>
ص رف</w>
jed na</w>
finan zi
do š
کردو وە</w>
دەچ ێت</w>
lam ent
с на
é con
T en
ил үү</w>
da ß</w>
con diti
း ရဲ</w>
da je</w>
bli j
γρα μ
mer k
ali k</w>
ser á</w>
M y</w>
kontro l
qu é</w>
ko d</w>
ני ים</w>
ه نا
ה סי
S in
am enti</w>
k än
گ یا</w>
Ж а
ဝ ါ
မ သိ
6 9</w>
T rum
ar ticle</w>
con ven
pri em
dr ings
ור ות</w>
M ü
ر م
ज ब</w>
ét ab
är för</w>
w ara</w>
ве те</w>
ti r</w>
z nam</w>
α στ
ế p</w>
ျ မင</w>
قوتا بخ
سا ع
اپ نے</w>
வ து</w>
मु ख</w>
որ ո
πι στ
ר ח
pun t</w>
ni c</w>
w hat</w>
ش ر</w>
жы лы</w>
ဒါ မှမဟုတ</w>
N ar
g øre</w>
লা ম</w>
о со
ro t
णा रे</w>
လ ီ
j uni</w>
bet änkan
na u
J o</w>
ה נו
т өр
k ken</w>
দ া
â r
kommissi on
شت ە</w>
ب ڕو
ند ە</w>
D é
ל ך</w>
kk er</w>
ख ो
до ва
sæ t
ဒါ ဆို</w>
al ap
ju k</w>
F ol
A gen
dru g
T api</w>
ந ம</w>
त था</w>
pro m
شت ر</w>
kë të</w>
ψ ηφ
та ри
կան ց</w>
R ad
ပြ ည</w>
အရ ေး
בר ים</w>
st s</w>
้ น
g il
po ved
all en</w>
kem m</w>
लो ग</w>
J ekk</w>
들 은</w>
â t</w>
vis ion</w>
ры ның</w>
ક ી</w>
сре д
այ ր
да й</w>
H al
se a</w>
E d
é sé
س ان</w>
h otel</w>
अ स</w>
pot řeb
ски х</w>
ร ว
š ích</w>
y et</w>
é li
to us</w>
j eb
ز ند
se hr</w>
נ ח
ни ка</w>
ħ ħ
An d</w>
ըն դ
וני ת</w>
ma ail
أ ص
si mil
es o</w>
g as
y on
x x
ag ement</w>
де ла
I F
R az
ту ра</w>
f ur
бу дет</w>
Com ité</w>
Х о
ti h</w>
O f
th i
زر گ
g ef
é mu</w>
да р</w>
ေ န</w>
ประ เท
h ulle</w>
ra por
ல ும</w>
որոն ք</w>
op le</w>
mnog o</w>
geb ru
ziņ oj
εθ ν
ไม่ ได้</w>
را ست
ટ િ
η ν
ท ั
ட ை
S A
tal man</w>
un to</w>
до в</w>
re ment</w>
sz em
απ ό
I P
ဘ ဲ</w>
vez et
ო ვ
ко ј</w>
muka an</w>
P om
un ser
j is</w>
ن ای
re feren
еди н</w>
któ ry</w>
vi j
na st
इ ं
N az
про ти
خ ر</w>
β ρ
ल ों</w>
h lav
h j
us o</w>
s ā
k si
wa ł</w>
ow ania</w>
Тэ гэхээр</w>
be ho
um i
strá n
ပြ ား
бы л</w>
k á</w>
jet i</w>
ab les</w>
fin al</w>
ژی انی</w>
ન ુ
М і
im en
t are</w>
nie ż</w>
у прав
च े
ng en</w>
חל ק</w>
re ag
र वा
po der
I tu</w>
it ate</w>
dot ycz
ส ต
ט ת</w>
li kl
e er</w>
ver y</w>
M usi
Á llam
ار د</w>
é v
လွ ှ
O ns</w>
bl evet</w>
λ α</w>
гаа д</w>
کرد نه</w>
र ही</w>
не й
гово ри
л у</w>
et ter</w>
me h</w>
vēr ā</w>
ி ன</w>
se ñor</w>
k red
us sa</w>
може т</w>
ү е
n at</w>
fej n</w>
o en</w>
ட ம</w>
égal ement</w>
ού ς</w>
ц т
um ā</w>
პ ა</w>
কি ন</w>
к те
ا گر</w>
B ru
t é</w>
ג נ
ב א</w>
N AT
θε σ
ни ем</w>
im ag
9 1</w>
men a</w>
ve is</w>
ка ми</w>
ส ู
ust i</w>
г т</w>
l ed</w>
ju ż</w>
ण ू
c um</w>
tre s</w>
zaj ed
per ché</w>
кто р</w>
یا خود</w>
p ic
tus sen</w>
ک ل
ta an</w>
ви й</w>
k ých</w>
मा ण</w>
ст ве
D ur
п ы</w>
K y
is h</w>
իս կ</w>
гі н</w>
6 0
un de</w>
re f
שנ ות</w>
бол ее</w>
al les</w>
هنا ك</w>
ล ิ
ac uer
သူ မ
sam ma</w>
komun ik
har mon
ắ t</w>
mé di
ħab ba</w>
im ento</w>
, 000</w>
ئ ار
sa i</w>
अ शा</w>
लोकां ना</w>
နား လည</w>
h ag
સુ ધી</w>
هە بوو</w>
ەی ەک
ag ora</w>
mi en
S ab
ма та</w>
ει ας</w>
ب ط
t est</w>
ви со
ou se</w>
as soci
μ όνο</w>
Win dows</w>
ουλ ίου</w>
и гра
ק בו
г ло
on ia</w>
nell '</w>
ă ri</w>
ζ ητ
ли йг</w>
R um
जा ए
կ յ
աշխ արհ
eer ste</w>
publi c
A uf
p ac
यां ची</w>
рі в</w>
c ell
est amos</w>
at ori
t ent</w>
ger s</w>
т ри</w>
h op
L eg
ре н</w>
ड े
l ant
P å</w>
ek u</w>
фи нан
H e</w>
ці я</w>
mö j
P rz
т ә
ре к</w>
c res
ေ ငြ
dz o</w>
ર હી</w>
m 2</w>
ot u</w>
al u</w>
को ण
c ara</w>
ау ы
ကျ ေး
у ч
ā ti</w>
র ে
ok at</w>
но ва</w>
дэ л
O m
D ev
دو ن</w>
te en</w>
ty ch</w>
ப ொ
no en</w>
ת ק
ா து</w>
เ ซ
zo als</w>
та зи</w>
om dat</w>
må nga</w>
ચ ૂ
ér ation</w>
nå g
iss ä</w>
இ ப</w>
mul te</w>
իր ենց</w>
2 2
sk ir
μέν η</w>
公 约</w>
D i</w>
تر ی</w>
á i</w>
pro por
का री</w>
ş ek
पा स</w>
ύ ς</w>
vat ten
ג ור
O S</w>
z í
کاری گەر
گی ز</w>
ғ ар
гэ н</w>
ж үр
ni ki</w>
โ อ
နေ ကြ
den de</w>
mag ħ
ισ σ
建 议</w>
sa j</w>
pr end
ה ז
ko ordin
д же
த ி</w>
sv il
ce v</w>
bū tų</w>
ရွိ တယ</w>
থ া</w>
kl ing</w>
лы н</w>
An dre
გა მ</w>
रि या</w>
proces so</w>
di es</w>
તે ને</w>
ali dad</w>
an ak</w>
mi e</w>
per c
si v
သ ံုး
b ør</w>
ک ەر
دەک ەیت</w>
v eg
ki enu</w>
де ген</w>
č ni</w>
j eg
K am
sa at</w>
بو ن
жа т
ค ิด</w>
လာ တယ</w>
शो ध
ре с
er as</w>
j ir
yax şı</w>
แ ก
Tim es</w>
er o
д ү
сь ких</w>
læ g
री य</w>
ור ך</w>
est ä</w>
all o</w>
0. 000</w>
ov ala</w>
ဥ ပ
ဒီ အ
הא ח
ri d</w>
ક ં
उ दा
spraw oz
ă ţ
emb ar
iz del
en et</w>
زان ین</w>
μένο υ</w>
bil ər
faz er</w>
lav oro</w>
верси те
j id
ေ က</w>
ol du</w>
ότη τας</w>
kr ing</w>
att īst
di ği</w>
ل ف</w>
ặ c</w>
sa d</w>
J ust
hely ez
T ak</w>
ություն ներ</w>
秘 书
ั ด</w>
D in</w>
п ъ
з ни
atur a</w>
ə ri</w>
r ë</w>
研 究</w>
an ni
des ar
м ү
ar e
द ी
न ं</w>
la in</w>
છ ી</w>
ró l</w>
eh t</w>
બ િ
T al
แ ส
ئا فر
ချ ို</w>
amer ic
ω γ
st äll
pra kti
rów nież</w>
ra di</w>
dod at
ш ч
แ ค
პა ჱ
tot al</w>
х ол
T a
ב אי
str ād
γρα φ
նրան ց</w>
C um
О б
မ ွန</w>
ဒီ မှာ</w>
က ာ</w>
اس ے</w>
ز و
gj ort</w>
ед на</w>
合 作</w>
ک ام</w>
vo u</w>
któ ry
ان ج
τ σ
Ε ί
shum ë</w>
D in
š í
ch ính</w>
ի զ
вя р
մե կ</w>
M ik
גי ה</w>
га рия</w>
se us</w>
bū t</w>
ط ي
T am
man u
ณ ์</w>
us u</w>
هەم و</w>
y n</w>
7 3</w>
mü ssen</w>
der for</w>
sist ē
re de</w>
συμφ ων
sp é
ep t
п ле
те зи</w>
po vas</w>
ควา ม</w>
ოპ თ
ra vo</w>
В е
ev ro
ap p
n ant</w>
ણ ી
і в</w>
zel o</w>
દ ુ
ме мле
z ek
s ó
7 9</w>
β ασ
хү н</w>
rel ev
었 다</w>
en k
p em
međ u</w>
nov o</w>
ဆ ောက</w>
ob raz
valst s</w>
yap t
de ux</w>
વ ો</w>
ներ ին</w>
ing a</w>
αυ το
B en</w>
ol o
ж де
က ိုင</w>
ှ ောက</w>
Ge or
ми ну
s .
mo że</w>
ka že</w>
má r</w>
a ir
мо гу
вя лі
ג ון</w>
ー ト</w>
op ti
2 50</w>
Se e</w>
دو اتر</w>
К алі</w>
แ น
ர ம</w>
problem as</w>
بە ڕاستی</w>
Pro f
je v</w>
ru p
c òn</w>
w eg
ўс ё</w>
ла й
да ғы</w>
० ०</w>
ب ت
onorev ole</w>
েছ ি</w>
ho e</w>
Ծ իծաղ</w>
C N
็ น</w>
ခ ဲ
च र</w>
se bu
ко ли
ج ائ
te urs</w>
ισ χ
ע לי
E T</w>
nh ất</w>
9 3</w>
য ে
ま で</w>
ти ч
u ot
d är</w>
z ung</w>
г .</w>
Ass emb
od i</w>
V ir
ک تێ
ं चा</w>
ય ક</w>
ले ली</w>
ung kin</w>
V y
ε τε</w>
mul t</w>
H ome</w>
tra v
ώσ εις</w>
un ter</w>
di ce</w>
다 는</w>
is me</w>
p ł
soci al
b ren
re p
ec u
J a
ส ่ว
ow e</w>
במ הלך</w>
ку р
ти е</w>
sop im
חי צ
அ ன
mu ốn</w>
el imin
ज ै
bu kan</w>
hö g
ν η</w>
Com o</w>
ti kr
al li
B eri
х то</w>
ξ ύ</w>
h os
ž a</w>
بوو نی</w>
is u
po n</w>
anal y
du l</w>
ան ակ</w>
ij k
r ing</w>
t rop
tr u
lé g
ეჲ ბპ
ál ne</w>
2 1
ứ ng</w>
ari os</w>
ü zer
G os
Bul gar
gar an
ב ל
I L
ř e</w>
ké ho</w>
ent al</w>
de ut
pom emb
ပါ လိမ</w>
bod o</w>
před sed
th ì</w>
th ro
kol leg
ха й</w>
ور ه</w>
kuiten kin</w>
管 理</w>
ট ি</w>
ể u</w>
č ov
A K
રા જ
ەکان مان</w>
a .</w>
я мар</w>
spor t</w>
W e
တ ြက</w>
7 4</w>
э нд</w>
дер жа
est án</w>
Al s</w>
di v
ف ض
で き</w>
वा ले</w>
خ ست
ă ng</w>
أ نه</w>
μα στε</w>
પો લી
จ ำ
wa q
ez előtt</w>
ë s</w>
g är
j ie</w>
sz olgál
ti u</w>
ล า
კ თ</w>
st ron
ме т</w>
نی ش
Össz es</w>
z et</w>
sch en</w>
н ю</w>
9 .</w>
na iz</w>
sz ó
kri j
چ ي
نی شان</w>
่า น</w>
ed i</w>
ka ņ
ні сть</w>
ق ع
ра та</w>
jū s</w>
tic os</w>
ή μερ
tig en</w>
he ç</w>
or ia</w>
лэ э</w>
inter net</w>
ú t</w>
f ap
š tá
الم ح
r ø
yor uz</w>
he en
od lu
a at
empl o</w>
in cre
ұ р
Á S</w>
tu a</w>
षा त</w>
an ta
mê me</w>
çı x
че м</w>
to v</w>
I ST</w>
代 表</w>
وا ح
ह म
ღ ჲ</w>
ви я</w>
צ ת</w>
jel a</w>
b ra</w>
B ri
دا هێن
خەڵ کی</w>
un ea</w>
con tro</w>
in e
pé n
p es</w>
কিছ ু</w>
мы н</w>
гу у
dup ă</w>
iz an</w>
sp ir
თ რვ</w>
Z a
ty l
ş ı
pas ākum
St at
گ ون
ရှိ ပါတယ</w>
R ez
gener al</w>
алы п</w>
sk y</w>
ın ız</w>
R ek
сы на</w>
iv al</w>
তো মা
ск о</w>
A li
īg u</w>
M ic
она л
il en</w>
ч і</w>
ەن ج
نێ وان</w>
ச ரி</w>
ment ar
อย ่าง</w>
라 는</w>
बद ल
д ә
वा रा</w>
ki o</w>
μέ να</w>
tel se</w>
ن مي
ба ста
w i</w>
إ ن
T ako</w>
cu esti
до ма</w>
မ ရ
อ อก</w>
मि त</w>
ра ди</w>
on k
մե զ</w>
আমা কে</w>
โ ล
mé g</w>
i ec
ه د</w>
લો કો
fi zi
как то</w>
W o
то е</w>
z ona</w>
po wiedzi
т на</w>
Li ber
т ър
kor ist
ێ کە</w>
دە نگ
دە زانن</w>
po ol
õ t
स ं</w>
hen vis
ech ter</w>
est im
ό ταν</w>
ی ی</w>
ю чы</w>
ш та
же ния</w>
dru gi</w>
el e
બ ના
S pe
ga at</w>
यो ज
แบ บ</w>
ко гда</w>
par agra
D P</w>
ות י
č a</w>
га н
kan sal
å ä
φ α
վա ծ
խ ոս
it ali
ри и</w>
ни ята</w>
bū s</w>
sek arang</w>
хэрэг тэй</w>
inform áci
ەی ی</w>
ئە ند
ڕ ەن
எ ங</w>
to da</w>
하 게</w>
ए खा
ná l</w>
com par
נו ספ
բ այց</w>
мі з
distri bu
fav or</w>
ק ד
min den</w>
ре д
1 20</w>
अ ल</w>
พว ก</w>
બ ર</w>
j il
y ec
all er
et an</w>
פ ו</w>
desp re</w>
L ju
ラ ン
of f</w>
רו ב</w>
vo im
δι ά
par ten
ab biamo</w>
не м</w>
v y</w>
mat er
st ig
ц үү</w>
до г</w>
з ро
ա թ
E R</w>
မျ ိုး</w>
ခ ိုင</w>
င ွ
fon c
8 8
S out
St ates</w>
P ap
b og
ent emente</w>
lä g
Wÿÿÿÿÿÿÿÿÿÿÿÿÿÿÿÿÿÿÿÿ È
О т
พว ก
ј и</w>
пер и
m ust</w>
צי ה</w>
с лі
ર ો</w>
ké sz
sk all</w>
am ely</w>
In don
mi gran
pu ede</w>
á p</w>
tä vä
ี ่</w>
k v
س ێ
ar se</w>
م ال
fo ur
servi ce</w>
அ தை</w>
cs illag
n ul
le id
bö yük</w>
Latvi jas</w>
ei den</w>
vy h
ալ ի</w>
is ki</w>
मि ळा
re ak
v ur
sam en
f ast
vi ac</w>
th o
sist em</w>
אנ ג
kur i</w>
ந ே
თ ჟ
ex tre
ma ya</w>
S yst
по ві
घ ट
гэ та
fü hr
kas ut
өн г
דו ל</w>
S eb
do kon
S y
о м</w>
ظ ر</w>
á ban</w>
nhi ều</w>
on gel
pr ati
su si
ži ad
g os</w>
ro utes</w>
س ۆ
β ά
b les</w>
j kun
por tun
οποί ο</w>
kap csol
M ə
con cre
by lo</w>
ա ժ
κοιν ων
sé cur
ခ ရ
so us</w>
lo v</w>
kon uş
व सा
à ª</w>
К е
تغ یی
FO GL
се да
را ر</w>
FOGL AL
Hu wa</w>
ni ku</w>
आ त</w>
ма ши
γ ρά
op at
su un
FOGLAL ÁS</w>
ձե զ</w>
szál lá
စ နစ</w>
دی کھ
го р
а ва
ні в</w>
до ста
в ши
ti ma</w>
198 9</w>
għ a</w>
Budap est</w>
kom pro
ك ت
מ קו
ī m</w>
त ल</w>
م لی
gover no</w>
શ કે</w>
હ ે</w>
по р
vel ik
Amer ika</w>
区 域</w>
જ ો</w>
3 5
жи л</w>
vē rt
th ấy</w>
V ic
K rist
使 用</w>
ن ية</w>
sy my
mis mo</w>
D ak
d ati</w>
ر س
mor amo</w>
sv ar</w>
αγ ορ
א לה</w>
9 4</w>
e ază</w>
re kt
om og
un ë</w>
pro ble
mu lig
ต ำ
ку ль
ြ င</w>
n ás</w>
δ ή
க ே</w>
б ю
pre ven
K ST</w>
ע ו</w>
ch ang
वे ळी</w>
hat á
רו ם</w>
ა რ</w>
вре мя</w>
प न</w>
A P</w>
k ý</w>
да й
ներ ից</w>
чи та
pl u</w>
က ွ
P S</w>
ме й
הע ולם</w>
sen za</w>
ř ení</w>
l ang</w>
우 리
כ ון</w>
پەیوە ند
هێ ڵ
մարդ կանց</w>
μετα ξύ</w>
ü ü
μεγ άλ
те ра
м па
ீ ர</w>
الأ ر
F ri
pre ma</w>
к алық</w>
bå de</w>
prac ov
en ces</w>
необ ходи
mi z
īb ām</w>
tar t
ב סי
ակ անում</w>
nek oliko</w>
ευρω παϊκ
я х</w>
C on</w>
میر ے</w>
ch c
περ ισσ
di re</w>
เม ือง</w>
est ä
sant é</w>
π ά
un k
ше ния</w>
pesso as</w>
væ ret</w>
જ િ
c asa</w>
ၿဖ စ</w>
W al
ol tre</w>
ડ ી
থ ে</w>
di do</w>
ik si</w>
kli mat
nov ember</w>
D A</w>
بع ة</w>
ş ed
ήμερ α</w>
까 지</w>
ગ ે</w>
mir ë</w>
ста р
union in</w>
જણા વ</w>
w ho</w>
re al
B iz
ช ี
ல ா
h ek
O M
om es</w>
għand u</w>
к лу
id ent
Т у
N et
ض رو
ала ся</w>
နဲ ႕</w>
s h</w>
ka an</w>
m esta</w>
ีย ง</w>
n este</w>
gö re</w>
C as
k de</w>
بو ون
ß en</w>
thích Liên</w>
to ate</w>
n ju</w>
mell an</w>
iti v
ki ş
نی یە</w>
ال م</w>
د ية</w>
а я
p age</w>
št ě</w>
ע מ
က ဲ</w>
A ug
im ent</w>
Bar cel
mik ro
x t</w>
er ini</w>
f eder
sk ab</w>
K r
id as</w>
ٹھ یک</w>
ри л
A R</w>
լ ի
需 要</w>
posl ed
ki el</w>
ka y
c l
j ší</w>
તેમ ણે</w>
mä är
въ в</w>
लि स</w>
cu li
ны н</w>
Ш А</w>
в то
ži vot</w>
πα ι
Бъл гария</w>
pro dot
ты п</w>
л д</w>
ın daki</w>
द ो</w>
о би
די ת</w>
aut o</w>
ר בים</w>
niej sz
A C</w>
စ ဥ</w>
re ģ
الم تح
ar ba</w>
ફ ા
رو ن</w>
દિ વ
เพ ื่อ</w>
finan c
т үү
av al
र व
ш у</w>
os z
માં થી</w>
er es</w>
т ты</w>
아 니
خ ب</w>
хо д
pra va</w>
bi zim</w>
terr or
no k</w>
do t</w>
lu m</w>
зе м
efter som</w>
καθ ώς</w>
M embros</w>
po sta
စ ရာ</w>
ва ў</w>
ուն են
ס פר
S A</w>
cz ę
תי ים</w>
h is</w>
had de</w>
P L</w>
aim ana</w>
ه ات</w>
kosk ev
h ir
ဏ န</w>
တရ ား
जी वा
I II</w>
סו ף</w>
적 으로</w>
k ru
ā cija</w>
z un
kom pet
un os</w>
ย า</w>
ըն թ
ώρ α</w>
о л</w>
can adi
de be</w>
H on
st il
åä Ï
годи ни</w>
အ က</w>
项 目</w>
om as</w>
c la
о қ
č na</w>
जा ता</w>
र ं
ist əy
дол ж
yy ət
í z
commun aut
و ح
וני ים</w>
Wor ld</w>
ื อ
ek t</w>
य ची</w>
s .</w>
aiz sar
کەس ێک</w>
سەر ی</w>
ەی نەوە</w>
k al</w>
n op
MO ST</w>
श ब</w>
۲ ۰
d ad
t f
j p
he el</w>
memb res</w>
ख र</w>
ar ra</w>
né e</w>
ակ ց
Ն ա</w>
Çá Ã
īg as</w>
men i</w>
m ø
täm än</w>
y e
п ър
या तील</w>
kol iko</w>
cá i</w>
Mit gli
edi r
ك ر</w>
в ь
el ement
ba o</w>
ini ai</w>
ဘ ော
про ве
க ப</w>
ப ற</w>
ان د</w>
and eren</w>
eg i</w>
äll ä</w>
profesi on
bar dzo</w>
util is
ti in</w>
კ ყ
ž ete</w>
sz áll
ս տեղ
й на</w>
الم ج
ju sti
ट ा</w>
ni st
भा रत</w>
ند رو
pl en
e ć
ob chod
ist er</w>
ener ge
ί ων</w>
લો કો</w>
ell ä</w>
Евро пей
մ ար
со в</w>
փոր ձ
ә сі
empl oy
म ौ
толь ко</w>
આવ ે</w>
in ne
б ұл</w>
α με</w>
Д об
v və
သူ က</w>
خو ێن
منداڵ ان</w>
о пред
дз і</w>
ning arna</w>
d w
Presid ent</w>
se orang</w>
j ā</w>
s abil
ün ü</w>
ck é</w>
ė je</w>
mēr ķ
po jen
ေတြ က</w>
झा ले</w>
u ur
पाहि जे</w>
te ż</w>
á rod
Ú É</w>
sept ember</w>
કર ા
anc ora</w>
ö z</w>
J ū
Ќ е</w>
կ ա</w>
ke ç
um iem</w>
mož emo</w>
ર ના</w>
ċ jali</w>
m uni
m ů
ে য়
E u</w>
we es</w>
ãäÊÏ ì</w>
ဒါပေ မယ</w>
â m</w>
о б</w>
ў ля
ञा न</w>
E z
ک ور
可 以</w>
되 어</w>
er de</w>
198 0</w>
ó ri
Ε π
nem en</w>
ki u</w>
B iz</w>
je jo</w>
ка й</w>
ды н</w>
တ ီ
vir k
ื อน</w>
ქ რჲ</w>
dif fic
z ve
хам гийн</w>
бү тэ
aħ na</w>
ति क</w>
ક ુ
rå der</w>
Э то</w>
ג ן</w>
sang at</w>
πι ο</w>
ရ ောင</w>
ני יה</w>
ве д
ска я</w>
ती य</w>
f ru
fav or
ra de</w>
δύ ο</w>
ג ים</w>
пре зиден
sy m
an ă</w>
ڕ ه</w>
e ut
ой л
t ên</w>
أ و
d og</w>
σ τους</w>
بو ن</w>
F C</w>
Állam ok</w>
е вро
s ili
kla usi
f ă
s ine</w>
ရှ ား
uv ent</w>
ও য়
ân ă</w>
europ ej
אח ת</w>
י ות</w>
ι ου
tyl ko</w>
lo da</w>
अ मे
d ân</w>
by l</w>
erit y
ent u</w>
ک سی</w>
н ер
M ex
บ อก</w>
spraw ie</w>
မ ီ
அ த
ग ए</w>
kl ar</w>
b s
на х</w>
v pra
b ang</w>
op portun
stran i</w>
iz gl
का र
L og
y ty
6 8
it s
n ende</w>
ร ี</w>
9 ,
atí pus</w>
ca q</w>
b and</w>
वि ष
ค .ศ.</w>
men er</w>
ဖြ ေ
ေရာ က</w>
ме ст
re for
ب م</w>
та п
o wać</w>
ho uden</w>
р я</w>
د خ
nom e</w>
ко ло</w>
ad er</w>
od y</w>
ח ו</w>
П ра
lar da</w>
ani u</w>
szob atípus</w>
st on</w>
onk 14</w>
ü s
մարդ իկ</w>
ત મા
ج ية</w>
гэ э
me dia</w>
H y</w>
kol lu</w>
на пра
V an</w>
O c
gi ve</w>
sécur ité</w>
vol u
e ens</w>
ρι ο</w>
מ די
ag es</w>
ấ n</w>
か っ</w>
å t</w>
č ak</w>
ရ ည</w>
Par t
ف ل
का ढ
Kh ông</w>
т тық</w>
Çá ÓÇ
š ím</w>
b os</w>
א ף</w>
ં ચ
u ć
дз ен
ž in
tu ri
бай гаа
ၿပီး ေတာ</w>
ه ٔ</w>
ար ժ
тура лы</w>
we g</w>
ק ול
ைய ும</w>
ב כ
ν η
K ra
زۆر بە
دە گر
ڕ ۆ</w>
is in</w>
ক ার</w>
h ơn</w>
ρ υ
ag i</w>
dies em</w>
ं नी</w>
D eb
rat e</w>
ov at
技 术</w>
П ер
po ate</w>
העי ר</w>
th ứ</w>
de ber
ک م
po tri
сі м</w>
ci l</w>
con tre</w>
פי ה</w>
de se
cul tu
ज न
é g</w>
pre ocu
hvor dan</w>
te x</w>
те бе</w>
ه و
pa y
P R
ά ν</w>
е т
human it
de k
ز ي</w>
neh men</w>
b l</w>
સ િં
съ с</w>
pas aul
J ul</w>
б ри
ի ք</w>
i au</w>
т ва
p et</w>
ان ەت</w>
bü yük</w>
нда р
ne y</w>
း တွေ</w>
εί ας</w>
ئ است
au l</w>
con ver
sa at
ov ý</w>
ej o</w>
દ ર
ר ך</w>
ko k
θ ή
য া</w>
ήσ ουμε</w>
tör té
mož ete</w>
רי ק
дз ін</w>
ष ित</w>
b em
s ere</w>
द ृष</w>
प क</w>
man n</w>
จ ริ
В о
ე ს</w>
koh ta</w>
તે ના</w>
ն շ
ရ ေ
po demos</w>
g s</w>
hyvä k
ด ู</w>
б лаго
კაკ გჲ</w>
оло н</w>
po kaz
gj orde</w>
อ บ
9 0
b av
М у
f os
kül ön
sat is
годи на</w>
ты я</w>
ovan é</w>
b and
ي و</w>
ف ر</w>
od govor
ко ми
તે ની</w>
ur u</w>
х и</w>
প র</w>
té k</w>
գի տ
ไ ท
رب ية</w>
fic ation</w>
parti culi
t z
si er</w>
ра х</w>
ถ า
impl ement
Amerik ai</w>
ke j</w>
จ า
Š i
مر يك
C el
ဆ ွဲ
у би
ո յ
ì û</w>
с ме
չ է</w>
č ka</w>
на р</w>
ok s</w>
ot ta</w>
empres as</w>
evro uw</w>
ခ ွင</w>
အေ ၾကာင</w>
အ နေ
х ө
स त</w>
यां चा</w>
રી તે</w>
min in
su ur
bli ve</w>
ob a</w>
t ür
em at
områ det</w>
یار مە
بار ە</w>
un un</w>
kval it
sk o
vol ta</w>
ċ er
та л</w>
nec ə</w>
sp an
պատ մ
uj ú
ש ו</w>
NAT O</w>
ll ä</w>
B l
ro man
с п
пра во
ე თ</w>
ဂ ဏန</w>
N is
għ at</w>
A ir
jed not
tö bb</w>
ðA www.almohandes.org</w>
ха й
re qu
य न</w>
αρ μο
קי שורים</w>
tom u</w>
่ อน</w>
pi en
ali dade</w>
θ ρω
tá k</w>
कर ा</w>
M ah
μ ο</w>
سی ست
ę p
hot el
N ic
r ô
minist er</w>
e ito</w>
ÇáÓÇ ÚÉ</w>
pl ó</w>
j no</w>
зо ва
am an</w>
מו צ
আপ নি</w>
3 ìû</w>
C al
көр се
став ля
kó kó
j ät
ра м
kókó pló</w>
κ ιν
Â ä</w>
en ig
တ ပ</w>
p un</w>
tor e</w>
lab ai</w>
di š
b em</w>
in ya</w>
ا دا</w>
สา มา
க த</w>
respon sabil
7 0
don t</w>
v og
s na
k ningen</w>
त यार</w>
ex emp
บ ริ
μ ός</w>
st å
com pan
Aw ak</w>
ност і</w>
ժամ անակ</w>
. com
க ம</w>
đi ều</w>
درو ست
ي خ</w>
ben ar</w>
Gener al</w>
par e</w>
hi j</w>
Гэ хдээ</w>
svo j
להי ות</w>
і з</w>
cu ando</w>
daw k</w>
ò ng</w>
dis crimin
demokr ati
հ ան
սպիս ով</w>
vi de</w>
w il
at tu
tag et</w>
ל ר
sam e</w>
olar aq</w>
E uro</w>
ler in</w>
activit és</w>
ə s
ху ва
desar roll
A G
म ंत</w>
об ъ
мож а</w>
ं ट</w>
νο ν
პ ჲ
nem ents</w>
dol lar
دی ا</w>
ני תן</w>
е ме
ar ch</w>
лар дың</w>
č u</w>
बन व
πο λογ
na š</w>
. 0
ск е</w>
वाट ते</w>
proc ess
e za</w>
ထ ဲ</w>
p al</w>
ન હીં</w>
pu esto</w>
ch á
Kos ovo</w>
ow y</w>
K re
tie ž</w>
M eg
A m</w>
den en</w>
înt r</w>
ەک ەدا</w>
پ ەر
هەند ێ</w>
مرۆ ڤ
ر م</w>
Т и</w>
đ ộng</w>
ձ եր</w>
um us</w>
ve ic
o ur
nov é</w>
و ز
ლ ებ
gr un
ه ی</w>
se ig
L an
ч ний</w>
hal ten</w>
επ ισ
সা থে</w>
æ re</w>
ittad ini</w>
am ine</w>
ո ն</w>
μέν ων</w>
er u</w>
l s</w>
ag er</w>
ဒါ ေၾကာင</w>
हि त</w>
intro du
pre t</w>
t ada</w>
Ch úng</w>
h ver</w>
M ot
iz ve
к еле
सं ख</w>
o o</w>
P T</w>
Çá Âä</w>
ç os</w>
tel e</w>
پ ڕۆژ
با بە
ин тере
qu a</w>
ত ু</w>
чи с
gé né
th ese</w>
jel i</w>
ק רי
D at
hist ori
men sen</w>
st aan</w>
ġ ija</w>
ы п</w>
पह ले</w>
h ing</w>
h ari</w>
g od</w>
F ot
valsty b
c at</w>
ô n</w>
et mək</w>
о ва</w>
ө м
ek sper
g de</w>
чы м</w>
un ui</w>
so si
ค ์</w>
lam a</w>
va in</w>
N ão</w>
me et
es sen
и де
h im
ယ ုံ
สามา รถ</w>
gra n</w>
M ed</w>
b as</w>
વા ત</w>
ap e</w>
ությ ամբ</w>
फि र</w>
گ ێ
de ment</w>
چەپڵ ە</w>
V e</w>
ovan ia</w>
ver e</w>
G em
سی ر</w>
gu er
e ć</w>
su iv
μα ι</w>
k ļ
ne pi
ra is
у ста
תו כ
w an</w>
hac er</w>
amerik an
ban k</w>
न च</w>
с мо
ra do</w>
ow ej</w>
ي ش</w>
kar a</w>
Est ado</w>
κ υρ
g ər</w>
bil ər</w>
L iss
ป ั
πλ α
ni in</w>
να ν</w>
ná m</w>
на в
ல ி
क ळ
வ ு
अ ब</w>
democ ra
Europe u</w>
ch u</w>
ih mis
а л</w>
उदा ह
aus si</w>
f ar</w>
ar o</w>
um ento</w>
ţi ei</w>
ệ u</w>
အ ချက</w>
ကျ န</w>
de el</w>
ق ي</w>
ле ние</w>
k j
ס ר</w>
ni z
lj ud
כל ל</w>
ق ر
ف ى</w>
ten er</w>
а на
դե պ
նա և</w>
ī ga</w>
ci ji</w>
ent ar</w>
jed en</w>
f .
követ kez
हो ने</w>
αγ ωγ
하 지</w>
men ing</w>
du het</w>
s ent</w>
य चं</w>
dig it
I r</w>
ле т</w>
dru št
protec tion</w>
ย ุ
ကြ ိုး
ဆိုတာ ကို</w>
د ایک</w>
x ogħ
ac ordo</w>
अप नी</w>
зна ча
su st
อย ่าง
لێر ەدا</w>
twe e</w>
showthread .php</w>
ש כ
ו ה
po ste</w>
ef fic
d ər
li t</w>
за щи
bū tu</w>
id ő
法 律</w>
ट े</w>
от вет
e um</w>
ան ք</w>
из полз
kon kre
म क</w>
ся бе</w>
añ o</w>
ת ים</w>
lar la</w>
pro š
ec er</w>
ī pa
बा हे
αν τ
ล ัง</w>
د ع
r ent</w>
не й</w>
လာ ခဲ</w>
с өн</w>
kul lan
би ра
提 出</w>
ả ng</w>
Π ρο
וני בר
ста на</w>
E L</w>
با زرگ
на ј
ü ck
хи йг</w>
в р
p ô
کۆم پی
ĉ i
profes sion
е ш</w>
้ อง</w>
ส ร
і п</w>
um as</w>
ко га</w>
b on</w>
é valu
χ ειρ
sz ak
z one</w>
เก ิด</w>
ավ ար
ö ğ
պ ահ
ban yak</w>
Z agre
N am</w>
根 据</w>
p si
ig ht</w>
ع ب</w>
شت ن</w>
he cho</w>
้า ย</w>
ep ä
с це
logħ ba</w>
ў ні
儿 童</w>
ج ة</w>
бу дзе</w>
b ě
қ ы</w>
g it
הו צ
at é</w>
si gu
dan ış
থে কে</w>
szál loda</w>
י כול
star p</w>
M ir
ar tikel</w>
ક ી
مند اڵ</w>
Θ α</w>
о ва
ε τα
ün ki</w>
N ä
csillag os</w>
dan as</w>
স ম
it ve</w>
K ami</w>
ko j</w>
mo j</w>
וי ות</w>
pr it
ed ə</w>
مان دا</w>
ס טי
ส ์</w>
id os</w>
й мэ
ски те</w>
de tal
з дра
м пи
y ay
off ent
kon fli
ny mi</w>
म द
ي ت
ч ело
т рэ
tap i</w>
ե մ
ко в
ခ ုပ</w>
ա ճ
s vi</w>
mo k
μ ό
as an</w>
k now</w>
sin o</w>
so f
ما ڵ
so w
ры я</w>
S of
چون که</w>
နဲ ႕
on ly</w>
e ja</w>
H a
ո տ
pr vi</w>
h us
led i</w>
այ դ
C D</w>
svo ju</w>
de pen
we er</w>
ch to</w>
in ə</w>
d un
ат ры
10 0
တွ ေး
ა ნ
åäÏ Ó</w>
im amo</w>
ले ला</w>
ج ن
ا زی</w>
n ung</w>
ای ان</w>
z ara</w>
gé n
un ei</w>
jed nak</w>
kom men</w>
ч ка</w>
कि ती</w>
ச ா
. 000</w>
201 0
quest ão</w>
С ША</w>
ب ده</w>
הי סט
é s
i ets</w>
tre b
teh nolog
ul ar</w>
bo a</w>
ق ە
سەی ری</w>
Κ ύριε</w>
aj iem</w>
an aliz
v ac
ம ா</w>
í an</w>
ль та
قا ئ
ĉ u</w>
द े</w>
ши н
น ์</w>
ни ци</w>
pro pos
ဒါေပ မယ</w>
ဆ ေး
kw al
Т эр</w>
й ш
kel ig</w>
fotogra fi
ד רה</w>
an ta</w>
of fici
għ aż
ال ة</w>
ot vor
அ ல</w>
تو ن</w>
ver taj</w>
ро й</w>
চ ি
c ând</w>
wi ch
ord föran
дө р</w>
p ă
col l
d acă</w>
é se</w>
dag o</w>
सु रक</w>
mer t</w>
m ě</w>
τ ύ
ב מי
პ თ</w>
Я к</w>
signi fic
پ ەنج
ho it
สุ ด</w>
europ æiske</w>
ê s</w>
сти на</w>
նա խ
ف کر</w>
ဂ ါ
ב רית</w>
Mer eka</w>
எ ப</w>
trabal ho</w>
जा ण
n ước</w>
ry h
支 持</w>
stør re</w>
elek tri
т ка</w>
s cri
Davi d</w>
σ τηρ
senti do</w>
sen s</w>
ен и</w>
fü g
00 0
规 定</w>
m ati</w>
บ ั
manif est
or u</w>
questi on</w>
an l
நி ன
a el</w>
bi ri</w>
ó g
fac to</w>
բ աց
é tu
ind ən</w>
با س</w>
Europe o</w>
r è
же н</w>
O ut
B eg
مان ه</w>
ช ื่อ</w>
et u</w>
bę d
a ine</w>
declar at</w>
၀ ၀
o sk
tv å</w>
an vän
ர ா
th ời</w>
કાર ણે</w>
mo del</w>
re k</w>
con se
пре д</w>
f it</w>
פ רו
хэ р
at ri
ĝ is</w>
το ν
ел и</w>
d l
ų jų</w>
وا ی</w>
uj ú</w>
ေဒ ၚ
g le
tel ev
thích Tham</w>
st ate</w>
svo jim</w>
մե ծ</w>
ור יה</w>
רי ך</w>
ке й
cad re</w>
st ik
lo k</w>
raz um
po š
H y
र ह
သ တင</w>
y as
วิ ท
sam man
tor es</w>
המ ח
ạ o</w>
tem os</w>
uv ed
ве сти
F u
per nah</w>
d ım</w>
Çáã åäÏÓ</w>
д гээр</w>
գ ն
sä ä
sod el
da ugi
ட ன</w>
وق د</w>
क ों</w>
σχ έ
و الم
m ô</w>
гаа р</w>
äm me</w>
θ ε</w>
p ali
შ ი</w>
cam bi
այ ում</w>
re prezent
त त</w>
л ды</w>
unci l</w>
re cht
그리 고</w>
ေပ ၚ
el ev
б ала
dru ge</w>
หน ึ่ง</w>
p ě
k ist
ต ่อ
ঠ িক</w>
N ag
дэ нд</w>
g ere</w>
f te</w>
ex ter
बा त</w>
उस के</w>
ठे व
po seb
prá va</w>
lig het</w>
у н</w>
λ έ
ટ ો
باو ە
تەن انەت</w>
D ol
cor so</w>
ত া</w>
té to</w>
לפ י</w>
vair āk</w>
મા ન</w>
inf lu
si der
δυνα τ
ל מו
K ö
8 0
t os
bö r</w>
أ ر
la d</w>
p í
လို အပ</w>
ה קו
не те</w>
с ну
ў ва
ان ية</w>
pe ti
आ यु
о пи
sti prin
वी न</w>
diti on
mi gli
મ ી</w>
ț ă</w>
człon kow
sp ri
і не</w>
бе к</w>
ر ێ
. S
ڕێ ژ
ur g
ос ы</w>
D he</w>
リ ー
Pre mi
d rit
ва ш</w>
இ ன</w>
Ε λλ
ထ ိ
to et
ap res
cu l</w>
ou den</w>
K as
k emb
ड ो
ç as</w>
հ ի
un ie</w>
ko k</w>
I R
ল ি
લા ં</w>
с ро
пове че</w>
q da</w>
h ör
م دا</w>
στα ση</w>
ед но</w>
isi on</w>
T ro
श री
د اری</w>
ဒါ ကြောင</w>
у краї
કે ટ
he id
u es</w>
pe ople</w>
ud ad
Z er</w>
ня м</w>
त च</w>
на га</w>
le g</w>
中 国</w>
و تو
ger i</w>
y rit
چ وار</w>
dəy iş
ပ ွဲ
pil n
lo w</w>
tim p</w>
事 会</w>
ब ता
dro it</w>
ст ри
et er</w>
ing ton</w>
an ser</w>
λο ν
ши г</w>
H ouse</w>
all t</w>
ch am
Par is</w>
īb ai</w>
is su
m ış
m on</w>
ell en
ã í
ak ar
me chan
วั ด</w>
ма й</w>
es em
й н
sty r
kk et</w>
un as</w>
П ар
zá klad
προ βλ
на е</w>
sav u</w>
s ve
seg undo</w>
ak ukan</w>
या बद</w>
a er
vo z
gi à</w>
la in
למ ע
อ ด
વા નો</w>
Ра з
ma j</w>
pra s
j ord
দ ু
bizt os
pu heen
ал о</w>
د را
نام ه</w>
integ r
अमे रि
כ ת</w>
program mes</w>
and t</w>
ლ ჲ
ပုံ စံ
အ ကျ
di l</w>
στ ρα
bol a</w>
ľ a</w>
ল ো
leg isla
се га</w>
ю ться</w>
tech ni
T R
ва ме</w>
th an</w>
系 统</w>
டி க</w>
a asta</w>
တို ႕
kol i</w>
де мо
া ন</w>
päät ö
do ar</w>
ن ز
tem u</w>
कु ठ
et à</w>
ch om</w>
а б</w>
ck er</w>
यां चे</w>
к аль
ov om</w>
शा ळ
अग दी</w>
جیه ان</w>
خ ەر
دەتوان یت</w>
εί ν
ņem ot</w>
نی شان
in ess</w>
S tan
ț ie</w>
kom p
ၿပ ီ</w>
ေ မ
ထ ိုင</w>
וניבר סי
li der
о пера
ถ ้า</w>
hy vin</w>
op tion</w>
nes s</w>
ق ص
po kuš
зы ва
ë le</w>
ekonom ik
ri guar
l t
ম নে</w>
EU: n</w>
ပ ွား
P og
γ εν
про сто</w>
इस के</w>
ம ான</w>
ant u</w>
ov ol
бол го
lə rin</w>
ov aj</w>
զ գ
ti f
ab b</w>
Δ εν</w>
ко и</w>
Parlament u</w>
બા ળ
el et
ak kor</w>
is een</w>
бу р
φ έ
સ ી</w>
dro š
ل ەک
شێو ەیە</w>
T ech
mi ędz
ო ბ
j ap
ig ra
או תה</w>
μέ σ
L ot
məy ə</w>
ま た</w>
க ண</w>
ju st
ေ ဖ
ေထ ာင</w>
j de</w>
重 要</w>
έκ θεση</w>
הו פ
tam a</w>
u ose</w>
az zjonijiet</w>
hr vat
prz ewodnicz
fakt isk</w>
On line</w>
č lov
uut ta</w>
mas a</w>
N as
Z ato</w>
re cher
за ви
mi da</w>
su o</w>
ư ở
на р
on na</w>
ch ts</w>
Այ սպիսով</w>
υπο υργ
pi ec
у сло
आ रो
sel f</w>
kh ác</w>
particul ar</w>
sas kaņ
al na</w>
w ell</w>
K a
Т а</w>
B at
ac aq</w>
هێشت ا</w>
ت ەر
шч э</w>
и ска
ob je
h ig
ေျပ ာင</w>
T ä
กษ า</w>
Co uncil</w>
રૂ પિ
ગ ે
ми те</w>
for e</w>
ein es</w>
उ स</w>
E esti</w>
e ing
dob r
sol l
aj ú
ide a</w>
D ra
W eb
p le</w>
أ ي</w>
an s
at os</w>
ไ ว
ပေ ါက</w>
ကြ ပါတယ</w>
n ós</w>
fra m</w>
co de</w>
ش م</w>
є ю</w>
Д у
nap ra
nog le</w>
liit ty
ма е</w>
possi bil
an ud</w>
לח מת</w>
ла та</w>
3 4
Я на</w>
met u</w>
ve oma</w>
і нің</w>
ff en</w>
an ych</w>
fol k</w>
18 0</w>
per mit
in vol
φ ο
J ak</w>
għand hom</w>
A lex
laik ā</w>
کردن ەوەی</w>
č io</w>
t ava</w>
т үр
am ise</w>
ле ния</w>
I ra
жа са
որ դ
χ ν
я м</w>
områ de</w>
ċ i
گا ه</w>
7 00</w>
ativ es</w>
øn sker</w>
ể m</w>
όμ ως</w>
N ot
π ο</w>
pro jet</w>
un ik
կյ անք
μέλ η</w>
T I
ั บ
em en</w>
mez z</w>
ဆ ရာ
သ ို
an ne</w>
પ છી</w>
P oč
ца та</w>
แห ่ง</w>
ni es</w>
el li</w>
T un
l or</w>
su ch</w>
خۆش ی</w>
po ž
ing e</w>
ρου ς</w>
па да
व ळ
о ще</w>
Š ta</w>
ја та</w>
ั ด
лен ня</w>
gel eg
fic o</w>
ব ো</w>
me idän</w>
ن ش
pu l</w>
szer int</w>
합 니다</w>
ni re</w>
war d</w>
gjit h
yal n
ob o
Afri ka</w>
2 년</w>
cz as</w>
ေ ယ
မွာ ပါ</w>
os eb
m ình</w>
o in</w>
माझ ी</w>
کار ه</w>
kom bin
5 년</w>
täm ä</w>
T wit
l ado</w>
ez en</w>
เด ็
хи йн</w>
x i
drž ave</w>
ျခ ား
ற ை
jp g</w>
לפ ני</w>
ek sp
Δ ι
د ێ
پی او
ڤ ی
sk ou</w>
sen hor</w>
ना त</w>
v ậy</w>
ска з
عل ي
st ven
é ria</w>
acuer do</w>
lä h
ट ो
ter s</w>
техно логи
အဲ ဒီ</w>
ما ر</w>
p au
de fen
כת ב</w>
ի չ</w>
af ec
on lar</w>
م خت
μ αν
ιου ργ
ц ер
bo j
ap enas</w>
si r</w>
q as</w>
း ချ
v ār
г дэ
d ía</w>
ses u
до ро
ktor á</w>
ky symy
ev olu
s jed
Pro jek
दि न</w>
ki ch</w>
ต ร</w>
ặ t</w>
con ten
լ ավ</w>
کۆت ایی</w>
نە لۆ
مە بە
ئەوە ش</w>
hr y</w>
sö z
ī tā
R adi
re ven
क से</w>
عل م</w>
democ rati
ni ja</w>
k te
اص ل</w>
λα μβ
ë t</w>
su k
sv ak
am y</w>
st oj
ήθε λα</w>
er e
ưở ng</w>
á ř
by la</w>
a ic
si di
პ ს
tel evi
σ ήμερα</w>
G over
περισσ ότερ
h ast
С ер
nh ưng</w>
ke en</w>
тель но</w>
ાર ી</w>
se ja</w>
า ง
mad war</w>
dz ī
nag y
ป ล
Այ ն</w>
bun al</w>
el d
ச ொ
הראש ונה</w>
کات ێ</w>
تەک نەلۆ
con sult
é n
h ap
veľ mi</w>
मो ठ
λο υ</w>
p ó
t ob
M ul
pre vi
хи й</w>
197 0</w>
té r
म न</w>
f u</w>
sk ie</w>
ka a</w>
इ ंग</w>
ה ר</w>
il di</w>
ไท ย</w>
מו ש</w>
خلا ل</w>
d ni
tr y</w>
权 利</w>
ди те</w>
su h
trz eb
ди ре
M un
τ ές</w>
ל מי
jen o</w>
ň a</w>
svil up
ши л
st up</w>
၁ ၀</w>
ex ig
λ ω
испо ль
kra ju</w>
im u</w>
خ ۆ</w>
بڵێ م</w>
то к</w>
必 要</w>
理 事会</w>
w ni
vä ga</w>
dom in
शक त</w>
ger çek
ai ent</w>
es c
έρ ν
ה פי
ifad ə</w>
су дар
ma in</w>
фу нк
采 取</w>
om i</w>
ен о</w>
applic ation</w>
ال ات</w>
ו ד</w>
person nes</w>
8 1</w>
av ut
כו ל</w>
c ej</w>
ס נ
ta in</w>
परि णा
fil m
er n
pra kt
nost í</w>
i el</w>
ł em</w>
و ار
re publi
t ina</w>
y ə</w>
T ai</w>
ver si
Украї ни</w>
do it</w>
to j</w>
รร ม</w>
ah u</w>
frå ga</w>
ti c</w>
то о
ဒါ က
บ ุ
Tra kten</w>
put a</w>
k ant
ell t</w>
ne z
ic kl
na uj
че рез</w>
gi bt</w>
z ə
pri vind</w>
r ā
հե տա
паві н
ener gia</w>
वि का
ba ar</w>
อี ก</w>
New s</w>
к си
ü c
ко гато</w>
V á
ris pet
મા ર</w>
ko ska</w>
ust en</w>
ορ ισ
ம க</w>
uni onen</w>
ت أ
e as
украї н
د ات
пра ў
જ ા</w>
կ այ
T it
de a</w>
mes ures</w>
ပါ စ
ဝ တ</w>
is san
by ch</w>
на ци
ud u</w>
ж ол
ar asında</w>
qu ân</w>
nu cle
en ea</w>
થ િ
g av
جیه انی</w>
c ậu</w>
P O
S up
خۆ م</w>
ka up
rec ep
ત ર
M ë</w>
př i
em a
і ш
माझ े</w>
ט ו</w>
for man
政 策</w>
ال له</w>
m ite</w>
ประเท ศ</w>
ડ ા</w>
ပါ ပြီ</w>
ț ia</w>
ш ь</w>
př ij
pra cy</w>
no dig</w>
em m</w>
ορ γ
né ces
ש לא</w>
생 각
8 8</w>
μ ή
دو ر</w>
war en</w>
A le</w>
ג ת</w>
δη γ
con struc
m enti</w>
u b</w>
poli it
inst ru
res ul
دار ه</w>
το μ
le des</w>
lar ının</w>
ك رة</w>
خر ى</w>
problem i</w>
ख ि
tem por
ượ ng</w>
بە سەر</w>
خێ زان
پێ م</w>
ۆ ست
ث م</w>
orig in
baş lad
zon der</w>
教 育</w>
ke y</w>
հ ն
kon k
à º</w>
nis am</w>
δι ο</w>
де те</w>
ul u</w>
מ ונה</w>
ті п</w>
at o
국 의</w>
ej n</w>
ラ イ
ק ן</w>
ed u
lo sti</w>
ri ja</w>
e ħ
y t</w>
ले किन</w>
mot or
Un ë</w>
nø d
es et
mi ej
attiec ībā</w>
ovi h</w>
hyväk sy
δημ ιουργ
д гийг</w>
d ning</w>
ent er</w>
k g</w>
ẫ n</w>
त म</w>
kat astro
nov i</w>
ali an</w>
ل ەوەی</w>
لە بارەی</w>
ப ய
다 른</w>
Dan s</w>
all erede</w>
ო ჲ</w>
spørgs mål</w>
ազ մ
T ag
дал и</w>
વા નું</w>
po win
Slov eni
iz z
ჟ ა</w>
сто ро
val i
kor zy
вы е</w>
o ści</w>
on un</w>
de ix
ப டி</w>
ra zi
fun cion
8 2</w>
B ai</w>
um et
b este</w>
ka ż
spol u
e ita</w>
pl á
y tu
Mar tin</w>
கி ட
Pet er</w>
نا م</w>
εί ται</w>
8 6</w>
M r</w>
决 定</w>
ati es</w>
ч ни</w>
ξ ης</w>
мери кан
ش ای
kor t</w>
زان یار
к с</w>
stá t
ĝ in</w>
ကု ိ</w>
ဇ ူး
յ ուն
ال نا
tw o</w>
ļ oti</w>
t ová
P A</w>
ol en</w>
Bo ok
по да
r t</w>
il er</w>
ဖ ူး
or der</w>
ش ما</w>
gebi ed</w>
र च</w>
åt gär
го ду</w>
għ ad
sik ker
il u</w>
V an
8 ,
з но
bol i</w>
P lan
μέ τρ
หร อ</w>
ac t</w>
ဆ ယ</w>
x u</w>
T O</w>
W j</w>
st ata</w>
хү р
으 로
mer o</w>
دە بێ
تە ندرو
अ भि
zem l
P ov
ба ғ
கவ ும</w>
พ ู
ti em
T at
ü z</w>
ши те</w>
m ud
ta h
органи за
နှ င</w>
у ға</w>
ဆ ုိ
а шы
के ंद</w>
pat eik
nor m
เว ลา</w>
t ır
S meh</w>
kë tu</w>
mel ih
Επιτροπ ής</w>
கொ ண</w>
o ku
ğ ini</w>
prec is
għ aj
me zi</w>
ר בות</w>
ή φ
ում ը</w>
po g
c ru
pris es</w>
मु द</w>
ow ego</w>
pre ż
措 施</w>
နှ ုတ</w>
ေတ ာ
гэ э</w>
ύ σ
બ ે</w>
all er</w>
ih re</w>
fi c</w>
ol ev
jä ä
ве ка</w>
го ро
á cia</w>
ึ ก</w>
या ल
т ры
gu ver
е сли</w>
bes ar</w>
ح ە
ل ەوە</w>
م ێ
s ana</w>
ב כל</w>
S un</w>
jä sen</w>
نس بة</w>
pe qu
באו פן</w>
na stav
га ш</w>
mo je</w>
အနေ နဲ</w>
ke j
qab el</w>
lar dan</w>
ī ja</w>
س ان
t ím</w>
i ros</w>
las t</w>
نی ش</w>
ду народ
ד ור
sol ic
ку ю</w>
μ ή</w>
لي س</w>
ща та</w>
про фе
אי ת</w>
га й
ра л
бол ып</w>
по ль
Тэ гээд</w>
H er</w>
կ ող
ဖ ော</w>
vi v
ar an</w>
t ov
зі р
parti col
خ ط
g te</w>
asem enea</w>
sk em</w>
อ อก
sa a</w>
elek tro
גר מ
s ina</w>
ج ام
Ref er
y right</w>
با يد</w>
झा ला</w>
съ що</w>
ژ یان</w>
ध र</w>
кет тік</w>
uk si
အ ဖြစ</w>
အတွ င</w>
ع ام
c osa</w>
uri dad</w>
han del</w>
a at</w>
وێن ه</w>
ە ست
h ori</w>
เ อง</w>
у че
de m
ú j</w>
ă t
ზ თ
я шчэ</w>
ve de</w>
hal u
เป ล
דו ר</w>
я кий</w>
is ed</w>
si bil
دار م</w>
jo it
ا زی
би зне
ст ол
လ ား
ص ور
vä lis
3 년</w>
ko vi
Europä ischen</w>
tra kt
ح ر
ընթ աց
வ ரு
val ó
ци ю</w>
може те</w>
ez t</w>
г ли
대 한</w>
στ ασ
si cu
8 년</w>
est ão</w>
tu do</w>
oj en</w>
на за
ö v
सि द</w>
ေ စ</w>
sit t</w>
ρο ν
ზ ვ</w>
um ent</w>
beg ge</w>
għ an
gj ør</w>
bu m</w>
p is</w>
at ur</w>
ни ят</w>
م سا
P ar</w>
αυτ ά</w>
m ă</w>
sk re
کەو تو
پێوی ست</w>
ми л
полу чи
ေတ ာင</w>
ဆ ဲ
тел ь</w>
r ất</w>
πολι τική</w>
ch eg
β ουλ
ξ ει</w>
δ η</w>
Α ν
π εδ
provin sen</w>
ע ר</w>
tar i
հար ց
ل ها</w>
orszá g
forbin delse</w>
ー ド</w>
த ும</w>
ب ع</w>
haz ır
il er
gén ér
B ed
ít ás</w>
Uni i</w>
hi ện</w>
s är
ზ ა
ac í</w>
á st</w>
б ло
j ad
D et
те ң
ti p</w>
кла д</w>
L as</w>
A ħ
u ç
t edy</w>
at mos
7 년</w>
ամ բ
ті л
del ig</w>
m ang
6 년</w>
е з
hum anos</w>
مراج ع</w>
ست خ
ב שי
το μέ
جو ڵ
ж у</w>
εν ώ</w>
χώρ ες</w>
s ħ
4 년</w>
nem a</w>
vi er
yı l</w>
הח ל</w>
per lu</w>
सर कार</w>
τ έλ
en em
rec ur
S on</w>
for t</w>
Г а
计 划</w>
म र</w>
πο ί
schaf t
ж но</w>
n ení</w>
ci os</w>
ર ુ
ll er</w>
들 을</w>
နှ ုန</w>
ဘ ာ</w>
б і</w>
f ast</w>
ś rod
ว น</w>
se par
taraf ından</w>
ה ספר</w>
P un
да д</w>
мен та</w>
lo č
j ego</w>
A T</w>
dal l'</w>
ی کی</w>
delayed www.almohandes.org</w>
ο δηγ
mat eria</w>
pu ò</w>
أك ثر</w>
ئ ة</w>
8 3</w>
хо дя
ur en</w>
r ū
ud ar
кон тро
ճ առ
8 9</w>
ё сць</w>
vatten drag</w>
z na</w>
ทำ ให้</w>
מ את</w>
пі д</w>
т алы
د ێت</w>
بە ڕێ
بە شی</w>
ד ון</w>
دڵنی ای
ån d
המ די
F est
се бе</w>
pi el
של ים</w>
ти м</w>
ow anie</w>
h id
ίσ ει</w>
ser a</w>
ic u</w>
C ast
ύ ν
бі лі
أ نا</w>
و في</w>
г ч</w>
it atea</w>
ย น</w>
ka in
gad ā</w>
pi on
кі й</w>
T ämä</w>
ச ி</w>
Kom mentar
K amu</w>
dirit ti</w>
ov de</w>
op ol
အ မ</w>
ျပ ည</w>
T O
talál ható</w>
ха н
خ ا
да л</w>
ו צ
to o</w>
จ ุ
pod roč
vil a</w>
hod not
ل ک
ma de</w>
v ì</w>
som e</w>
տա գործ
ت ما
પૂ ર</w>
கள ில</w>
po der</w>
ื่ อ
en ci
რ ს
ľ ud
di stan
g au
Ж и
ım ı</w>
1 년</w>
دە ستی</w>
جیه اندا</w>
هاو ڕێ
نە بوو</w>
ми ний</w>
گۆڕ ان
ער ך</w>
вэ э</w>
at zen</w>
tas k</w>
К ар
Л у
दा न</w>
tr á
ت ن
č ek
ni š
мі н</w>
P ow
co ur
ad ap
glob al</w>
val it
վեր ջ
մի այն</w>
نو س
ка то
કર ે</w>
κ όσ
သ ီ
အဲ ဒါကို</w>
je jich</w>
இ ர
n ari
ké t</w>
э том</w>
қ са
am ik
არ ჲ</w>
par te
p ie</w>
ü st
ق ط
av a
ю ще
š ā
િં ગ</w>
m ata</w>
ան ել</w>
ad an</w>
co ordin
бы ть</w>
l ite</w>
لا ر</w>
ل قد</w>
li cen
Ре с
gro te</w>
١ ٠</w>
A i</w>
A F
J ac
k og
ev anje</w>
ti ed
کر نا</w>
бас шы
gesti on</w>
er to</w>
જ ન</w>
फ े
8 4</w>
بژ ار
im aju</w>
ک ت
ut ta</w>
ty pe</w>
eri i</w>
rz ą
li et</w>
อ ะ</w>
mi j</w>
qu an</w>
Con vention</w>
198 8</w>
ó t</w>
Lon don</w>
eb be</w>
کو ش
ħaj ja</w>
ه ست
parti e</w>
sk el
im pli
okt ober</w>
мо би
ž mon
D etta</w>
am ma</w>
b aj
ã os</w>
ener gie</w>
و هو</w>
va sta
te ž
rá m
ша та</w>
αρ κ
H il
es an</w>
ան ը</w>
ק ס</w>
aci j
z ő
мі з</w>
জ া
tri es</w>
त ंत</w>
bud get
för sta</w>
Inst it
uv re</w>
vpra šan
نا ء</w>
om kring</w>
n te</w>
ko g</w>
pun kten</w>
T ot
da ş
δια δικα
а жил
ül ü
вал и
th at
ડ ો
j ati</w>
t ning</w>
گەور ە</w>
ای ەکی</w>
کار ە</w>
่ น
ه مه</w>
ب کر
Y h
w ali</w>
не ния</w>
re chten</w>
αν αγ
เรีย น</w>
za ch
ژ و
απο φ
g ø
z h
nos sa</w>
t ərə
er ing
ē r</w>
ż on
ci udad
घे त
о коло</w>
စ ိုက</w>
vi ew</w>
F ör
प ं
í m
z wiąz
т ки</w>
la č
ோ ம</w>
al ın
nji h
cris is</w>
زیاد ہ</w>
о с</w>
kdy ž</w>
गा ं
і я</w>
im pre
կ ո
ta via</w>
وا قع
במ קום</w>
ál tal</w>
в на</w>
вя т</w>
ý ch
écon omi
ઈ ન</w>
cor e</w>
é l</w>
trab aj
trab ajo</w>
eer d</w>
cer ca</w>
လာ တဲ</w>
те м
ran je</w>
у же</w>
at lan</w>
کر ده</w>
ห ั
ick ých</w>
B ah
8 7</w>
al kal
ئام ێر
ر ێت</w>
นั ่น</w>
ه ون
ρο υ</w>
tej to</w>
Συ ν
kur u</w>
em o
пра ц
בי ל</w>
G or
G lob
သ ဘော
ကျ ော</w>
ел ер
pal īdz
ה ל</w>
כ לו
an ven
ow i</w>
पु लिस</w>
hoz zá
s ə</w>
ન ની</w>
हणा ले</w>
ตา ม</w>
tra s
inā tu</w>
b rz
ö nem
po tra
s ær
del ser</w>
αι τ
eni em</w>
सिं ह</w>
м ъ
put ea</w>
ско ль
по доб
ստեղ ծ
tar a</w>
са ма</w>
ချ ာ
k ø
ग त</w>
g ā
إ ن</w>
Rå det</w>
z z
ת ש
Bar ro
ვ რჲ</w>
ỉ nh</w>
waq t</w>
ال فر
vo c
נול ד</w>
ال ز
▁ ็</w>
πο λλ
ထ ု
d ve</w>
bed re</w>
na i</w>
k eb
К ол
ფ თ
mū sų</w>
luc ru</w>
प रत</w>
я ми</w>
ці й
ય ૂ
aut ori
con f
k ata</w>
એ ટ
თ მა
Europej skiej</w>
リ ー</w>
ח י</w>
et mə
O s
ß e</w>
ש א</w>
to p</w>
reg el
ба га
ט ון</w>
shi p</w>
ઉ પ
bil an
યા ન</w>
είχ ε</w>
ک ت</w>
de o</w>
st ed</w>
ل ح
j ika</w>
prost řed
能 力</w>
iss ement</w>
ו פ
li p
ש הוא</w>
reg elen</w>
en ing</w>
ئ ەک
du gu</w>
گو ێ
ح اڵ
օգ տագործ
f aj
आयु ष</w>
e vid
भ र</w>
ци аль
ર ૂ</w>
зна чи
ί γ
mil jo
z enia</w>
ел і</w>
סי י
tä in</w>
živ ota</w>
е сі
ce ea</w>
al ah</w>
A V
ist ess</w>
ti vi</w>
forsk el
سک تا</w>
ว ง</w>
J adi</w>
слу ж
प हु
af in</w>
h asta</w>
I P</w>
a isten</w>
פ ון</w>
း မ</w>
F i</w>
спо р
er Källor</w>
mar a</w>
Pu bli
ir u</w>
га т</w>
b ast
ا ي</w>
er ő
必 须</w>
Αυτ ό</w>
S O
П у
ı dır</w>
et et</w>
گە ڕێ
ด ง</w>
باشت رین</w>
ке т</w>
tu ot
ဗီ ဒီယ
м өн</w>
op en</w>
нэ мэ
jo ht
mi est
та ны
in an
мини ст
prow adz
ચા ર</w>
Û X</w>
res ur
š ajā</w>
dat ang</w>
en kel
Ü X</w>
i em
ს ი
ativ as</w>
al po
zak on
影 响</w>
best em
se be</w>
an j
қ ор
յ ուր
आ वड
ла х</w>
ဒါ နဲ</w>
бол ж</w>
gö r</w>
w hen</w>
न वीन</w>
מ ונ
หา ร</w>
N av
lə n
be c</w>
p ing</w>
ס ת</w>
Z á
а са
m ė
up akan</w>
E kst
δικα ι
er ar</w>
အဓ ိ
ի պ
de z</w>
٠ ٠٠</w>
ં ગ
باشت ر</w>
کردن ەو
या न</w>
ف ەر
پێ که</w>
ند ین</w>
и м
ố t</w>
المتح دة</w>
ạ t</w>
ri m</w>
г ала
са йн</w>
στ όχ
mar kt</w>
vel iko</w>
ро бо
e ś
ı klar
о доо</w>
fol y
ра ди
prijat el
Ευρώπ η</w>
تو س
း ပ
ျပ ီ</w>
ဓ ာတ</w>
ב ור
કર વા</w>
ба ра
Organ iz
ն չ</w>
eci eš
if ik
тре ба</w>
jed nom</w>
al tri</w>
그 러
spé ci
my sl
sá t</w>
Ç Ñ
N ational</w>
З на
ம ீ
é si</w>
E K</w>
L and
ला ह</w>
en der</w>
ב ני</w>
у спе
ren e</w>
ன ர</w>
நா ங</w>
υ γ
an te
но к</w>
еме с</w>
خ اڵ
لەبەر ئەوەی</w>
مام ۆست
cz e</w>
ier o</w>
Kommentar erKällor</w>
sa avut
č as</w>
wa ħ
hav as</w>
ijk heid</w>
võim al
Se ñ
inv esti
gə l
all s</w>
mə nim</w>
с на</w>
E sta</w>
pol ož
г ну
fø r</w>
ş te</w>
ก ิ
क ू
про да
і ї</w>
စ ပ</w>
cent ra</w>
ś li</w>
ρα γ
षा ं
пос ле</w>
i du
द ि</w>
ژ ی</w>
con stru
yü k
ren g
ی یه</w>
үү лэ
ص ل</w>
с ала
č ke</w>
kro z</w>
ת ח
նույ ն
j ú
ki enet</w>
o it</w>
la m</w>
g lede</w>
ri t</w>
င ါ</w>
ン グ</w>
த ொ
ம ைய
ท ั้ง
och ran
ger ek
زۆ ری</w>
L ab
tex to</w>
i zi
g ron
ત માં</w>
ष क</w>
ह मा
e ho</w>
con fli
باش ی</w>
mö chte</w>
. 00</w>
es c</w>
aut orit
اف ة</w>
ուզ ում</w>
al ko
f ər
大 学</w>
य वस</w>
เ หม
ē ja</w>
लि या</w>
bħ al</w>
pran eš
те м</w>
पै की</w>
á ria</w>
n äm
kon cer
ட ா
ë se</w>
nov e</w>
cap it
jiġ u</w>
الم ص
μο ν
הת ח
questi ons</w>
दे शा
A L</w>
W ir
ધ િ
મ ા</w>
تھ ے</w>
stø tte</w>
ն կար
C S
θη καν</w>
ī sten
est rat
lo t</w>
אר צות</w>
áci ó</w>
d ë
rel se</w>
en á</w>
χρ όν
it or</w>
م ەن
هەو ڵ
ین ەو
कर ना</w>
Parlam enta</w>
То а</w>
ဒ ေ
ک ہ
ထား တယ</w>
င န</w>
võ t
volvi mento</w>
ա ց</w>
տա լ
Դ ա</w>
мал а</w>
te ik
alt h</w>
な た</w>
ku si
T en</w>
כ מה</w>
īpa ši</w>
к тер
s wo
কো ন</w>
T V
éta it</w>
jed nu</w>
ed uc
16 0</w>
si der</w>
થ ા</w>
အ ဖွဲ</w>
S ed</w>
se p
Su b
b é
वि क
č ki</w>
उ से</w>
ai p</w>
f y
αν τα
о ру
י ל
ấ u</w>
pa ik
in k
g ør</w>
Č e</w>
pu st
κρά τη</w>
f tit</w>
部 分</w>
π άν
خ ص</w>
f lex
mit tee</w>
н ды</w>
ش ع
ע בר</w>
ထ ိန</w>
при мер</w>
ow n</w>
ي ح
I a</w>
بەردەو ام</w>
хоё р</w>
ر ن</w>
при чи
πτ υ
ก ว่า</w>
tr ata</w>
бу ла</w>
pit ä
че ство</w>
Ban k</w>
man o</w>
c ea</w>
း လိုက</w>
န ံ
ze er</w>
š et
r ind
ί ως</w>
e ira</w>
ust an
f f</w>
सु र
ー ム</w>
S v
ка ў</w>
ন ার</w>
t ato</w>
dog od
ma y</w>
prow ad
O K</w>
ħ tie
D od
eri ja</w>
Ar t</w>
izman to
տ վ
D r.</w>
ع ات</w>
မ ား
p ab
ရွ ယ</w>
би дний</w>
nepi ecieš
gran des</w>
व क</w>
spo ł
સ ૌ
સર કાર
gem a
og gi</w>
υπ ό
Ü ber
ze ńst
ष ी</w>
ji b
ж да</w>
θέ μα</w>
men et
embar go</w>
t ter</w>
ju h
mati ère</w>
F is
jon ka</w>
Apart ment</w>
c ùng</w>
ખ ે
en ih</w>
β ι
n ī
հ ակ
ပျ က</w>
szcz eg
du k</w>
ל עי
ด า
Rom â
Л ю
Ч а
rez ol
κυβ έρν
h vad</w>
con tac
kaz zjoni</w>
hu y
s for
ren di
בי י
d nes</w>
ow a</w>
શ ું</w>
ни ца</w>
Κοινοβ ούλιο</w>
s os
ق ات</w>
хүмүү с</w>
k ú
အသ ုံး
ဆ ံ
yy ə
j õ
ال سا
or den
ver den</w>
да х</w>
reb be</w>
sl o</w>
R O</w>
要 求</w>
В ели
m ob
eni i</w>
ك ي</w>
קר ב</w>
ak ter
ส ิ</w>
n ul</w>
면 서</w>
s ing</w>
klar t</w>
ambi ente</w>
گر ی</w>
อ ร์
हु आ</w>
ဆို လို
дру ги</w>
သွား တယ</w>
re port</w>
ı l</w>
а қ</w>
ვ ა
f ab
jon ijiet</w>
rät tig
ב לי
inde pen
ჟყ მ</w>
пара т</w>
որ դ</w>
เ ย
pe dig</w>
ו ש
μέν ες</w>
τα ση</w>
पा द
tent ang</w>
C e</w>
με τά</w>
ч э
de ver
ni ed
cel a</w>
gru po</w>
ட த</w>
ဒါ ကို
း တွေကို</w>
ပျ ော</w>
ω τερ
pier wsz
tom to</w>
ч ення</w>
ד בר</w>
ev alu
de me</w>
ay r
ị ch</w>
бы ли</w>
ти н
and er
ակ այն</w>
հ ատ
רו שלים</w>
s illä</w>
מ ג
bi olog
svet u</w>
Ευρωπαϊκ ή</w>
בע ה</w>
دی ار
uzņē m
жа т</w>
лю бо
ay ı</w>
гра жда
es pe
mož da</w>
यु क</w>
b ạn</w>
con form
мі н
е л</w>
di vi
τού ν</w>
र णा
é ch
ả nh</w>
la at</w>
در ێژ
f all</w>
out ros</w>
あ なた</w>
v jer
sät t</w>
ամ են</w>
mū su</w>
դ րանք</w>
ר מ
са нд
و ب
مح مد</w>
ف ه</w>
h vilket</w>
хи н</w>
kam pan
bu rada</w>
са ка
း လမ</w>
ရှ ေ</w>
အဲဒီ လို</w>
ရွ ာ
oč i</w>
Ital ia</w>
op ort
હ ુ
за да
sa im
ги я</w>
solu tion</w>
os al
에서 는</w>
รั บ
zap ravo</w>
eg as</w>
te š
ma xim
vý rob
at ing</w>
क ै
świ ad
kl er</w>
Al l</w>
પ ડ
ci ą
разу ме
때 문
bru g</w>
သ တိ
သူ တို႔
so it</w>
দ ি</w>
nol o
sär skil
이 다.
ni vel</w>
ν ωση</w>
ר ד</w>
al te</w>
а ши
гэ дэг</w>
घ र</w>
ન ના</w>
ut án</w>
con du
ห ว
း ခ</w>
گ ەی</w>
و ەڵ
بە دەست</w>
کرد نەوە</w>
slag et</w>
եց ին</w>
پەیوە ندی</w>
ber apa</w>
خ ی</w>
હ ું</w>
s og
re du</w>
net .2016</w>
жы л</w>
۱ ۹
ст в</w>
ко ман
po se
sprawoz dan
њ а</w>
pie ņem
τη γ
D ü
zi j
c ei</w>
la k</w>
integ ra
အတ ူ
س ار
服 务</w>
β ο
اس م</w>
ра ль
ख ी</w>
R oy
ин тер
ü m</w>
DN A</w>
ق ت</w>
d á</w>
نس مة</w>
ka st
198 6</w>
sebu ah</w>
kte ří</w>
そ う</w>
Е С</w>
ł ad
od gov
z ő</w>
M A</w>
f ér
possi ble</w>
အ စား
лы п</w>
b ine</w>
to eg
ar ja</w>
in nö
کر تے</w>
デ ィ
dev am</w>
го судар
ա ջ</w>
ījum u</w>
فر ۆ
زۆربە ی</w>
دەک ەوێت</w>
za zione</w>
emb ro</w>
bo ur
conc ur
цен т
N eg
мо р
i re
I K
่อ ย</w>
ver s</w>
ко ж
yüz de</w>
ထ ူး
zw ischen</w>
Ч е
li wo
ધ ી
ευρ ώ</w>
bier no</w>
сте р</w>
माहि त</w>
ke ď</w>
ast o</w>
sk ap</w>
ti f</w>
το λ
isk ās</w>
Ì ãí
H um
ر ات</w>
кі ль
vi š
કા મ</w>
U z
צו ר</w>
i y
ગ ો
ા ં</w>
l ac
ig er</w>
dis kut
In dia</w>
reg ol
alt så</w>
ні ї</w>
น ี</w>
kti on
Г е
z inā
y ks
rä ngen</w>
מ סו
př ed</w>
pajji żi</w>
ac ord
по зна
is m</w>
ex tra
pre ko</w>
ā lo</w>
لا ً</w>
เ หล
s ung</w>
uj eme</w>
ци п
N am
б у</w>
T ut
ز ەو
чи л
ไ ม</w>
پە ڕ
am ment</w>
ני י
bud get</w>
צ ים</w>
အ နည</w>
ဘာ ဖြစ</w>
тэ д</w>
u bi
ক থা</w>
ch il
sio on
ไ ง</w>
aħ ħ
R ol
voor stel</w>
Н і
B y
exist e</w>
ob jav
kesku stel
ز ة</w>
vy so
zin árod
os ť</w>
վ ար
સ માં</w>
Trum p</w>
Per son
կատ ար
ت ها</w>
ї х</w>
ir əm</w>
и я</w>
kun na</w>
ה סו
ре й
ק ור
est er
mes ri
ễ n</w>
ț ion
di ag
di ra</w>
ig o</w>
Par ti
pen g
mil ie
ar ak</w>
mo ins</w>
R ich
usam men
da b</w>
pr ise</w>
ap par
e u
Barcel ona</w>
э н</w>
i di
ti ce</w>
pap il
ə vvə
خۆ مان</w>
år t</w>
டு க</w>
hu ol
don nées</w>
च ौ
کر او
ser ie</w>
re cu
бъ дат</w>
bol j</w>
beg r
ك ار
. org</w>
פקי ד</w>
re al</w>
з ви
bar u</w>
հետ ո</w>
ה קי
ex amin
hög sta</w>
όσ ον</w>
வ ழ
тъ т</w>
S c
ni ez
t x
schap pel
ω να</w>
b bli</w>
ม ิ
cá ch</w>
म ैं</w>
du stri
μέν ο</w>
eb il
ur ança</w>
gover n
ta is
posk yt
din ja</w>
ku id</w>
Ìãí Ú</w>
nød ven
ن ع
over een
माझ ा</w>
coun tries</w>
uk set</w>
้า ง
st üt
ля р
é st</w>
အ ေန
όχ ι</w>
เด ีย
S or
ய ா
ar u</w>
अ ति
ե զ
S trat
uw en</w>
યા ર</w>
mon d
ին ք
պ իս
η ρ
kl ā
am at</w>
l ên</w>
đ âu</w>
ạ c</w>
na p</w>
ti fik
ไว ้</w>
bir lik
in n
vr lo</w>
H and
வ ீ
ျဖ င</w>
န ီး
သ လို</w>
en ím</w>
si ę
L et
из ве
henvis ninger</w>
رو ع</w>
ال عل
чу в
T ek
hø j
อ ั
l ere</w>
Cent ral</w>
τ ευ
те т</w>
C A</w>
го спо
vä st</w>
vi er</w>
במ ס
transpor t</w>
mak e</w>
Ch rist
তোমা কে</w>
то н</w>
કો ર</w>
cul tura</w>
ώσ ει</w>
nek i</w>
资 源</w>
άσ ει</w>
за ко
ф он
aj ú</w>
ι λ
chuy ện</w>
प णे</w>
fu e</w>
ბ თ</w>
тэн цүү</w>
yaln ız</w>
ska id
publi que</w>
san s</w>
в ръ
ה די
pan i</w>
এখ ন</w>
सम य</w>
तर ह</w>
der na</w>
ن ان</w>
vis e</w>
ئە مانە</w>
کۆم پان
जा ते</w>
qu y
re v
at y</w>
lar ına</w>
Ekst erne</w>
რო მ</w>
ilg ili</w>
mu ch
sk lad
认 为</w>
əc əy
ar vi
eš u</w>
ma a</w>
K li
st ic
in as</w>
sab iex</w>
nas z
երե խան
ս ով
επ ικ
विचा र
b om</w>
ep is
4 5
pri vat
aci a</w>
лы г</w>
С он
ь е</w>
qu at
H ost
cri p
β άλ
シ ョ
ב חי
S U
št ě
mer kit
ņ as</w>
和 平</w>
ot s</w>
ก า</w>
di al</w>
ေျ မွာက</w>
ခ ွဲ
ရ တာ
резу льта
ασφ αλ
ப டுத</w>
같 은</w>
euro s</w>
á o</w>
હા ર</w>
f å
მ ს</w>
af ri
š te</w>
p el</w>
com missar
col lec
bag ħ
ว ง
เ ธ</w>
en ze</w>
ac um</w>
mog li</w>
kör ny
سو ڕ
ब ड</w>
جیاو از</w>
چاو د
pra v</w>
ml u</w>
ना व</w>
▁ า</w>
на прави
j is
со зда
နေ ပါတယ</w>
ে ল
mä ä
arbet e</w>
pre gun
ț a</w>
az on
när heten</w>
iz a</w>
σ ημα
r ů
ти ся</w>
ภา พ</w>
h l
ע ק
ड ा</w>
e au</w>
П ос
r s</w>
မြ န</w>
န ယ</w>
L o</w>
vis ko</w>
tam o</w>
c í</w>
д ни</w>
ж ур
um is
ب ها</w>
пра кти
લ માં</w>
ė ms</w>
at ok</w>
ع ند
sag t</w>
ġ i</w>
bi ra</w>
m ov
apr ès</w>
be hö
המ ק
ту а
य ता</w>
ე რ
ε β
sē dē
تم ام</w>
p ana</w>
me ti
se ura
tiegħ i</w>
my n
си те</w>
ဂ ရ
è mes</w>
ни ки</w>
г ри
ıl an</w>
oc k</w>
ס ון</w>
ek sem
یەک ە</w>
کر اوە</w>
بیرۆ ک
کات ژم
بڕ یار
بەک تر
En tw
ex peri
vě d
ar ía</w>
л ъ
pro tiv</w>
al ia</w>
օր ին
ch a
se b</w>
Vide o</w>
H om
mon do</w>
Z ap
S r.</w>
ام ه</w>
tid ligere</w>
ab ord
ج مي
ot ā
מש ת
f ə
deput ado</w>
ф ут
é gi
val am
kan t</w>
போ து</w>
a ument
az e</w>
e ux</w>
instrum ent</w>
סי ה</w>
ak tu</w>
แ ข
то ва
miej s
κο ύ</w>
j ana</w>
CO 2</w>
ス ト</w>
रा न</w>
ز گ
ши й</w>
le hető
ή γ
ob y</w>
Mis lim</w>
ευ θ
сты қ</w>
p ili
من ط
X X
di alog
чен ь</w>
á sa</w>
ל בו
πλα ίσ
sab ied
ήσ ουν</w>
ον τας</w>
polit y
ต ่อ</w>
radi o</w>
ا ة</w>
se arch
c s</w>
re présent
pre su
هەر گیز</w>
دەر کەوت</w>
במ אי</w>
п та
ં ત</w>
ent ale</w>
iest ā
աս ում</w>
ေ ျမ
szá má
at ta</w>
nog et</w>
bol o</w>
mil ion
prá ce</w>
el abor
jo ur
אנ שים</w>
vaik ut
medlemsstat er</w>
ได้ รับ</w>
fon dam
ن ح
ت ف
U d
n iti</w>
v se
ei vät</w>
Est as</w>
а дзін</w>
و ك
od nos
EL i</w>
сы з</w>
я г</w>
ко ли</w>
kk al</w>
ป ร
im iz
b ry
at tiv
ذ ه
Ка к</w>
polí ticas</w>
об я
भ ी
O per
k ung
ब स
Dem ok
הי הו
for am</w>
κ λη
ო რ
ли сь</w>
mil jon
ber t</w>
тел ей</w>
rez za</w>
त न</w>
ی د</w>
ı q
ت ان
گ رو
ni ke</w>
t ới</w>
jan je</w>
ш мат</w>
ဘ ု
S ak
се н</w>
Εί ναι</w>
va še</w>
no ut</w>
ئەنج ام
g jen
nh ân</w>
раз лич
inst it
मा ण
க ை</w>
ter az</w>
ó ng</w>
d ü</w>
H o</w>
학 교</w>
administ rati
ci jo</w>
re au</w>
ра ни</w>
na uč
се й
de bat</w>
бү х</w>
่า ย</w>
ει ες</w>
אי רו
sk al
coll ega</w>
ตั ว
တွေ မှာ</w>
ြ ယ</w>
tem ent</w>
għ ali
ла га</w>
so wie</w>
M id
主 义</w>
kuri e</w>
да та</w>
ż ew
198 7</w>
be hand
de ce</w>
ры на</w>
հետ և</w>
tu d</w>
आ र</w>
ki ų</w>
э лек
G ri
А л</w>
vi im
su fici
ist ra
onder zo
de ste</w>
Mic ro
ú čin
ش کر
äm p
B S</w>
νο ς</w>
tiem po</w>
i yi</w>
ႀက ီး
la at
reg ering</w>
ज वळ</w>
19 60</w>
A pp
נ ט</w>
ול א</w>
všet ky</w>
pl es</w>
su b</w>
ö ö
d ärför</w>
ह ू
ż joni</w>
ներ ում</w>
خۆ ت</w>
م ط
å ter
γ εγ
j ár
خ ت</w>
خي لي</w>
vo k
学 校</w>
mi gra
and us
ne et</w>
с ол
fir st</w>
ه نا</w>
ေယ ာက</w>
je ć
ح ه</w>
ре жи
бу ли</w>
гэта га</w>
am et
ма тери
N ak
та го</w>
prz ek
o y</w>
ci ał
ק לי
pro g
सु द</w>
me y
īg s</w>
in nen</w>
بی ری</w>
пред ло
ع ية</w>
su d</w>
ուն ի</w>
hal b</w>
mil yon</w>
முடிய ும</w>
reik al
Kan ada</w>
з о</w>
ді в</w>
R el
gi ờ</w>
di j
Mar i
დ თ</w>
b el</w>
ng hi
cat eg
col leg
с ме</w>
जा न
પ હો
ای دا</w>
ol u</w>
hor as</w>
ta is</w>
ka is
va ar
ва й</w>
pre zy
B ay
աց ի</w>
доб ра</w>
об щи
svilup po</w>
ကျေး ဇူး
та х</w>
t ali</w>
بەڵ ێ</w>
مرۆ ڤ</w>
be w
gen o
c ów</w>
כ ות</w>
aug usti</w>
fan ta
bel ang</w>
нэ гэн</w>
сто й
W ash
ক ার
at kan</w>
pom oc
Росси и</w>
ว ัน</w>
D or
c em</w>
logħ ob</w>
0, 000</w>
َ ّ
i que</w>
K la
ေလ း
jkun u</w>
ą t
по лі
ام ان</w>
ل دي
derech os</w>
ն ման</w>
Ի ս
στ όσο</w>
נ ת
fi re</w>
R ah
צ י</w>
fi x
pres s</w>
n ete</w>
positi ons</w>
f o</w>
köz pon
વા રે</w>
st ä
ע בור</w>
któ ra</w>
al ı</w>
situ ación</w>
ен ер
ко ль
на чин</w>
نظ ر</w>
и йн</w>
A D</w>
b ộ</w>
ခေ ါင</w>
ау да
ျပီး ေတာ</w>
က င</w>
တူ ညီ
men c
ties ību</w>
ρ α</w>
v red
æ g
सांग ित
णा री</w>
ח נו</w>
għ al
m lu
de f
in ė</w>
oit te
index .php</w>
к ни
h ành</w>
הש לי
تەو اوی</w>
á g</w>
y le
рабо та</w>
k ek
er ende</w>
保 护</w>
wi el
po gled
क म</w>
kon ver
st ag
anime. net.2016</w>
O ni</w>
ட ங</w>
am pli
S ob
pr u
kom me</w>
per mezz</w>
pl ā
ع ي</w>
R unt</w>
бай ж</w>
С е</w>
по се
logyourrun .com
logyourrun.com .2016</w>
ı b</w>
nazion ale</w>
по ча
г ли</w>
tw are</w>
si oni</w>
fi d</w>
ब दल</w>
ה שני</w>
όμ η</w>
memb re</w>
ص ح
in ci</w>
e zi
ā tes</w>
继 续</w>
ec eğ
мә сел
т кен</w>
H ig
ျပ င</w>
sel t</w>
nj ega</w>
چ الا
xogħ ol</w>
ن ى</w>
д ні</w>
т ни</w>
ل س</w>
A k</w>
mar kk
pro bab
skut eč
Г ер
ม หา
P aul</w>
н ө</w>
ک ش
sp let
V à</w>
20 .</w>
செ ல</w>
vis a</w>
c y
ո գ
ста нови
շ տ</w>
इ तर</w>
עו ד</w>
c ittadini</w>
n r</w>
sam men
ма є</w>
م انی</w>
ac ja</w>
પ ત</w>
in ci
ka z</w>
ni kov</w>
næ v
رۆ ژ
ئەنج ام</w>
အခ ါ
fø re</w>
по вер
vr š
De ut
mem il
ব ন</w>
tak e</w>
ул ж</w>
бол сон</w>
kemb ali</w>
o or</w>
ต อน
રા ખ
pl as
J en
ன ும</w>
όλ α</w>
дз ь</w>
ka h</w>
πλ έ
օ ր</w>
commun ic
ba h</w>
во ї</w>
ha qq
भ ो
Geor ge</w>
тел я</w>
વધ ુ</w>
cul tur
mar s</w>
il ig
Gru po</w>
ta x
vel mi</w>
ez visko</w>
tra f
ح سب</w>
ત ો
n ā
D E
4 6
b os
רכ ז</w>
P lat
ist as</w>
vi kti
Gro up</w>
viel ä</w>
bes onder
s un</w>
ળ ી</w>
var ētu</w>
д жа
sēdē tā
ori ja</w>
g ren
va at
ба й</w>
mer upakan</w>
א לו</w>
ation s
ค น
is hte</w>
તેમ ના</w>
c ando</w>
धा न</w>
目 标</w>
с к</w>
aj ící</w>
stör re</w>
nú mero</w>
ra i</w>
ە نی</w>
dop o</w>
dies es</w>
á nh</w>
ז כה</w>
ци й</w>
тво р
تح ت</w>
feren za</w>
оди н</w>
jun to</w>
Б ү
mi esto</w>
sv é</w>
ел а</w>
ก ุ
ٹ ر</w>
we it
หน ้า</w>
sta wi
ün k
не р</w>
ン ト</w>
b age</w>
प ा</w>
si me</w>
í te</w>
pak alpo
forskel lige</w>
post oji</w>
ی ر</w>
ec t</w>
đ a</w>
U l
ال ية</w>
me ie</w>
А й
M ay
rz ec
း ရင</w>
ပေ မဲ</w>
u po
वि क</w>
ג ו</w>
á v
pir minin
र यत</w>
liik mesri
ở i</w>
κά θε</w>
قا ل</w>
kom ent
ի ք
V id
hem os</w>
מי ן</w>
νω σης</w>
ć ete</w>
ven dé
sesu atu</w>
aj an</w>
не што</w>
а ди
υπάρχ ει</w>
چ ي</w>
ah ora</w>
ih en</w>
proto že</w>
ta ja</w>
ex clu
מ חו
wer king</w>
ڕا کێش
فێر ی</w>
ج ێ</w>
ka za
к әсі
dec is
လဲဆို တော</w>
טו ב</w>
P anie</w>
ad res
גו סט</w>
k ev
บ ้าน</w>
ко ро
અ નુ
εκ ρι
ma q
ни ка
N L</w>
Mar ia</w>
ver sion</w>
ol mad
ίζ ω</w>
mon itor
oport uni
europ ä
ώ στε</w>
ą ć</w>
maat regelen</w>
ن ت</w>
ла н</w>
li b
ต ุ
ac qu
เพ รา
comp te</w>
ร า</w>
ngh ĩ</w>
پ و
а сы
လ ေ
წ ბ
อย าก</w>
qə t
R ady</w>
P C</w>
מו ס
P D
คร ั้ง</w>
ו ד
нь о
rel igi
n ými</w>
ו ון</w>
קו פה</w>
vol as</w>
सम स</w>
મં ત</w>
ż sz
di ca</w>
R oma</w>
এখ ানে</w>
zap ew
gem een
ul la</w>
τοι χ
ri r</w>
P oz
ēj ā</w>
tri b
د ث</w>
γεγ ον
Can adi
ма а
ili dade</w>
ist ifadə</w>
Uni es</w>
ot o
Έ νωση</w>
Pre siden
за р</w>
य र</w>
ten de</w>
ز مان</w>
ett y</w>
D enne</w>
по звол
дру го
δι απ
че ния</w>
w id
בש ם</w>
м аль
an un
เห ็น</w>
G y
lag t</w>
ني م</w>
Evrop ské</w>
S ır
st vu</w>
I li</w>
S un
kol eg
ma ž
במ ק
ब ी</w>
il de</w>
po uží
ü le</w>
мы з
lak ukan</w>
yb os</w>
о в
пред стави
o ù</w>
री क</w>
ér de
αν θρ
נ ד
Kat eg
לח מה</w>
ય ે</w>
premi er</w>
a antal</w>
जा र</w>
lis ä
aħ jar</w>
א ט
ار ة</w>
no v</w>
daugi au</w>
th er</w>
közel ében</w>
वा न</w>
b ai</w>
sta w
ध ि
วัน ที่</w>
l d
bu il
an as</w>
q al</w>
ये त</w>
х лэ
O ri
S amo</w>
si mo</w>
ear s</w>
या तून</w>
मेंद ू
wer d</w>
כ ם</w>
ј ас</w>
do el
sec ur
де ді</w>
ێ ك</w>
ییەک ان</w>
شێوا زی</w>
b ät
ထ ိုး
un que</w>
jo je</w>
d ä</w>
198 5</w>
ר פ
คร ับ</w>
су ще
før st</w>
prime iro</w>
propu esta</w>
qu elle</w>
Th u</w>
努 力</w>
eb da</w>
м ала
europe iska</w>
H aj
L ar
se zon
l age</w>
Wil li
gel se</w>
ب رو
j us</w>
prod ut
aut re</w>
is se</w>
้ อ</w>
i .
fæl les</w>
m esto</w>
ခ ဏ
ં બ
re l</w>
ي و
dire itos</w>
ví ce</w>
ર ની</w>
անգ ամ</w>
ող ջ</w>
kut en</w>
kw esti
de ta
ensk ap
si ge</w>
mu z
ved ere</w>
př i</w>
ili dad</w>
რპ წბ
parlament et</w>
befol kat</w>
ב ספ
ال بر
st å</w>
ba ina</w>
ற ால</w>
ăr ile</w>
স ব</w>
жы ц
ме сто</w>
ţ in
п ал
ەکان م</w>
بەک ار</w>
mus s</w>
вы м</w>
하 지만</w>
al tro</w>
חו ק</w>
p eg
sp us</w>
ব ু
ż mien</w>
kon sum
po ż
ati f</w>
ทุ ก
ჟრ თ
sor t</w>
L en
αν ο
ч ного</w>
ka ch</w>
değ il</w>
po co</w>
princi pal
D ep
c '</w>
z as</w>
g egen</w>
F am
ह ि</w>
ca ł
gl ę
са н
an či
ska it
no zī
ונ ת</w>
だ っ</w>
es pec
ma g</w>
רי י
ب ڑ
ն րա</w>
log o</w>
о ри
jum i</w>
c .
при зна
έ δ
v ā
е сть</w>
ग रज</w>
лек санд
pri ezvisko</w>
loc al</w>
હ વે</w>
W hat</w>
לו וי
é k</w>
ü mü
chi ar
bis mo</w>
gem en
u al</w>
то рі
된 다</w>
le het</w>
ど う</w>
h und
шо ў</w>
b ack</w>
έχ ουμε</w>
k ke
to w
у ва
ac er
kom it
accor do</w>
mil le</w>
я ма</w>
W er
ჱ თ</w>
م نیش</w>
mai or</w>
ла ды</w>
تەو او</w>
دە بن</w>
بەڵ کو</w>
تە مە
ց անկ
ker s</w>
ol ika</w>
a ist
St and
ma m</w>
έ ψ
ke ine</w>
си я</w>
bud ou</w>
ви д</w>
M ur
ul d
rz y</w>
வ ந</w>
R io</w>
s ning</w>
ol lut</w>
br and
ર ણ</w>
ả m</w>
ał y</w>
sy tu
ला व
vý š
ves el
C ó</w>
mili ar
p ij
syst ème</w>
contro l</w>
v t</w>
тэ р
vi ma</w>
tr ước</w>
ခ ွန</w>
စ င</w>
ո ք</w>
tal l</w>
în tre
ħ in</w>
жа ғ
ச ில</w>
கிற ார</w>
அ ழ
v are</w>
ί ς</w>
mo di
ấ p</w>
už it
य म</w>
хо ро
cid ad
ụ ng</w>
ran e</w>
I N</w>
lä ng
N ach
telef on</w>
Com missar
эн ер
h í
fon t</w>
lij ke</w>
हा र</w>
bi ų</w>
des sä</w>
cor rec
ħ a
э ж</w>
eg iten</w>
နေ ခဲ</w>
а з</w>
शक ता</w>
š ir
زی ات
ટ માં</w>
veik sm
دو ایی</w>
u ti
w een</w>
נ ק
آ خر</w>
ә кі
posi zione</w>
ی مان</w>
c ần</w>
શ ો
G az
sch im
תו צ
по ка
sa in
ल न</w>
ز ا
M os
teg en
促 进</w>
aizsar dz
эс вэл</w>
3 3
qu ar
အ ောက</w>
ิ ่ม</w>
J angan</w>
ret t</w>
zeg gen</w>
ac este</w>
γ υ
D V
mô že</w>
ov no</w>
d ő
ל שי
e e
въ про
kat er
k is</w>
այ լ
ー ス</w>
m r
isi ä</w>
w ür
Cent er</w>
主 要</w>
Д ля</w>
σ ίας</w>
ற ை</w>
ύ ρ
n ite</w>
ص ر</w>
પોતા ના</w>
ما ذا</w>
be jn</w>
ст рі
ဒ ု
ူ င</w>
W at
ri ż
le jn</w>
vast u</w>
ต ิ
Po ur</w>
mis lim</w>
dui delijk</w>
би ч
ու տ
b es</w>
im os</w>
T as</w>
து க</w>
dost up
bes cher
دەر ەوە</w>
या चं</w>
نزی کەی</w>
کو ڕ
ĝ as</w>
nik ów</w>
加 强</w>
géné ral</w>
тел ни</w>
su i</w>
құ ры
ه ار
Mitgli ed
ұ йы
о ры
แร ก</w>
du ra
ett ev
ष ि
ско м</w>
я лық</w>
k ta</w>
ni m
С ле
п ря
cel eb
Д ж
з ы</w>
col o</w>
θέ λ
stan bul</w>
တွေ ပါ</w>
म ृत</w>
memil iki</w>
ak h
ses sion</w>
su ure
im enti</w>
हा न</w>
op or
parlam ent</w>
du z
i ras</w>
ran o</w>
198 4</w>
м оло
ū ras</w>
min uta</w>
T ë</w>
대 한
h ões</w>
B ang
ap ril</w>
kol a</w>
zam ě
เ คร
ա չ
č er
mű kö
dal je</w>
R oz
կար ող
er ed
In vest
ul es</w>
ဆ ြဲ
man y</w>
ste un</w>
го д</w>
z ur
הב רי
g ali
sup port</w>
va ť</w>
ت ک</w>
Ха рин</w>
ш та</w>
ื่ อง
по ста
જ રા
נ מצ
ud en
stan ov
po put</w>
را ء</w>
મ ૂ
пу та
mill ones</w>
Pol it
ч них</w>
F ör</w>
તેમ ને</w>
ró ż
धा र</w>
Rob ert</w>
ran a</w>
god t</w>
သိ မ</w>
B .</w>
евро пей
w as
ημ ερ
x ə
с ә
a ŭ
se arch</w>
frå gor</w>
a ş</w>
гэ дгийг</w>
ör ö
нды қ</w>
গ া
வ ை</w>
ל ל</w>
Ser vi
col e</w>
ва на</w>
pa ñ
uz u</w>
ত ি</w>
M as</w>
szolgál tat
qu esti</w>
í na</w>
דו ג
B A</w>
ph e</w>
от ри
သ လို
iespē j
မ ီး
ing u</w>
ш ал
Prä sident</w>
n ên</w>
j at</w>
í Ê</w>
երկ ր
ta x</w>
ik us</w>
ljan je</w>
in ar
ب ان</w>
기 도</w>
J es
سەر نج
خ ەو
س ەن
دا هاتو
وڵ ات
st ati</w>
ant ag
हु ई</w>
È Ê
ပြ ီ
ં ટ
E en</w>
u prav
с мо</w>
dü zen
drugi h</w>
э м
स म</w>
ex er
которы й</w>
որո շ
bel um</w>
al an
Κα ι</w>
ph át</w>
ru pa</w>
पु स</w>
cos ì</w>
पु र</w>
ma sih</w>
छ ा</w>
а мерикан
tul ev
ন ো</w>
થા ય</w>
pres ente</w>
t ang
た ち</w>
ми ра</w>
ေအ ာက</w>
з ал
at y
बा र</w>
بار ے</w>
ge tir
ண ி
P ag
கு ழ
س ية</w>
f ær
L ig
و رو
ચ ી
waħ da</w>
Mich ael</w>
αυτ ές</w>
נ ע
հ ա</w>
β λη
ці в</w>
ч л
த ன</w>
t v</w>
த ற</w>
ţi ile</w>
län der</w>
zí sk
تە ماشای</w>
دۆ زی
в но</w>
жаң а</w>
K ost
ci mento</w>
बाहे र</w>
के लं</w>
β ολ
situ ação</w>
г гүй</w>
sicu rezza</w>
о п
bo y
v ue</w>
е ді</w>
of fer
أ خ
b all
ти й</w>
asu pra</w>
Liet uv
wię cej</w>
ז י</w>
v é</w>
L än
S y</w>
кі х</w>
ma ak</w>
λ ει
ισ το
ल र</w>
vo de</w>
ин вести
cul o</w>
қ қа</w>
ob y
ე ს
م قا
к т</w>
А ф
stat us</w>
sch lie
เค ย</w>
제 가</w>
recher che</w>
ت را
لا ح
一 些</w>
mo c
र ं</w>
के ल</w>
ber o</w>
α ζ
επι χειρ
חיצ וניים</w>
stā v
sc en
մեկ ը</w>
i bil
lo u
စ ုံ
တွ င</w>
ن ط
ды г</w>
ગ યા</w>
בא מצ
ok re
b ene</w>
al eg
pi ir
ro h
λο ι</w>
ż ej
ο μάδ
ag t</w>
برا ي</w>
ti onen</w>
الش ر
T ren
st var</w>
ئا بو
ڕێ ک
ز ەر
ح ەز
אנ חנו</w>
hov ed
ill et</w>
ε μ
אח רים</w>
स ब
et es</w>
کر یں</w>
á rios</w>
ex pli
B ad
अ जून</w>
R od
si v</w>
tur p
αντι μετ
ust var
ט מבר</w>
in tre
land s</w>
í amos</w>
əc ə
3 D</w>
li jn</w>
Қ ы
եր ին</w>
g iz
מ כן</w>
दु र</w>
w est
行 为</w>
produ its</w>
giv ningarna</w>
ु दा</w>
R am
con fir
נ ש
а қ
vä č
מי ים</w>
ו ק
Co un
ev it
त ू
о ны</w>
ف ت</w>
ca usa</w>
ί τερ
во про
ha de</w>
anst alt
d ato</w>
Komis ijas</w>
ba sis</w>
гра фи
地 区</w>
pr ø
မှာ တော</w>
ני צ
N u
L it
إ ي
ல து</w>
z or</w>
т та
ل ان
tem pat</w>
pre şed
но р
जा त</w>
ε γκ
ให ญ
ту ри
al er</w>
ت س
h rá
D ž
th ose</w>
τ υχ
ven i</w>
ar kan</w>
ێک یان</w>
بە هۆی</w>
ئە مری
ەک ر
ေရာ င</w>
خۆ را
K ada</w>
စ တင</w>
un tos</w>
sin h</w>
m ur
for der
al nih</w>
კ ს
ра йо
x ã</w>
zn amen
politi que</w>
so ft</w>
ছি ল</w>
E fter</w>
ci s</w>
բ ար
hak k
պատ ր
Դ ուք</w>
երկ ու</w>
med borg
W est</w>
mek lē
הר ב</w>
ز ای
мил ли
ol em
seg uridad</w>
söy ledi</w>
to h
M é
แค ่</w>
er ade</w>
st ek
t ự</w>
သ ား</w>
trebu i</w>
com por
æÞ íÊ</w>
הש נייה</w>
ز ن</w>
бола ды</w>
gün ü</w>
تا ب</w>
H va</w>
נ ט
E F
रा प</w>
у н
li v</w>
š k
ро ків</w>
æÞ ÇÊ</w>
ÇáÃ æÞÇÊ</w>
li r</w>
ÈÊ æÞíÊ</w>
एक त</w>
на ми</w>
s jäl
compl et
vis t</w>
Ал ма
ι ών</w>
us pe
ка ры
ver o</w>
prot est
Ф е
a a
Mag yar
ခု က</w>
ရိ ယာ
K ø
i os</w>
ok un
ن ہ</w>
л ю</w>
ti fs</w>
per spec
الو لا
nek aj</w>
ev entu
ئ اڵ
مێش ک</w>
با ڵ
زان یاری</w>
g im
ú gy</w>
ש הו
lež ité</w>
хү с
j uma</w>
ր ան</w>
Ն րանք</w>
lal u</w>
ї ї</w>
م دينة</w>
y ok</w>
있 었
zn am
မ န</w>
ad s</w>
k ı
ท าง
fem mes</w>
ة .
el as</w>
F el
בע ת</w>
ச ிய
மு ன</w>
9 년</w>
handl ing</w>
חי ל</w>
projek tu</w>
ที่ จะ</w>
vy k
van je</w>
美 元</w>
מ ז
жа р
ке рек</w>
hu omi
ગ ી</w>
kt er</w>
la is
ле т
Kontak t</w>
θή κ
ver ant
ci ò</w>
c ita</w>
με λ
am aan</w>
szer et
կ ապ
parti r</w>
kon tin
ag ent
ه ان
o h</w>
လှ ုပ</w>
develop ment</w>
C la
கி ன</w>
or ta
ind re</w>
ва я</w>
obč an
פ עי
prz e
O S
д ала
ö yr
T ex
г де</w>
dan n</w>
di b
χρόν ια</w>
deman de</w>
á vel</w>
mə nə</w>
bur gers</w>
ہ مار
것 을</w>
ten s</w>
П ол
ڕا بر
acti vi
ق ية</w>
О р
tagħ mel</w>
č í
virk som
ք եր</w>
բոլ որ</w>
હત ાં</w>
λο ν</w>
в .</w>
ar ab
ģ ijas</w>
ნ ი
મળ ી</w>
ઈ ને</w>
W est
е на</w>
хэ мж
c ī
pun ya</w>
ro ve
S zer
zi v
Ц е</w>
E D
ફિ લ</w>
hall it
I m</w>
Com mittee</w>
л та
gö ster
ल गा
194 5</w>
ıl dı</w>
tir g
de š
desarroll o</w>
ai he
Twit ter</w>
al ar</w>
j koll
ki er
kon sek
պ ր
د م
āl ās</w>
ع بد</w>
ħaj r</w>
Мо же
сэ тгэ
пар ла
ul ar
N år</w>
inf o</w>
ε λλ
ỏ i</w>
са х</w>
oh l</w>
al in
mennes ker</w>
ה ול
קט ובר</w>
w here</w>
respec to</w>
er is</w>
μφ ωνα</w>
ra o</w>
ro bi
fu er
pod le</w>
tak o
ανά πτυ
ойл го
मा त</w>
شوێن ی</w>
נג ד</w>
ا ش
ב די
ja ħ
Այ ս</w>
m ap
ek t
A ir</w>
g ă
kur a</w>
х алы
po se</w>
νο υ</w>
os nov
و الت
ве ро
ū ra</w>
te il
grup po</w>
م م
ष णा
πλέ ον</w>
t êm</w>
з ү
ح س
دا ً</w>
ו ס
ต ั้ง</w>
pap el</w>
ו ר</w>
re ser
so uč
S k
ال بي
tro š
vod u</w>
P ré
ci ó
ss el</w>
in os</w>
ล ่ะ</w>
ชี วิ
лю дей</w>
nag y</w>
str ut
câ t</w>
е ще</w>
e ń</w>
ты х</w>
սով որ
Pre d
O ne</w>
ill eg
း ပါ
အ ံ</w>
D ig
pro ċ
סי ת</w>
پ ھر</w>
o .
हो गा</w>
ημα το
E con
ं क</w>
Isra el</w>
то ри
περι ο
g dje</w>
C o</w>
не е</w>
con os
concer nant</w>
læ ng
тэ г
ق ل</w>
dak ı</w>
ge be
m ä</w>
ش ێر
le y
ք աղ
հն ար
بە شێوەیەکی</w>
գ լ
واب زانم</w>
ke a</w>
l á</w>
پ رو
en os</w>
း ကျင</w>
ဘာ လို</w>
စ ောင</w>
ên cias</w>
것 은</w>
r h
я л
n ær
pre bi
ди йг</w>
aj ām</w>
Z er
شت م</w>
ec a</w>
ति थे</w>
מאו ד</w>
um ož
Entw ickl
Л і
προ τ
nost ro</w>
al y</w>
ry n
o wa
ول كن</w>
sv eta</w>
ски е</w>
ml ad
l ớ
di yi</w>
pri e</w>
ใหญ ่</w>
мү м
b ok
štev il
ગુ જરા
กำ ลัง</w>
be eld</w>
pr or
pu h
մո տ</w>
b ēr
အသ စ</w>
အေ ရ
း အား
ခ က</w>
y ears</w>
en contra
No us</w>
vē l</w>
mist ä</w>
거 야</w>
r ar
ri g</w>
વધ ાર
al can
v em</w>
bah wa</w>
ka u
к то</w>
S ain
μ ικ
stran e</w>
z ure</w>
يم كن</w>
deci r</w>
th en</w>
κ ρι
秘书 长</w>
iev ē
enf ants</w>
у ы</w>
compro mis
đị nh</w>
ઘ ટ
bet ween</w>
Д ру
զ ի</w>
եց ինք</w>
Ի նչ
T eh
ەی ەی</w>
ن ەو
อ ด</w>
kontro ll
ι δια
信 息</w>
ટ ો</w>
รั ก</w>
e ur
य चा</w>
Έ νωσης</w>
se xu
ακ όμη</w>
өн ц
гэ вэл</w>
б я</w>
om fat
ept ember</w>
ศา สต
c au
လို ႕
res sources</w>
C entre</w>
E t</w>
dzi ej</w>
tar kist
dan sk</w>
sal ah</w>
дэ н</w>
Am ma</w>
e ie</w>
ل گ
r ê
परिणा म</w>
li vel
be fin
ré pon
мо г</w>
i ż</w>
min u
posi ção</w>
המש פ
m ungkin</w>
ا چھ
і с</w>
sub stan
ni ž
ль ки</w>
ain en</w>
tol iko</w>
oh jel
ไห ม</w>
די ו</w>
vo d</w>
cz as
က ွန</w>
လ ိပ</w>
M eh
vé ny
સા મે</w>
پ ي
J ames</w>
Г о
kom st</w>
س ك
ब ल</w>
J uli
jed no</w>
zar adi</w>
گر تو
гү й
ناو ە
રા જ</w>
на ві
мен і</w>
و ێ
үе д</w>
yst ä</w>
எ ல</w>
щи те</w>
t ed
J .</w>
То й</w>
سا س</w>
P PE</w>
differ enti</w>
h iss
. K
açı klam
συν εχ
r ằng</w>
המ ת
о з
b all</w>
бө лі
ün de</w>
besk yt
form ation</w>
থা ক
D aw
wsp ól
merc ato</w>
vál to
τομέ α</w>
alar ı</w>
Ч ер
জ ি
av ea</w>
i do
နိ ူင</w>
ဥ ီး
မ ိတ</w>
ח ר</w>
o ud
פר ס</w>
ش هر</w>
v ključ
пра во</w>
l el
ber e
o ar
av ut</w>
lu k</w>
eż y</w>
kw est
del sen</w>
ov ej</w>
miet innö
ب ح</w>
vå ra</w>
ઓ ને</w>
con fer
ту хай</w>
ג י</w>
ст ве</w>
לי ון</w>
met ų</w>
อ ุ
F al
љ у
р д</w>
trans fer
המ אה</w>
av er
կ են
Իս կ</w>
ဂ ီ
း တို</w>
ні я</w>
ell ement</w>
mod el
sp on
цы і</w>
сі х</w>
ื่ น</w>
کۆ تای
ی انە</w>
ku p</w>
LE D</w>
ви кори
žel im</w>
жи ва
τ ή
közö tt</w>
I .</w>
Z em
t vo
je ště</w>
j ä</w>
myn dig
अस लेल</w>
до ку
ư ới</w>
proc é
आ ठ
Ir lan
ri as</w>
ř eš
dis krimin
at om
Н у</w>
už tikr
ì m</w>
ိဳ း
လ ူ</w>
ներ ն</w>
da zu</w>
vé g
表 示</w>
i ção</w>
توس ط</w>
un ut
ισ ε</w>
ام ل</w>
bor g</w>
ع مل</w>
g n
κει ται</w>
Пре зиден
ل ام</w>
di z</w>
at ra
ча сти
κατα στ
ช าย</w>
gi ver</w>
A da</w>
szczeg ól
Kom ise</w>
vo it
değ iş
bar dziej</w>
ми р</w>
di da</w>
на т</w>
għand ha</w>
ви е</w>
v l
ž io</w>
ပ ံ
do hod
ر ان
ö ff
mb ito</w>
z are</w>
in ts</w>
들 어
col a</w>
ส ถา
э того</w>
доб ро</w>
πλαίσ ιο</w>
ow ie</w>
Ү ү
l itt</w>
ต ั้ง
ло гі
ა კჲ</w>
t ung</w>
wsp ół
ä ra</w>
п ли
ভা বে</w>
últi mo</w>
An ton
m ær
N ig
c un
ہ میں</w>
ja q
த ல</w>
ча й
C R
ကျ နော</w>
kon tra
ရ ို
m un</w>
လ ပ</w>
stá le</w>
tar ko
o am
conditi ons</w>
ق رار</w>
vi ên</w>
ส อง</w>
и ск
дей ін</w>
ço cu
bar t</w>
emb ru</w>
nederbörd. KommentarerKällor</w>
ж о</w>
él ec
इ च</w>
стра н
אבי ב</w>
נו ע</w>
ίν εται</w>
ک ہا</w>
ίζ εται</w>
نی م</w>
क न</w>
Tri bunal</w>
v rat
ف ار
medi o</w>
ho je</w>
ေခ ၚ
အေ ပါင</w>
သမ ီး
my ön
åtgär der</w>
os an</w>
J or
uk s
ktor í</w>
фе рен
خار جية</w>
તેમ ની</w>
Comis sá
А мери
sä än
t zen</w>
П и
द ौ
I ż
ciudad anos</w>
ah an</w>
pe uvent</w>
य ू</w>
ค ว
ஒ ன</w>
F ru</w>
sä ker
дзі ць</w>
J es</w>
rezer va
hospod ár
m â
نمو ن
ön ce</w>
P E
l ý</w>
ç ünki</w>
ل ط
het ő</w>
K ab
vis i</w>
con fi
i as</w>
j esz
ob yw
import antes</w>
ચ ે
دا هات
จ ึง</w>
ناو چ
ob er
پێ شتر</w>
b ora</w>
ल ग</w>
εν ός</w>
ho ud
सक ता</w>
ar m
у слу
ө ні
вы ра
R usi
o wi
benef ici
gal im
و جود</w>
am éli
li y
D ist
τρό πο</w>
Ա հա</w>
зра бі
č nih</w>
S r
pos sí
f att
svě t
emb ra</w>
h ace</w>
T ab
ट र
ق لي
Ba ina</w>
econom ische</w>
ζ ω
โร ง
eg u</w>
ə ni</w>
ב בית</w>
ur y</w>
AB D</w>
j ossa</w>
ચ ે</w>
жұмы с</w>
n ata</w>
ми сли
בו צה</w>
sl and</w>
Т эд</w>
P ro</w>
ver so</w>
a sist
questi one</w>
ot tel
ida an</w>
ظ ة</w>
ef for
ю цца</w>
առ աջ</w>
спо рт
ж ы</w>
თჟ კა
számá ra</w>
அ ம
ே ா
хува а
ны г</w>
er nes</w>
ц у</w>
л ё
commer ci
ด ับ</w>
kaik ki</w>
ť ou</w>
tel jes</w>
proiz vod
Tu be</w>
ائ ی</w>
та ра
ب کە</w>
ob sa
mom ent
par k</w>
jord bru
com ple
sa an</w>
u ve</w>
та шо
c ak
ef ic
ст ра</w>
воз мож
အ ကောင</w>
сел о</w>
ပ ူ
κρα τ
ম ান
ה ים</w>
con cor
k nj
ત ું</w>
ел ек
op rav
li ch
प ट</w>
מע רכ
ช า</w>
in ä</w>
确 保</w>
ร ุ
re qui
val get</w>
ัน ธ
م ية</w>
K ad</w>
হ লে</w>
よ り</w>
הא ר
vē lē
æ ll
са у
per spek
แ ท
ū ly
εργασ ίας</w>
ен і</w>
ள ிய
中 心</w>
Komis ji</w>
ந ல</w>
speci al</w>
شو د</w>
و اته</w>
é lé
съ зда
før t</w>
man je</w>
ed on
س ام
ু ন</w>
we b</w>
ist ə
lo ok</w>
ймэ эс</w>
ا ه</w>
အစ ား</w>
း ပါတယ</w>
let i</w>
Л а
テ ィ
гол е
pro jet
աբ եր
ր ջ
որ տեղ</w>
re cht</w>
วิท ยา
тя х</w>
J ar
ح کو
interes se</w>
må let</w>
خ ز
gł os
अ ध</w>
edz ē
cuesti ón</w>
0, 1</w>
mog elijk</w>
т ко
εί τε</w>
ந ன</w>
J ika</w>
ر وه</w>
ك ز</w>
n de</w>
j ai</w>
تع داد</w>
re uni
dru h
ni šta</w>
pod jet
бо р</w>
ث ير</w>
ქ ვ
מו ר</w>
ات ا</w>
ז מ
betre kk
ве че</w>
kar ena</w>
tar tal
j ó</w>
လွ ယ</w>
М ұ
هە تا</w>
دەکر ێت</w>
tr gov
אי י
at e
ય ુ</w>
N r.</w>
Uni dos</w>
环 境</w>
իր ականում</w>
it ă</w>
ace asta</w>
sz ük
U ng
fø dt</w>
ак тив
ט רה</w>
ž ena</w>
τ όσο</w>
F ak
po l</w>
فر ان
रा म</w>
व ल</w>
م اری</w>
Қа з
vaj adz
li d</w>
ạ ng</w>
Ni je</w>
nis ja</w>
бер і
เจ ้า
melih at</w>
Б ер
σ κο
iv ent</w>
yar at
ш ля
4 4
vu ok
slu š
gouver nement</w>
I ran</w>
უ თ
ชีวิ ต</w>
el de</w>
er ings
q e</w>
хі д</w>
D am
λόγ ω</w>
c ra
posi ción</w>
گ ذ
ի լ
n ac
ー ジ</w>
su as</w>
d ni</w>
अनु भ
ins an</w>
hə qi
əc ək</w>
up e</w>
এ ব
br ī
ए का
ll eg
ter na</w>
n d
g roz
мі ні
k la</w>
ł ą
B ran
ய ி
တွေ ကို
p hi
ரி க</w>
tá mog
i en
ι δ
دی اری</w>
á ní</w>
bag ian</w>
ain es</w>
ક હે
დ ი
num ber</w>
co uld</w>
szá ma</w>
min a</w>
χ αν
מי י
ম ন</w>
ang en</w>
نمو ون
یەک انی</w>
ئەو انەی</w>
b au
ค า
situ azione</w>
ול ות</w>
J ak
μεγ αλ
rám ci</w>
ден ь</w>
el ik</w>
չ են</w>
f ru</w>
ع ه</w>
lo c</w>
ட ர</w>
சொ ல</w>
ίζ ουν</w>
ד ן</w>
опред ел
b one</w>
əc ə</w>
qu ello</w>
mu a</w>
မ ို
iz u</w>
ท ิ
ké nt</w>
त ों</w>
ค ล
kaž d
ต้ อง
ш ар
आ हात</w>
par em
zn acz
н ө
naj lep
τικ ού</w>
seg urança</w>
s ử</w>
Д же
κ ίν
skri ve</w>
s -</w>
ol ul
ε μπ
sec u
इ न
ny t
τ ήρ
амь дра
ob ten
gev ol
مج مو
st re</w>
ini zi
စာ အုပ</w>
B ab
sar à</w>
आ प</w>
suc ces
fi m</w>
ro om</w>
sig n
li ği</w>
ran ič
tem ps</w>
dou ă</w>
insan lar</w>
ne će</w>
חו ם</w>
та ми</w>
бай лаа</w>
B ez
do j</w>
nom in
Trat ado</w>
E Ú</w>
saskaņ ā</w>
W y
Г ос
не ма</w>
ma š
η θεί</w>
ا گه</w>
ات ەوە</w>
ژ ێر</w>
س ە</w>
ئە ز
ەک ەت</w>
دە ڵێت</w>
améli or
ահ ար
h ing
dis cu
ol uş
เ หรอ</w>
bre z</w>
quad ro</w>
μι ας</w>
ب ك
al b
ন ের</w>
Europ æiske</w>
val e</w>
тү сі
મા રી</w>
I de
ik s</w>
ال تر
ש לי
Рес публи
lə rin
is es</w>
mag gi
خ او
m im
注 意</w>
ord s</w>
сказ ала</w>
du p</w>
fik ir</w>
n ữa</w>
pers one</w>
commissar is</w>
docum ent</w>
em ple
रु प
S in</w>
prof ess
โ ท
մ տ
השת ת
แม ่</w>
dent ro</w>
ค ำ
ট ার</w>
ل كن</w>
d nev
भ र
해 서</w>
v Ã</w>
vrij eme</w>
ir á</w>
sa id</w>
aj án
a ţi</w>
ک ل</w>
pro p
konkur en
প ু
א דם</w>
เพ ลง</w>
bra u
vre mena</w>
Z ah
bom o</w>
iz među</w>
ध ो
j in</w>
ણ ા</w>
ч ко</w>
om in
ura l</w>
sk yd
توان ای</w>
ח ד
ti eš
ec k</w>
k jo</w>
valst u</w>
rig hts</w>
چارە سەر
п е</w>
वि त</w>
man i</w>
t .
ک ني</w>
k ali</w>
nut í</w>
Συμβ ούλιο</w>
द स</w>
Apart man</w>
프 로
soci ed
ت لك</w>
ج ز
mi gr
dá tum</w>
דו ד</w>
פי י
ó ria</w>
del ige</w>
gev en</w>
بو م</w>
း ရ
програ м
ေတြ ကို
τ ί</w>
д ву
Ne e</w>
عند ما</w>
ה זה</w>
ế ng</w>
t és</w>
desen volvimento</w>
ру у</w>
წ რ</w>
पुढ े</w>
णा रा</w>
ol dal
h and</w>
но си
o šanas</w>
E P</w>
дер і</w>
A h
S E</w>
not amment</w>
મા ત</w>
ha wn</w>
בא ר
itel ji</w>
teri or</w>
кол ко</w>
המ ס
بر د</w>
avi mo</w>
by ło</w>
အစ ည</w>
po trzeb
за па
ού με</w>
ré sult
jed nod
Commissar io</w>
e sia</w>
eg no</w>
r ía</w>
te at
L ake</w>
S iz</w>
ร ่ว
ти х</w>
pad ar
এব ং</w>
ก ่อน</w>
ais in</w>
gi an</w>
re ġ
euro op
pu is</w>
mo i</w>
I tem
vra ag</w>
gad ījum
т аль
ություն ների</w>
d vo
המ צ
ád za</w>
k ým</w>
u ja</w>
L ag
הת ק
rezult at
هێن ا</w>
ن و</w>
Iz ra
سب ب</w>
hospod ář
မ ိန</w>
ψ ήφ
el ij
ס ם</w>
들 의</w>
ę s</w>
z mě
ό που</w>
ta in
נ סי
ύτερ η</w>
gör dü
é ment</w>
peri o
g æl
for d</w>
பி ர
n ă</w>
сько му</w>
ur č
men u</w>
Lu x
נו י</w>
an ul</w>
e chi
В ъ
sid ste</w>
198 2</w>
ні ко
ay ah</w>
κατά σταση</w>
ver n</w>
ձե ռ
d ığı</w>
pred sjed
ကြ တဲ</w>
ме то
S ing
تك ون</w>
to utes</w>
су т
ব া</w>
કર ો
kan nya</w>
η σι
ผู ้</w>
ต ์</w>
жо қ</w>
F oto</w>
E D</w>
к ло
ån d</w>
1, 5</w>
pů sob
de x</w>
por ts</w>
tra s</w>
нда р</w>
mo č
mal ar
А в
chi ến</w>
ศ ึ
h ra
во ю</w>
ç e</w>
problem en</w>
5 5
建 立</w>
因 为</w>
prodot ti</w>
א ד
ni enia</w>
на л</w>
စာ ရင</w>
դ րան
до р
լին ի</w>
ik ult</w>
आ ई
B ə
אח רי</w>
us z
sk ot
تەو او
چاو ە
هەمو و
נו אר</w>
či ai</w>
fik ir
li ste</w>
存 在</w>
в ч</w>
P av
qu indi</w>
sio oni</w>
ba š</w>
ш те</w>
ci pl
importan ti</w>
ي س</w>
अ भ</w>
τ ως</w>
l un
ка де
wo ord</w>
la š
си йн</w>
val ut
ष े
ho y</w>
ө зі
ပြ ဿ
der ni
ც ი
us er</w>
inter nacional</w>
diver si</w>
สร ้าง</w>
Л о
ca ção</w>
हो ईल</w>
жа н</w>
ž em
ma yor</w>
skut oč
Ch am
L ou
Ž el
ल ब</w>
St ad
бол ды</w>
pro b
ри м</w>
mar ch
N ad
х ло
pró x
પો ર</w>
য দি</w>
thro ugh</w>
jo ur</w>
פרי ל</w>
E li
San ta</w>
αν τί
ن یه</w>
fre m</w>
ध ु
рі з
prz ed</w>
v ás</w>
တာ နဲ</w>
en es</w>
ti y
candi dat
بین ی
p ână</w>
Komis ijos</w>
ма с
sk r
पु न</w>
さ ん</w>
қа зақ</w>
s ê</w>
qu ale</w>
प ड</w>
сі з</w>
ισ ης</w>
պատ կեր
qu el</w>
t ól</w>
k una</w>
ق دم</w>
hab e</w>
f ő
d are</w>
کان مان</w>
cion al</w>
ro dz
l īg
συγκ εκρι
pajji ż</w>
sn in</w>
х е
نە ک</w>
ف ێر</w>
un sere</w>
ла йн</w>
eg ia</w>
са я
an svar
ie wa
со м</w>
သွ ယ</w>
ด ี
мо гат</w>
เอ า</w>
已 经</w>
م ؤ
пра ва</w>
mes es</w>
V ä
बा बत</w>
né m</w>
S S</w>
О н</w>
A z
R ed
uj emo</w>
pe ł
cu ộc</w>
دا ئ
th ích</w>
вы й</w>
tre dje</w>
પા ર</w>
E k
s ống</w>
gan de</w>
fak tor
sik re</w>
Ελλ άδ
खा ली</w>
p ev
сі н</w>
ве де
ड े</w>
di ye</w>
J un
c ó
נ בח
pat ri
დ ე
д ве</w>
S a</w>
ç ar</w>
ม ิ</w>
commissi one</w>
ό δ
ла й</w>
ב ד</w>
Com mun
iewa ż</w>
י כול</w>
ke pada</w>
س ای
K az
āl ā</w>
do is</w>
พวก เขา</w>
sta aten</w>
1256gzi p</w>
be berapa</w>
vál lal
ā cij
at akse</w>
j ol
ol du
uz un</w>
d voj
inter ne</w>
asi e</w>
ве т</w>
при н
ใ คร</w>
med zi</w>
હ ત</w>
ю чи</w>
อ ย</w>
mon et
rappor teur</w>
vir tu
Item id</w>
ıc ı</w>
хү ү</w>
ц ю</w>
eg ész
դ արձ
вър ху</w>
أ ل
R ep
zu en</w>
μ ών</w>
ran i</w>
hol der</w>
va id</w>
து வ
စ က
း ပြ
نا ک
ver ke
ef ici
hen syn</w>
و هي</w>
k dy</w>
α β
зави си
غ ي
这 个</w>
sl av
ef fici
مێش ک
تو ێژ
ڕێ گه</w>
بو ر
作 为</w>
as et
c en</w>
alu e
za ista</w>
it im
ت او
vä är
f red
ov ého</w>
sek s</w>
min ħabba</w>
koj ima</w>
סט ר
l la</w>
ал ар
st os
o de
յ ան</w>
พ ันธ
по ді
அ ங</w>
valam int</w>
żew ġ</w>
פו ר</w>
ali for
мож на</w>
proble em</w>
t og
мі ж</w>
နှ ာ
det to</w>
гі з
ال ی
Mus eum</w>
sen de</w>
particol are</w>
ض و
lji vo</w>
N acion
at eľ
ळ ं</w>
τσ ι</w>
R est
ש ונים</w>
predsed nik</w>
Sch en
ž í</w>
re fl
за в
po i</w>
mi êu</w>
у вели
ме ре
os sz</w>
рі н
osob a</w>
tur val
ar do</w>
sə bə
bil mə
хо ра</w>
အ လက</w>
febru ari</w>
posi ble</w>
ש ט
in ti
लो क
ל ב</w>
եր բ
ญ ญ
aci ju</w>
स भी</w>
मि क</w>
st ort</w>
bar ra</w>
sel v
inc s</w>
princip al</w>
ag en</w>
0 3
ou ver
Gran d</w>
aħħ ar</w>
til bage</w>
van ie</w>
S ur
그 는</w>
व य
önem li</w>
ب ڕۆ
n ess
आ ई</w>
ne at
גי ל</w>
kel ijk</w>
ju m</w>
κα ιρ
за щото</w>
pon ud
Ευρωπαϊκ ής</w>
politi eke</w>
ква дра
အသ ံ
ાર ા
s and
politi ques</w>
m ā</w>
o ko
k k</w>
ent r
ا ه
del l</w>
a umento</w>
al ak
տար ի</w>
or as</w>
յ ալ</w>
կ առ
அ ப</w>
за г
szav ossz</w>
diti on</w>
ش ن</w>
sk je</w>
sp ě
je b</w>
n ent</w>
र कार</w>
Inst ant</w>
जा ने</w>
ა ჱ</w>
αν απ
ओ र</w>
an jem</w>
в ка</w>
संग ण
ती च</w>
بین ن</w>
liv ello</w>
z na
nuest ra</w>
он у</w>
ل ار
mu š
대한 민
В о</w>
po j
vre me</w>
K el
sen ere</w>
Am ster
пре до
政 治</w>
ג רת</w>
re ti
ष म
部 门</w>
چھ و
is er</w>
आ व
q i</w>
સૌ થી</w>
šan os</w>
ई ट</w>
mu la</w>
באו גוסט</w>
pa st
α λι
ic s</w>
те й</w>
P ent
হ য়</w>
उन की</w>
ัก ษ
زی اد</w>
duc tion</w>
o zi
hj æl
пра з</w>
os as</w>
ल ं
कं प
قو م</w>
æ ng
tap ah
ရ ရင</w>
先 生</w>
o jo</w>
d .</w>
ال آن</w>
đ o
Е л
Ar ċ
η σε</w>
gar ant
gl es
D O
Pal est
si amo</w>
to že</w>
са д</w>
f em</w>
बता या</w>
parti es</w>
при е
D re
j el</w>
ла ры</w>
dre p
ή ν</w>
د ست
हा स</w>
чы ць</w>
ri eš
ოპ ვე
gör üş
שי א</w>
בספ טמבר</w>
Ե թե</w>
........ ........
अस ल</w>
we ise</w>
R is
wł a
J ean</w>
ئ ل</w>
년 에</w>
ဇ ာတ</w>
ver di</w>
v ill
m ë
Γ ια</w>
W ol
до би
da ug</w>
osob y</w>
i vi</w>
h ình</w>
хэ сэ
zon as</w>
न ही</w>
ме ни
را م</w>
car ac
т р
ते च</w>
ши м</w>
må l
ش هر
N O
رو ز</w>
الم ق
ma d</w>
iz gu
ved no</w>
actu al</w>
ak ah</w>
beg itu</w>
s f
ve ilig
Ո ւ
c az
任 何</w>
at tra
S vet
r l
sec ondo</w>
сы ндағы</w>
Π ο
Ô ng</w>
ү г</w>
х ме</w>
ăr ă</w>
ne ho</w>
h lá
u ol
k ij
χώρ α</w>
ме се
ọ n</w>
тру дни
אנג לית</w>
il ma</w>
spol itik</w>
al bum</w>
方 法</w>
αρ ι
ili ş
利 用</w>
உ ண</w>
nå got</w>
H alu
Fran ce</w>
t ti</w>
Al le</w>
Barro so</w>
ڕا ست</w>
in si
מ ור
бі л
ए स
M äng
ნ ებ
સ મા
ha ja</w>
re sol
בי ולי</w>
सु रु
mus íme</w>
cad rul</w>
အ ား</w>
န ွစ</w>
ခု ပါ</w>
sz é
က ေန</w>
pra co
х ва
oč e</w>
д ро
ति ला</w>
neuvo ston</w>
bor u</w>
धा र
ten i</w>
ot en</w>
şə k
к лі
pra vi</w>
ن ار
إ ذا</w>
م عل
mä än</w>
ع ر
के वळ</w>
सग ळ</w>
เพรา ะ</w>
ლ ს
νο νται</w>
Savien ības</w>
tv í</w>
197 9</w>
аши гла
भा षा</w>
ž eme</w>
அ தி
ի վ</w>
պար զ
bi et</w>
em end
ov dje</w>
V I</w>
tä än</w>
tot eut
P hen
priekš likum
ε ρο
παρ ά
missi on</w>
Wash ington</w>
ri ch
ีย น</w>
sú a</w>
ม น
h au
h es</w>
à u</w>
המ וע
ط رف</w>
la an</w>
7 6
mit t</w>
fin ne</w>
ها ي</w>
bi or
фек тив
trans pos
پار ێ
ron g</w>
ە زر
کاریگەر ی</w>
چیرۆ ک
су м
s pod
informa cije</w>
йы н</w>
си ли
ս իր
proced ure</w>
og at
د ہ</w>
이 나</w>
P ut
di kl
og ni</w>
S ti
2 1.
בו דה</w>
bud ž
rove ň</w>
fé rence</w>
G el
ü hr
for te</w>
of te</w>
का ल</w>
ма йг</w>
می ری</w>
ေသ ာ</w>
၁ ၉
တွ က</w>
τ ώρα</w>
طل ب</w>
до ба
mus i</w>
má ny
чески х</w>
sad arb
nost ra</w>
ไม่ มี</w>
haqq ında</w>
τη ρι
W el
mä ng
ī t
वे ळ</w>
sú čas
pró pri
با ل</w>
προ κει
mo ja</w>
הא ם</w>
ac yj
ش ون</w>
fi ed</w>
ğ u</w>
ակ ը</w>
հ անդ
որ ն</w>
ex cep
сти те</w>
se vi
h ome</w>
如 果</w>
શ ે
iet ek
ח ז
ber e</w>
بو نی</w>
př es
rel ig
L or
m ų</w>
is eksi</w>
း ပညာ
အလ င</w>
ei ch
bu j
ك بي
دي گه</w>
Р и
n ett
lig vis</w>
жи з
jum iem</w>
ov og</w>
jum us</w>
у ро
poč et
K öz
no ast
ف ته</w>
ag li</w>
भा गा
वि ष</w>
mit ä</w>
t għ
த ை
த வ
gj ë</w>
मि ल</w>
al ità</w>
ر ئه</w>
વ ખ
tor i
W enn</w>
پێ نج</w>
جۆر ێک</w>
کە ن</w>
ەن ەوە</w>
بدە ن</w>
avo ir</w>
B eh
v ita</w>
proc ess</w>
ק ד</w>
ություն ները</w>
ն այ
kompro mis
ધ ા</w>
sv et</w>
N é
C ena</w>
ш үү</w>
н ю
guer ra</w>
ча ст</w>
ст та</w>
d ığ
b ản</w>
де л</w>
s ever
કં પ
á si</w>
ယ ား
prend re</w>
kt u</w>
av anje</w>
j im
하 기</w>
ден и</w>
ot as</w>
অ নে
உ ன</w>
Ц ен
aš a</w>
ál lam
belangrij k</w>
קי פ
9 00</w>
hó nap
ј от</w>
an sa</w>
jom ā</w>
Mad rid</w>
sem pli
ด ู
t ỉnh</w>
सम ज
situ atie</w>
q ay
is ku</w>
om o</w>
ik un</w>
այս տեղ</w>
الع الم</w>
հե ռ
א תה</w>
direc tiva</w>
pa ese</w>
pla ats</w>
kr ä
пар та
197 5</w>
ရွ ှ
း ငယ</w>
re ći</w>
ř ek
M S
pro iec
ور ي</w>
न र</w>
U na</w>
지 는</w>
ē jo</w>
ar re
M ember</w>
স ি
par ece</w>
ใ น
aju ći</w>
и кономи
í c</w>
jäl keen</w>
v rá
اس ی</w>
fat ti</w>
men d
á s
меж дународ
z im
य वाद</w>
pag al</w>
meg fel
מט ר</w>
с мер
las h</w>
ন িয়ে</w>
x tie
ν ά
19 50</w>
đ ồng</w>
F un
w ic
Beri cht</w>
ط ري
կող մ
پ اڵ
لێ ی</w>
ang kan</w>
si va</w>
st är
vu oden</w>
рі п</w>
mag yar</w>
ň uje</w>
вни ма
пи та
ste eds</w>
T aj
ast fel</w>
öğ ren
ite ľ
되 는</w>
დ ჲგ
ú rov
Ter rängen</w>
提 交</w>
то чно</w>
в не
мы х</w>
ευ τα
finan šu</w>
er ken
män nis
on ens</w>
тел ите</w>
P L
시 작
u uden</w>
vý sled
ந ட
வா ழ</w>
ી એ</w>
ter en</w>
D ef
GM T
N å</w>
с ю
ru č
ме кте
ra jn</w>
ill et
ter m</w>
συ ζή
ဆဲ လ</w>
ча су</w>
P ok
ակ ում</w>
मू ल</w>
מ ד</w>
कर ीत</w>
si ihen</w>
გ ყპ
ה ה</w>
Π αρ
мен ти</w>
ter or
con sul
ви д
ண ம</w>
ல ைய
ai de</w>
sta dig</w>
sat te</w>
ل ب</w>
nu ev
ठ ि
ra cht</w>
し ょ</w>
person er</w>
înt â
ي ت</w>
ti j</w>
a qui</w>
econom ia</w>
li sten</w>
betæn kning</w>
l ung
yo x
θέ ση</w>
star s</w>
ka is</w>
ညီ မွ</w>
ogra f
ג ע</w>
conc ep
ती त</w>
đ ấy</w>
předsed ající</w>
is em</w>
Ј ас</w>
1 10</w>
ج مع
ট ি
ne š
ap pu
apli c
вал і</w>
դր ա</w>
presid ent</w>
s mer
I V
لە ناو</w>
ab ile</w>
ن ێت</w>
री ल</w>
mi g
સ ના</w>
ini us</w>
ด ์</w>
App le</w>
ız ı</w>
sed an</w>
мен я</w>
ren d</w>
чи нь</w>
tä ssä</w>
ol d</w>
l ığ
могу т</w>
dil ər</w>
gaz das
me ye</w>
í gy</w>
ה חי
сі й
сто й</w>
пра ця
о чень</w>
showthread .html
ni l</w>
si fic
явля ется</w>
pr ů
S um
g lich</w>
зу р
Ih nen</w>
naz zjonali</w>
ба ев</w>
s ar</w>
d ut
आ ले</w>
לי י
ו כן</w>
באו קטובר</w>
for hold</w>
հետ և
uz sk
пре ди</w>
pa zione</w>
πρ ι
שב ו</w>
ي ين</w>
ser ne</w>
inter no</w>
शक तात</w>
ro ce</w>
ت عل
gi vet</w>
ag gi
ن ان
အခြ ေ
y mi</w>
dob biamo</w>
Of fice</w>
ye ar</w>
пред седа
ஒ ரு
м пі
ش روع</w>
ті нің</w>
อ ำ
ma il
ชา ติ</w>
P il
s est</w>
a ĵ
o ka</w>
ob b</w>
part ner</w>
H ans</w>
É r
económi ca</w>
کات ه</w>
p pe</w>
ti enen</w>
ie ħ
Y e
ш ка</w>
inc lud
վ եց</w>
ī paš
ul u
э г</w>
Ã ä</w>
बहु त</w>
n esta</w>
U m</w>
જો કે</w>
s val
ен ь
pou co</w>
K ui</w>
jot ta</w>
گون ج
گە ش
L as
K ro
ко ю</w>
in cid
ဗီဒီယ ို
د ل</w>
หร ับ</w>
S ev
ž al
tec nolog
inter v
мно гу</w>
гэ тым</w>
vis sz
-- --
स हा
ці ональ
สำ หรับ</w>
vä lja</w>
з өв
συ νο
c .</w>
C O</w>
Są jung
ą ca</w>
territ ori
przy ję
सा म
omog oč
ส่ว น</w>
h lad
ठी क</w>
s ın
tam ent</w>
أيض اً</w>
פו ל</w>
amis eks</w>
ad er
col labor
الولا يات</w>
j ed</w>
أ غ
genom en</w>
ท ั้ง</w>
bol je</w>
e des</w>
קי ים</w>
bagħ ad</w>
נ ג</w>
σύ ν
f abri
f ek
бу д
ש הת
4 3
ais et</w>
မ ရဲ</w>
ဒီ မွာ</w>
ब न</w>
ỗ i</w>
ві до
لی ے</w>
تھ ی</w>
ху вь
ch ange</w>
sz ö
nh ận</w>
pod mien
ות ו</w>
con st
out ro</w>
χρ ηματο
best år</w>
Su per
ήσ εων</w>
μέ σα</w>
র ু
мемле кеттік</w>
u ur</w>
ke dik</w>
ac o</w>
á sok</w>
ס ר
ol un
do ivent</w>
А лі
tu rist
ker et
sl ob
is im
s s</w>
बा ं
ဒီ လို</w>
အ မြင</w>
as oci
և է</w>
ז יה</w>
અ મે
гар га
region al</w>
zav rš
दि ल</w>
cam po</w>
di ma</w>
ven dar</w>
Ber lin</w>
process us</w>
نو ع</w>
ەک ە
کرد ەوە</w>
re almente</w>
پێویست ه</w>
ای ەتی</w>
ж ел
รู ้
is mer
پ شت
ა ნ</w>
f ris
konkur ren
ور ة</w>
pro pag
bol j
inst al
ro u</w>
ро т</w>
juri dis
फ ु
respec t</w>
ст ал
भार तीय</w>
Z o
т вер
ç ka</w>
loc k</w>
ม ั
стра на</w>
π ό</w>
s ven
ní vel</w>
valasztas. hu
valasztas.hu .2016</w>
τελ ευτα
G ü
χωρ ίς</w>
L ogħ
szav az
au c
เ ศ
ė mis</w>
ω σης</w>
ભા જ
პ ყ
baş qa</w>
ell os</w>
ver t
د ه
เ ภ
zab ez
та ды</w>
strat égi
ži ť</w>
Č es
ช่ว ย</w>
g ange</w>
フ ァ
nos so</w>
for sø
ðA valasztas.hu</w>
ræ kke</w>
ā t
ult ati</w>
спо соб
strateg ie</w>
ม ่</w>
recur sos</w>
A F</w>
Ch risti
pre v
μη χαν
Euró pai</w>
re stri
शाळ ेत</w>
cel u</w>
roz poč
зүй л
lim kien</w>
ami ento</w>
kla us
R ot
ра қ</w>
وا قع</w>
ku j
ש ת
Կ ար
ส ง
הא מ
cent er</w>
Dak le</w>
st ej
ho v</w>
and s</w>
z eko</w>
ф ар
já té
ni eg
о ның</w>
γεγον ός</w>
lan do</w>
ка ра
финан со
მ ნჲ
ی س</w>
H ey</w>
гле да
ė jas</w>
W ie</w>
کەس ێکی</w>
l om
هە می
گەور ە
کار ێکی</w>
ئەز مو
لێر ە</w>
دام ەزر
گرنگ ی</w>
ەو ی
دە خ
دەڵێ ن</w>
pal est
р .</w>
လာ မယ</w>
က လည</w>
ی ق
ra sa</w>
ā tu</w>
çı kar
ки е</w>
K es
mas uk</w>
lav or
k ę</w>
дар ла
Av rupa</w>
บา ง
ss on</w>
pro yec
दू स
ch em
C ác</w>
oc ca
wur den</w>
мен е
t var
néces sa
lat ego</w>
za što</w>
må de</w>
ní c
тала ар</w>
ק בות</w>
αποτελ εί</w>
toim in
e cht</w>
J ung
ίσ ουμε</w>
ler ini</w>
ord on
V as
c ena</w>
s cias</w>
č ia</w>
min en</w>
ק רו
اد ی</w>
wor ld</w>
absol ut
ب ات
i ba</w>
kon ven
posit iv
apres ent
č í</w>
co v</w>
Lju bl
delayed valasztas.hu</w>
ho use</w>
s ulle</w>
end nu</w>
रि यों</w>
नि ष</w>
โล ก</w>
len g
huvud sak</w>
mô žete</w>
ये ईल</w>
d jec
bi d
تو ي</w>
สิ ่ง</w>
צ מבר</w>
ra u
abil it
במ בר</w>
C lub</w>
ta ik
fon d</w>
про дъл
St ate</w>
эрэ э</w>
ნ არა</w>
но ви</w>
援 助</w>
сле дова
stim ul
လူ သား
pl y</w>
mer s</w>
ju ba</w>
त ः</w>
ха бар
nederbörd. Källor</w>
ლ ო
лу ч
bec ause</w>
dam it</w>
pro to</w>
ség es</w>
ağ ı</w>
เ ง
ჳ ჲ
la uk
בר י</w>
ло сь</w>
І н
к ну
خوێند نگ
to ekom
ا ش</w>
tr ở</w>
sa f
ં ચ</w>
vir kelig</w>
бай ла
ચૂ ંટ
قو ل</w>
ჟ ს
પા સે</w>
e a
с м
ming ħajr</w>
в ся
лэ г</w>
จริ ง</w>
aut o
א צ
сь кі</w>
асу у
uk re
lu cr
sm ě
el u
だ け</w>
ро н
T e</w>
be j
st aj
ե յ
մտա ծ
ん な</w>
ва те</w>
tor ia</w>
cam bio</w>
r à</w>
F il</w>
ני ין</w>
met e</w>
প ে
би й</w>
av ait</w>
hel p</w>
198 3</w>
po sti</w>
f ase</w>
euró p
гра фі
Ad minist
e est</w>
கொ ள</w>
ח ון</w>
сті к</w>
शे व
ба сы
dis kus
ו ס</w>
M em
있 습니다</w>
C ô</w>
Ա ր
на ро
не го
m ú
σ ή</w>
цт ва</w>
possí vel</w>
ut ak
अ क</w>
j ud
美 国</w>
lu g
בעי קר</w>
ke iten</w>
қ тың</w>
z ó
του ργ
T ol
νο μο
W it
živ ljen
ဒါ မွ
val ó</w>
vá ní</w>
же ла
ற ந</w>
ույ ց</w>
મહિ લા
si ma</w>
ম ে
ad ı</w>
spos ób</w>
th a</w>
as su
effor ts</w>
ца а
આપ ી</w>
B ura
е та</w>
hom me</w>
D un
үү лэх</w>
A .
K jo</w>
ד ל</w>
تغیی رم
tar ea</w>
ud rž
شێر پەنج
ლ წ
ئەم ڕۆ</w>
dal y
us el
ث ة</w>
ڕێگ ەی</w>
د اوە</w>
نەخۆش ی</w>
ig jen</w>
ста р</w>
რპწბ გა</w>
set tore</w>
sistem i</w>
t ìm</w>
வ ள
до вол
ं चे</w>
δ ικ
бі з
Daar om</w>
စ ု</w>
زی ر
မ လို
B is
gal ven
В и</w>
вы я</w>
ви н
cidad ãos</w>
ex amen</w>
ول ي</w>
š no</w>
տ ան
по ра
D .</w>
betänkan de</w>
קר א</w>
3 75</w>
us an</w>
ti ga</w>
du y
tam ento</w>
mel akukan</w>
ent en
V a
ai di
In dustri
un ge</w>
un ud</w>
роз ташо
t ă</w>
clar o</w>
C I
ost e</w>
ekonom iska</w>
U ne</w>
gro ot</w>
kä y
ασ χ
ক ী</w>
નિ ર</w>
са м
ры г</w>
уа қы
q ur
Ewrop a</w>
си туа
ဖ တ</w>
း တာ
း မွာ</w>
mo tivo</w>
vi di</w>
ме с
е кі</w>
这 种</w>
så ledes</w>
bun un</w>
sp ô
n ı</w>
B ot
ف ية</w>
wo od</w>
o ir</w>
بین ین</w>
으 나</w>
o ita</w>
ni ť</w>
क धी</w>
वा चे</w>
աց ր
համ ակ
S K
ла сь</w>
us p
go od</w>
yhte ist
Universit y</w>
в аль
ου ρ
só lo</w>
Th at</w>
κολ ου
בי וני</w>
ر کھ
A u</w>
hi dup</w>
위 해</w>
fon ds</w>
вы со
מו זי
mağ a</w>
ná v
ချ စ</w>
မေး ခွန</w>
ע ש
ға на</w>
ول ة</w>
posl an
о фи
خرا پ
औ ष
sprá v
sé get</w>
v ë
ملی ۆن</w>
سەر ە
기 를</w>
o ol</w>
od da</w>
த ேன</w>
i ť</w>
зра біць</w>
ה ור
Ë shtë</w>
kl ı</w>
ļ as</w>
s ale</w>
ություն ն</w>
น ำ</w>
dis cipl
els ő</w>
зи я</w>
B lu
ка р</w>
s ett</w>
ნ ს
ضرو رت</w>
או ן</w>
znač i</w>
o ane</w>
ä hr
ن دا</w>
ช ิ
ရွိ တဲ</w>
ပ ုိင</w>
ס ו</w>
z ą</w>
fon d
la q
ọ ng</w>
su f
ļ au
C .
и мо
โ อ</w>
possi bile</w>
öl ç
in klu
aci ji</w>
ч ні</w>
σημαν τικό</w>
ब ढ</w>
ق ت
ně jší</w>
ri kt
અમે રિ
nas led
ener g
komis sio</w>
છ ે
dey il
с ма
ill o</w>
Nh ưng</w>
क ता</w>
מ לחמת</w>
մ բ
सो ड
ąc ego</w>
ών τας</w>
państ wa</w>
resp ek
v ị</w>
ती ने</w>
ig u</w>
o x</w>
se ine</w>
sam az
ş ir
nap rav
ဒီ နေ</w>
Dep ut
fa ç
้ ง</w>
th ị</w>
i v</w>
ก ร</w>
c ao</w>
था न</w>
sam ti
ให ม่</w>
co op
l ini
参 加</w>
ku ras</w>
p p</w>
c ast
con ta</w>
б ъл
z ouden</w>
su g
共 和
B it
V ie
مەبە ستم</w>
Nor d</w>
ผ ล</w>
ศึ กษา</w>
schlie ß
propri o</w>
ka p</w>
É tat</w>
: n</w>
း ခဲ</w>
פי ע</w>
administ r
sam en</w>
raz miš
ع شر</w>
पु रा
ка че
198 1</w>
нь ого</w>
ศาสต ร์</w>
επί πεδ
d jel
nek e</w>
сел ення</w>
tar vit
ад чу
ho da</w>
β αρ
ra ient</w>
pre fer
ا ف</w>
ιδια ίτερ
el sen</w>
l ange</w>
в ли
H it
tot o</w>
l ist</w>
ne er</w>
sk yl
r und
لع ب</w>
lat en</w>
cu enta</w>
أيض ا</w>
Ro ad</w>
per son</w>
s ente</w>
ite iten</w>
ကျ တော</w>
h au</w>
өө д</w>
ի ճ
կար և
O g
S I
bil li</w>
ש תי</w>
מ כי
ní k</w>
mo u</w>
ર મ
дзен ь</w>
gra đ
se x
p .</w>
ku per
struc tu
ben hav
vil ág
S ant
gerçek leş
at as
cer to</w>
o .</w>
at si
pot om</w>
fog lal
šan ā</w>
com une</w>
mož né</w>
ળ ા
któ rzy</w>
εφ αρμο
өөр чл
erit täin</w>
p este</w>
N ó</w>
aast al</w>
٢ ٠</w>
ন েই</w>
M it</w>
گر نگ</w>
بەر ز
ოპა გთ
b ắt</w>
за м</w>
ն որ</w>
βρ ίσ
ի չ
չ եմ</w>
0 4
г лу
רא ו</w>
भाव ना</w>
industri e</w>
c ak</w>
im ao</w>
за ба
du se</w>
с ці
2 d
ovan ju</w>
因 此</w>
ай на
da y
Z eit</w>
pro va</w>
prz eci
ân cia</w>
ra ud
ө г</w>
tag er</w>
Micro soft</w>
lə y
ك ل
દ ો
းဆ ောင</w>
ရိ ွ
რა მ</w>
T il
rispet to</w>
ni em
kon tra</w>
princi pio</w>
ו הוא</w>
ра я</w>
man ten
ऐ से</w>
sabied r
u us</w>
ch ưa</w>
แส ดง</w>
gost aria</w>
muni ci
es u</w>
job b</w>
ш но</w>
ij ai</w>
b al</w>
μ εί
המ פ
0 1.
내 가</w>
պատ ճառ
ն րան</w>
աց ած</w>
દર મિ
te en
يك ون</w>
inde ki</w>
س ال
w et</w>
રિ યા
이 며</w>
عل ي</w>
gra der</w>
pi de
g ara</w>
ха л</w>
л ж</w>
гру п
תו ח</w>
et r
eng ag
O len</w>
lē m
а за
по чи
в ри</w>
nag yon</w>
lar ında</w>
pr at
do bi
أح د</w>
ай ы
J an</w>
бо й</w>
ad amente</w>
voor beeld</w>
ħad d</w>
მთ ჟ
n um</w>
જ વા
જ ૂ
Europ apar
vo idaan</w>
L im
hu om
0 6
หม ด</w>
av am</w>
produc tion</w>
sam i</w>
वि शे
re iz
ک ێ</w>
کردو ە</w>
جیاو ازی</w>
үр ж
ল ে
k tiv
pri mo</w>
u va</w>
J os</w>
li š</w>
de zvol
pe w
ex pres
θ μ
m ó</w>
က ပ</w>
ря д
av ant</w>
mo ky
bes lu
ud zi
უ რ
z anim
я н</w>
ар на
са праў
bro j</w>
сі б</w>
כ בר</w>
т ня</w>
m āk
қо ға
Progra mme</w>
ка о</w>
ev i</w>
hek ay
bilər siniz</w>
dé clar
el ah</w>
бю дже
в ня</w>
f ok
աց նում</w>
ե զ</w>
за поч
będ ą</w>
signi fica</w>
П ри</w>
särskil t</w>
ॉ र</w>
ē tā
mel y</w>
အခြ ား
ပညာ ရှင</w>
အ ပေါင</w>
spor t
m om</w>
Fest ival</w>
h é
наза д</w>
vš ech
ρ ί
ig en
vi di
qu ốc</w>
Z ak
ήσ ω</w>
j al</w>
اپ نی</w>
एखा द</w>
ier en</w>
H D
poten ci
ac ję</w>
tra dition
ve id
hem en</w>
ـ ـ
ர த</w>
ч лен
ک ھ</w>
ov ati</w>
dif í
v ati</w>
z ó</w>
cor respon
miss joni</w>
de ur</w>
diz er</w>
н .</w>
kes k
ба ғы
197 8</w>
բ ն
د انه</w>
မြ ို</w>
га р</w>
ب ز
ထဲ ကို</w>
Z usammen
ра на</w>
kom miss
ێک م</w>
ئي س</w>
شێوا ز
ห ญ
na ţion
ジ ャ
rá n</w>
ટ ા</w>
વ ચ</w>
P ek
vál asz
ви ди
d h
όλ ο</w>
c él
vse h</w>
Ph one</w>
தெ ா
sch rif
pres enta</w>
期 间</w>
g ọi</w>
од но
a wi
ચ ો
с пер
та ў</w>
ეჲბპ ვ</w>
ori i</w>
것 이</w>
F l
ord ning</w>
τ ός</w>
М и</w>
sp esi
당 신
s mar
ма я</w>
im ali</w>
As í</w>
yk si
υ περ
en heid</w>
j au
הר בה</w>
estä ni</w>
pol a</w>
ต า</w>
એ ક
အ ို
al o
қта н</w>
ig nor
т рі
es as</w>
ընթաց քում</w>
Pad omes</w>
լ ս
qu al</w>
er an</w>
או תם</w>
πολ ί
ко ле
gl ement</w>
b est</w>
ش دا</w>
5 9
op is
hur baş
hy ö
europé enne</w>
as pet
m em</w>
ס ק</w>
и рэ
l ū
οπο ίες</w>
va an</w>
sen diri</w>
. A</w>
bed rij
at sak
ĝ o</w>
ment al</w>
па ча
gå ng</w>
mog ao</w>
કર તા</w>
ह न</w>
दाख व
te i</w>
am bil</w>
ni iden</w>
oč ek
sm å</w>
во ни</w>
း ပဲ</w>
သွ င</w>
כ ב</w>
sh e</w>
fö ra</w>
cre o</w>
o z</w>
că tre</w>
pan ta</w>
ше й</w>
vuok si</w>
tul eb</w>
in ę</w>
वा च
da ug
op e</w>
կար ծում</w>
sk ul
ներ ով</w>
O na</w>
พ ่อ</w>
ध ित</w>
Τ α</w>
ต้อง การ</w>
қол да
C ur
J i
مان ای</w>
re volu
Sain t</w>
ट ल</w>
زان یت</w>
ર ક</w>
لا د</w>
دە زانی</w>
ئەو یش</w>
gebru ik
va z
ніко лі</w>
મુ ખ</w>
s ün
доб ре</w>
pasi ūly
স ম</w>
ჳ ა
mid delen</w>
gi ới</w>
تغییرم سیر</w>
s mis
ac ab
ရ ော</w>
ဖ ျ
လျှ ောက</w>
nor mas</w>
doğ ru</w>
vis er</w>
m ala</w>
rä ä
A r</w>
е ң
อ ิ
is pi
c ase</w>
л ся</w>
ма м</w>
دي م</w>
v ile</w>
æ m
про ста</w>
z ení</w>
Jo han
pol e</w>
ch y
ا کان</w>
चा हि
T u</w>
t allet</w>
实 现</w>
с вър
վ ի</w>
ieħ or</w>
وا ست
ო ს
vá ros
c et</w>
બ દ
ba ş</w>
נ א
1 30</w>
προ ϋ
b ől</w>
évalu ation</w>
о си
za it
den e</w>
B ut</w>
bs p</w>
mondi ale</w>
arg ument
k ris
C y
fe ira</w>
Europapar lament
а дам</w>
र भा
જા ય</w>
zel f</w>
m ới</w>
d r</w>
εδ ώ</w>
es senti
po k
ए ं</w>
C he
ح ل</w>
въз мож
လ န</w>
အစ ိုး
ri chi
c av
lo i</w>
atur i</w>
र थ
e ť</w>
sp el
pon ieważ</w>
autori dades</w>
gy ak
tiv es</w>
s ara</w>
uj ą</w>
kur ā</w>
s lik</w>
ে ষ</w>
r ých
εύ σ
कड ून</w>
st ige</w>
na j</w>
რჲ ა</w>
Men schen</w>
tig heder</w>
আপ নার</w>
in ver
politik u</w>
gest eld</w>
dig en</w>
su ite</w>
ne a</w>
क दा
Amer ic
દરમિ યાન</w>
М ә
197 6</w>
бү р</w>
G ö
сле ду
ag em</w>
ff e</w>
共和 国</w>
dar bo</w>
до ў
ees mär
μο ύς</w>
စ ၥ
သ ဘာ
نەک ر
هەمی شە</w>
and ı</w>
ل ت
ول ی</w>
vil ken</w>
si eki
sä ga</w>
Т о</w>
ar vo
ī ts</w>
举 行</w>
an nen</w>
а на</w>
ar ju</w>
num er
19 .</w>
v sem</w>
intel e</w>
χρ ησι
בי שראל</w>
உ ல
טו ר</w>
seig nements</w>
sz er</w>
sen so</w>
ფ ს
η θ
تر س
g ente</w>
ور ية</w>
pi os</w>
f eh
dec y
म ं
वा ला</w>
лы ғы</w>
j ulle</w>
sim mä
เร ็
ج ان</w>
करे ं</w>
د ها</w>
στή ρι
ו על</w>
uz lab
文 件</w>
פ ול
p ing
pro s
mem buat</w>
တ ခု
เ น</w>
ten den
sm es</w>
мі р
L A</w>
Ser vice</w>
Di en
frå gan</w>
zel f
D ar</w>
ช ุ
ты р</w>
т та</w>
Mitglied staaten</w>
ick ý</w>
197 3</w>
EU: s</w>
ki in
k jer</w>
ש לה</w>
მჲ ზვ</w>
b ə</w>
ġ did</w>
järjest el
şek ilde</w>
Baş kanı</w>
çə k
h ü
ж ення</w>
Š to</w>
μ ει
х ын</w>
关 系</w>
П а</w>
transpos h
武 器</w>
q ad
אי נו</w>
ح ال</w>
ю з</w>
Евро па</w>
Af g
st ora</w>
ર મા
वर ून</w>
š ali
ժամ անակ
С Р</w>
န ီ
้ อง
વા રા</w>
الأ ول
ca us
تو شی</w>
v ă</w>
Dan mark</w>
li hat</w>
vá ž
proc edi
έ φ
ગ ર</w>
מנ ת</w>
I f</w>
problem e</w>
en nen</w>
nag u</w>
pří pad
ғы лы
cap ital</w>
公 司</w>
主 席</w>
у ха
ა მ</w>
ovi m</w>
تر ۆ
لە لایەن</w>
il in</w>
dol oč
chi ar</w>
H un</w>
sa u
গ ে</w>
ra j</w>
ત ાર
poz it
ug os
j ük</w>
خو د
del ing</w>
po god
j us
siz ə</w>
min i</w>
ни з
Jah r</w>
ု ိ</w>
em an</w>
ေဆ ာင</w>
ရှိ ခဲ</w>
196 8</w>
ва ри
ن ص
را و</w>
ام ة</w>
В ер
و كان</w>
min d
ר צ
z orgen</w>
politi ik
g ön
m ur</w>
w äh
じ ゃ</w>
જ ુ
را ئ
ülü ş</w>
ov in
по м
т ни
n bsp</w>
B raz
proces u</w>
चि न</w>
એ મ
સ ની</w>
في ها</w>
п ля
es cu</w>
c ale</w>
tä tä</w>
qual quer</w>
en di</w>
ti b
197 4</w>
бу й</w>
а с
mu cho</w>
ی ار</w>
ွ ှ
အ ကုန</w>
ေ ရ</w>
ко ји</w>
consum id
ה ב</w>
d ụng</w>
gad u</w>
jagħ mlu</w>
not a</w>
че ской</w>
d ış
b ik
ali fic
Z u
ко ло
դ ու</w>
ऐ क
Е сли</w>
غ ة</w>
pa d</w>
आप ले</w>
க ட</w>
мо н
tal et</w>
li ku</w>
k ind
nev o
s vol
۱ ۳
בא פריל</w>
mil hões</w>
θέσ εις</w>
eg ent
ệ p</w>
ri ge</w>
sá ch</w>
בי נואר</w>
систе ма</w>
בו ד</w>
باوە ڕ
ای ە
нэ эс</w>
بەکار هێنانی</w>
a ţia</w>
ñ os</w>
မျှ ော</w>
પોતા ની</w>
ဝ က</w>
dev as</w>
ュ ー
ια τί</w>
el ér
घ ो
之 间</w>
mo v</w>
га ра
dě l
ہمار ے</w>
P res
на ста
ka y</w>
ள ை</w>
re ply
ம ை</w>
ba ie</w>
B ü
võ ib</w>
bu du
стро й
Ç farë</w>
A pri
en kin</w>
re dan</w>
м ь
darb ības</w>
hab it
ε ζ
որ են</w>
խ աղ
m ə</w>
ح اصل</w>
на стоя
her ë</w>
issan ce</w>
d ne</w>
sv ob
alc uni</w>
ত ারা</w>
é let
š is</w>
基 金</w>
t ým</w>
ჲ ბ
ke zel
ό με
ל לא</w>
ı p</w>
Th omas</w>
θυ ν
ဖို ႔
dies en</w>
ti i</w>
အား လုံး</w>
အဲ ဒါက</w>
as se</w>
attiv ità</w>
at ul</w>
w od
inter pre
w ob
ગ ી
fac er</w>
al e
pé l
έ ναν</w>
y ol</w>
sk ry
ro g
หล ัง</w>
po ol</w>
ત મે</w>
At lan
mů že</w>
ter se
પ ી</w>
j ām</w>
уни версите
ն ի</w>
խն դ
lem ény
ci j</w>
под кре
ס ות</w>
ن ه
ar ie</w>
น้ ำ</w>
ско то</w>
दि व
દે શ</w>
בע קבות</w>
Th ere</w>
mə n
şə kil
mi ña</w>
euroop pal
ဖို ႔</w>
พู ด</w>
S M
reik ia</w>
pr ès</w>
al ul</w>
v ī
н ення</w>
R ig
id ar
bet er</w>
w y</w>
ap er
ناو بان
Ö z
دە گ
شت انە</w>
شە سا
jesz cze</w>
дз ей</w>
уча ст
бе н</w>
r á</w>
K B</w>
no od
пі сля</w>
ول ا</w>
cz eś
יו ם</w>
enor me</w>
gen nem</w>
гэ х</w>
ا ک
m .
g ir</w>
arbej d
રે ન</w>
paragra phe</w>
레 이
ն դ
occu p
An der
ל הק
kli mat</w>
os oit
πο ρ
то н
ွ မ</w>
J el
ho ut</w>
L O
parlament u</w>
u byt
थ ित</w>
أن ت</w>
ik ide</w>
kom t</w>
K o</w>
হয় ে</w>
Ar gent
А д
lag en</w>
ג ר</w>
ă ţii</w>
pa z</w>
ด ิ
b ằng</w>
રે સ</w>
vi ed
р лэ
те го
се к
który ch</w>
த ம</w>
ட து</w>
ordföran de</w>
fej l
хий ж</w>
post up
自 己</w>
વ વા</w>
em el
re ch
W eb</w>
ri d
ha qda</w>
א לא</w>
i or</w>
P ř
з бо
произ вод
as sim</w>
nah men</w>
ti fic
я ўля
sa y</w>
ad re
Այ ս
հ ենց</w>
ၾက ာ
၀ ၀၀</w>
ဳ ပ</w>
ով հետև</w>
စ ြ
ми ли
ge z
त ु</w>
kov é</w>
f esti
ौ र</w>
mahdol lis
ati i</w>
ن ين</w>
આ રો
com er
N atur
σ αφ
گی ر
ž ia</w>
M ast
Т ы</w>
काही तरी</w>
gru ppen</w>
શ રૂ</w>
compet iti
rek la</w>
ko ko
prá ci</w>
polit ycz
الأ مريك
Т е</w>
spun kt</w>
بی ست
ჟა მჲ</w>
εν τρ
th ink</w>
cor por
دا دە
جیه ان
لێر ه</w>
بک ەینەوە</w>
รา ย
za posl
l ığı</w>
člen ských</w>
az u</w>
голо в
шы х</w>
ჲგ ვ
လ ွ</w>
N em</w>
پ شت</w>
ლ ჲ</w>
ני ו</w>
У чи
h ang</w>
չ ափ
աց ել</w>
za de
aut i</w>
ჩ ვე
jen za</w>
lep š
ல ு
ти н</w>
约 国</w>
함 께</w>
ра ды</w>
it ahu</w>
الأ س
缔 约国</w>
B ür
사 이
گ وں</w>
stand ard</w>
met tre</w>
fal ta</w>
gem ein
ברו אר</w>
pal jon</w>
sag en</w>
ệ m</w>
zem í</w>
naš ich</w>
ā ju</w>
الب ح
həy at
qət ən</w>
מע ט</w>
in iz
בי ר</w>
xu ất</w>
ON U</w>
у м
ထ ွင</w>
на чи
elek tr
bez piec
pe di
ध ि</w>
så dan</w>
द ूर</w>
ht ë</w>
ઈ એ</w>
po tr
ot ro</w>
tr ès</w>
Con stitu
放 送</w>
ա խ</w>
հ աջ
לב ד</w>
f yl
फ ी</w>
جائ ے</w>
trat ta</w>
δι ο
n unca</w>
kre ś
faz la</w>
al et</w>
zn í
gev al</w>
in do</w>
196 7</w>
akh ir</w>
and ers</w>
ب اوه</w>
क ट</w>
don de</w>
וי י
fap tul</w>
ro din
на ру
စွ ာ</w>
း ခြ
ယုံ ကြည</w>
ασφ άλ
তা কে</w>
E konom
ब च</w>
ανθρ ώ
дру г</w>
ho st
opp en</w>
па д</w>
پہ لے</w>
dej jem</w>
با ہر</w>
ב הם</w>
چاو ی</w>
کۆمپی وت
ەک ەمان</w>
دی ۆ
ovi ć</w>
рабо та
ن ەوەی</w>
da ag</w>
M r.</w>
Go bierno</w>
p sy
नि श</w>
хол бо
λ ύ
kon cep
uni on</w>
l ü</w>
ol emme</w>
t ő
մ յ
ь ю
pla y
Bag aimana</w>
V ia</w>
ژ ه</w>
pen a</w>
en cias</w>
R as
است ع
ула х</w>
ตร ี</w>
મ ળ</w>
pod ni
各 国</w>
n ė
ক েন</w>
qu are</w>
من ها</w>
G R
di del
м ды</w>
j án</w>
мо жам</w>
jal an</w>
ба сы</w>
ေန တယ</w>
যা ন</w>
સા ર</w>
As soci
por ta
c ü</w>
ह ती</w>
कि ए</w>
ста на
iti m</w>
ген е
b rez
jedno stav
im ma</w>
زم انی</w>
Tr ung</w>
כי ום</w>
polit iske</w>
či us</w>
star ptaut
Ar ti
tr hu</w>
3 월</w>
ال آ
Ко ми
ધ ો</w>
съ ще
l k
s ən</w>
ف رو
พ บ</w>
av aju</w>
ณ ะ</w>
əy ə</w>
r ent
συ να
دار د</w>
લ ું</w>
ή δη</w>
7 9
ըն կեր
ob dob
fot o</w>
Un d</w>
จ ิ
gra ve</w>
ع ي
p ist
ευ ση</w>
со л</w>
ø m
сво ю</w>
ู ก
fundament al</w>
ထဲ မွာ</w>
အများ ကြီး
အာ ရုံ
x ejn</w>
El ek
Un der</w>
prec ed
נ ס</w>
difer entes</w>
al de</w>
г үү
an é</w>
하 며</w>
ді й
πα ρου
S pi
ро сси
ص د</w>
Apri l</w>
सारख े</w>
пар т
бол ған</w>
poten ti
د ف
νέ α</w>
ك ون</w>
sem ana</w>
helyez kedik</w>
uk ogu</w>
ει ακ
nä it
解 决</w>
P ress</w>
ست ار
A t</w>
تر ە</w>
پە رو
خۆش ەوی
ov en
պատր աստ
տալ իս</w>
ուն եց
pa il
kel uar</w>
છ ો
ال ان</w>
си ль
tam am
ပို က</w>
ر که</w>
қыз мет
рі к</w>
草 案</w>
ov ina</w>
ha ya</w>
झ े</w>
тра ль
al y
kra jin
sul l'</w>
v ů
s rit
үз э
х өн</w>
pag rind
econom ic</w>
iç inde</w>
bal o</w>
is ce</w>
la ug
ти йм</w>
અ ન</w>
so b</w>
kol ek
k är
ük ü
acest ea</w>
זר ח</w>
T H
שו ר</w>
piemē ro
T á
T io</w>
espe cial</w>
на сці</w>
stö d</w>
çı k
I rak</w>
о соб
huy ện</w>
qu ali</w>
Char les</w>
v årt</w>
Z ad
ồ n</w>
А нд
щ ен
ber ada</w>
n jo</w>
જો વા</w>
ο λο
ė k
אפ שר</w>
i vi
လ ဒ</w>
ဒု တိ
Ц і</w>
g ast
ט רי
φέρ ει</w>
文 化</w>
ჱ ვ
ул сан</w>
ைய ா
אנ ו</w>
s pro
di zaj
ag ue</w>
e ği</w>
M in</w>
S S
εργασ ία</w>
hol de</w>
re forma</w>
przewodnicz ący</w>
сту ден
ści ą</w>
u el</w>
š ka</w>
glob aliz
stan te</w>
maj d</w>
ji ž</w>
mo vi
стра те
m ér
sp al
a ina</w>
pla y</w>
B ö
உ ண
us el</w>
श य</w>
прац ю
cent re</w>
वाट त</w>
أن ها</w>
jen je</w>
lem ent
ဒါမွ မဟုတ</w>
th ôi</w>
Con sili
र ॉ
centr ale</w>
197 2</w>
pa de</w>
te h</w>
במ רץ</w>
a sia</w>
κά τι</w>
ու ժ
ω σε</w>
շ ար
בר ת</w>
ล ูก</w>
ség ek</w>
نت ڕۆ
mas ına</w>
گرنگ ە</w>
چاود ێری</w>
po sao</w>
pro vi
ē t
μο ρ
kõ r
va xt</w>
या त
ć eš</w>
ään est
contr ô
המ שי
di ga</w>
се д
ภา ษ
vi ena</w>
υ φ
к що</w>
Parlam ents</w>
s ch</w>
พ ื
yor lar</w>
fi ind</w>
udvi kl
Ф и
pas ado</w>
павін ны</w>
မ ာ</w>
ス ト
emb rie</w>
डॉ क</w>
өм нө</w>
nu evo</w>
ဖ ွင</w>
г но
ဆ ီ</w>
အခြေ ခံ
ό μαστε</w>
બ ુ
ro ute</w>
R ak
бағ дарла
vig tigt</w>
г ло</w>
T ah
א ולם</w>
ко ја</w>
הג ד
Minist er
mar i</w>
с с</w>
ra ġ
ontwikkel ing</w>
b żon
ad el
per forman
un or</w>
ко гаш</w>
minist er
ले कर</w>
ә рі</w>
նույ ն</w>
de mand
al ment</w>
ज ब
m evrouw</w>
ин ститу
ج ل
īg ā</w>
w ater</w>
му ж
ไห น</w>
nuest ro</w>
sch op
gli ch
vál aszt
ре ди
வி ரும</w>
k ni
бе зо
проти в</w>
ten emos</w>
utvec kl
参 与</w>
Σ ε</w>
por tu
сы р
Z ar
probl ē
Jah ren</w>
B BC</w>
kap ac
at us</w>
kat u</w>
c lim
را ً</w>
қ и
изве ст
in sist
as sum
kuri s</w>
Ho e</w>
с ни</w>
da q
கள ின</w>
செ ால</w>
T I</w>
こ こ</w>
proces o</w>
tir dz
ज वळ
przy pad
de st</w>
ล ะ
а ген
ov or
jan ë</w>
ch ia</w>
بەر ز</w>
w ah
کات ە</w>
دە یان
er ek</w>
ب نە
هە ژ
меди ци
ст ала</w>
cent ro</w>
s ı</w>
ợ p</w>
0 9.
κ ι</w>
tra g
zn ac
ai š
identi fic
ał o</w>
zi r
т вър
An na</w>
at ī
apo io</w>
ပြော ပြ
Za što</w>
o kaz
ці ка
th ing</w>
बा ब
ზ ე</w>
ня ў</w>
lər ə</w>
k ho
ал ға
ak si</w>
س ات</w>
பி ன</w>
مج ھ</w>
k ka
ξ εις</w>
ั้ ย</w>
सा ल</w>
оты р</w>
wir t
ны мен</w>
ro r</w>
mü ş
mas ını</w>
д ла
อ ม</w>
la aj
my e</w>
D eze</w>
di ja</w>
inst all
Ber ei
人 民</w>
रे स</w>
Fra u</w>
զ բ
μη ν</w>
ста в</w>
ex emplo</w>
đ ộ</w>
ту ы
ş eh
გ ყ
я ри
Vi ệt</w>
vä h
ม ั้ย</w>
थ े
त ं
N A</w>
Refer en
yapıl an</w>
εύ ω</w>
by ł</w>
š as</w>
lớ n</w>
गा र</w>
ב חו
ٹ ی
و من</w>
N ë</w>
Bel gi
Sout h</w>
génér ale</w>
d ưới</w>
ჟთ ფ
Indon esia</w>
em i
ότη τες</w>
00 00
ž ád
рабо ти</w>
ді я
so kat</w>
en ých</w>
тө л
增 加</w>
ver il
क ई</w>
å ret</w>
gl ed</w>
ко ма
Ақ парат</w>
an née</w>
gr ö
о кру
作 用</w>
gen e</w>
Z im
k Ã</w>
ধ ু</w>
si ze</w>
S ver
wer ken</w>
ၾက ား
တာ ကို
ј де</w>
ty d</w>
ра л</w>
lo om
الم ست
hø y
jec t</w>
پێ یان</w>
کۆ نتڕۆ
0 2
f isk
İ stanbul</w>
c ut
ша й</w>
ġ ener
થ ઇ</w>
ק ט</w>
द र
spos ob
tal ous
an ik
ت خ
чы нам</w>
rak st
eff et
n uk
min ē
N G
де се
К ри
k ti</w>
es e
rač un
pit anje</w>
sed ang</w>
cu re
ju ći</w>
Kø benhav
ko ost
क ल
kh ol
اي نجا</w>
nek ā</w>
d d</w>
ac to</w>
ra zn
ચ િ
审 查</w>
li cz
या ं</w>
kwest ie</w>
göst ər
hum an</w>
pitä isi</w>
ab i</w>
ت ض
યો ગ</w>
و س</w>
ထ ောက</w>
ၾက တယ</w>
ဒီ မွာ
ဓ ာ
χρησι μο
كن ت</w>
տ ո
R an
Lis boa</w>
. --</w>
و ض
у і
ش خص</w>
б ър
vali okun
o q
फा र</w>
בו ד
वा दी</w>
обла сти</w>
때문 에</w>
раз ли
मद त</w>
અ મે</w>
liel ā
minist ro</w>
gemeen schappel
щ у</w>
செ ன</w>
сту па
λο ι
ho op</w>
ნწ მა</w>
jen ih</w>
slu č
αυτ ήν</w>
Da ar</w>
ז ם</w>
ổ ng</w>
พ า
لو گوں</w>
ve aux</w>
تم ہیں</w>
F lor
st off
c ere</w>
or ta</w>
דו מה</w>
S ü
ဆို တော</w>
ကြိုး စား
ဆ ာ
گر ت</w>
ता न</w>
udi an</w>
ना म</w>
õ h
որ պես</w>
a ń</w>
שב ים</w>
ва х</w>
এ ক</w>
ol ur</w>
व ढ
kr æ
וניברסי טת</w>
जा ग
ur ilor</w>
em in
ci ó</w>
કિ સ</w>
გ ჟთფ
जीव न</w>
tek st</w>
ym pä
j ota</w>
қа м
نا بێت</w>
گرت نی</w>
ف ۆ
ێن ێت</w>
ە می</w>
ک ێک</w>
λει τουργ
زند گی</w>
po ř
战 略</w>
ل او
zi t</w>
مح اف
га н</w>
c ơ</w>
و ف
с ұ
ó d
z ug
bl and</w>
n ü
ск ер
на ль
na vi
αν αλ
이 는</w>
Д о</w>
sa ħ
val mist
kõ ige</w>
učin kov
ב נה</w>
щ у
sek su
S ve</w>
ফ ি
עק ב</w>
დ ებ
con fron
taħ t</w>
in ama</w>
me er
자 신
դ առ
L eh
' re</w>
ست ر
до сти
o is</w>
at koz
ث ي
نو ان</w>
бу дзь</w>
nu en</w>
mu ş
N ek
בנו במבר</w>
но во
put em</w>
实 施</w>
бү г
ī tu</w>
197 7</w>
2, 5</w>
nor d</w>
အ မှတ</w>
K it
သေး တယ</w>
ပေး နိုင</w>
ת ל</w>
ющи х</w>
προκει μένου</w>
leg e</w>
κυβέρν ηση</w>
vu onna</w>
ج م</w>
zī vot
fran c
6 6
f ro
ny ky
eg i
el ä
or ul</w>
ก ็
ki on</w>
sti g</w>
dal ší</w>
par i</w>
Par li
vo ir</w>
lu ž
to u
k ra</w>
fav ore</w>
ovan ý</w>
š īs</w>
resolu tion</w>
d enta</w>
h iz
medlemsstat erna</w>
ej as</w>
ap o</w>
कृ त</w>
si k</w>
ло то</w>
vik tigt</w>
آ ره</w>
все ки</w>
ho p</w>
ति च</w>
п ня</w>
ု ံ</w>
ста т
တာ လဲ</w>
ဆီ ကို</w>
း သား
gi fter</w>
økonom iske</w>
بڵ او
دەدە ن</w>
públi co</w>
دڵنیای یەوە</w>
کۆ مه</w>
כ ר</w>
ži ū
ar ds</w>
đi ểm</w>
at ele</w>
प ष</w>
T uri
tel ij
η μέ
oy un
ходи ть</w>
ви м</w>
অনে ক</w>
politik y</w>
kom pli
wy bor
P I
ful l</w>
nel s</w>
an nu
ство м</w>
ati o</w>
प ति</w>
n ob
popul ation</w>
դե ռ</w>
der ing</w>
成 员</w>
Са мо</w>
С ме
á h
co ura
er at</w>
og en</w>
چ ون</w>
person nel</w>
בד צמבר</w>
ura n</w>
ဂီ တ
မ ကို</w>
তা হলে</w>
খ ন</w>
дума ю</w>
προσ πά
أ ول</w>
ne ue</w>
મે ન</w>
શ ન
va o</w>
İn di</w>
Con ven
ค ั
ب دات</w>
n der
č es
nor mal</w>
σ ί
m jes
ві ль
க ட
ta de</w>
fö red
der as</w>
ı za</w>
٢ ٠
כ שי
betre ft</w>
к ва</w>
то о</w>
ot ras</w>
aci jos</w>
tre i</w>
S en</w>
하 나
ที่ สุด</w>
nov ē
գ տն
ен е
so os</w>
ren for
مر ة</w>
ці ю</w>
ကြ ိုက</w>
sub sidi
cht ě
jkoll hom</w>
так сама</w>
O p</w>
маг чы
lju de</w>
וע ד</w>
тал ған</w>
œ uvre</w>
Part ner
hab er</w>
си гур
بیر م</w>
Di ese</w>
வ ர
கூ ட</w>
вы гля
सुर ु</w>
كان ها</w>
13 .
ti ếng</w>
А стана</w>
ēj ās</w>
int r</w>
É s</w>
ओ ळ
ჟლ ს
ला ं
ij ā</w>
ו הת
सा य
я ких</w>
Com e</w>
x in</w>
C S</w>
dollar s</w>
ק ונ
zak en</w>
व ज
θε ωρ
vil ja</w>
is on</w>
χρ ει
fr äm
j ata</w>
om at
те мати
eks .</w>
c c
ခေ တ</w>
အ တော</w>
kom pon
le k</w>
C amp
son dern</w>
3 50</w>
ბვ ქვ</w>
տ ղ
бодо ж</w>
richt lijn</w>
це й</w>
Komis ja</w>
ki ek
k st</w>
fin des</w>
Gr und
குழ ந</w>
us unda</w>
économi que</w>
eg yü
zą dz
poz í
س بة</w>
د ين</w>
pri hod
au di
б э
ش نا
S ich
ac esta</w>
per tama</w>
י ור
σ ω
os os</w>
a ľ</w>
résult ats</w>
ге р</w>
et í</w>
informa zzjoni</w>
γ ι
197 1</w>
N eder
e igen</w>
გა ქ</w>
B O
ل ڑ
A ce
နာ ရီ
com put
Ми ний</w>
B rat
ré alis
м ж</w>
j ās</w>
ll ev
el ő</w>
หญ ิง</w>
ausi ai</w>
ljen a</w>
nam en
та бы
полу ча
πρό ταση</w>
审 议</w>
ส น
ba y</w>
de par
ст э
abil ity</w>
ठ र
av an</w>
fel ic
in ka</w>
on g
บ น</w>
המדי נה</w>
Lietuv os</w>
pra w</w>
någ ra</w>
مان گ</w>
przy sz
g el</w>
.. ...</w>
stri j
тэ л</w>
pos sa</w>
aj í</w>
گ لی
belangrij ke</w>
хі д
leg ge</w>
کی وں</w>
ה שנים</w>
ભ ૂ
Tür k</w>
मु ले</w>
é qui
ख ा</w>
tan a</w>
vé del
та ма
कर णे</w>
О доо</w>
ش ۆ
گێ ڕ
ئێ م
έ β
ျပ ဳ
း လို</w>
в алася</w>
l uni</w>
t ř
ય ન</w>
на ступ
વા ના</w>
pr ä
len en</w>
προσ ωπ
спе к
テ レ
l us</w>
ử a</w>
ગા ં
١ ٩
ス タ
yapt ığı</w>
фи я</w>
Reg ul
היסט וריה</w>
ci vil</w>
ı t
gev ing</w>
qi egħ
st wa</w>
У кра
B e</w>
del lo</w>
ج د</w>
é labor
et ään</w>
est ado</w>
resp eito</w>
ле п
zt at
grup pe</w>
ί ο</w>
mog en</w>
दो नों</w>
की य</w>
n us</w>
ל ם</w>
zem ě</w>
ห วัด</w>
č ní</w>
வெ ளிய
maj í</w>
тъ р</w>
għan dek</w>
கே ட</w>
S ud
ну у
be ing</w>
ข ้อ
م لي
u ka
d d
oğ lu</w>
ел ь</w>
zak lju
စီး ပွား
ag enda</w>
m imo</w>
ter ne</w>
E du
dag en</w>
ج ر
ß er
mí t</w>
les z</w>
ma ħ
d és</w>
t ó</w>
ci do</w>
ต าย</w>
liber aliz
О л</w>
u oj
k ən</w>
ב תו
१ ०</w>
likl ə</w>
生 活</w>
pro pon
пла ни
ற ிய
தெரிய ும</w>
மி கவும</w>
ம னி
nog en</w>
от гово
reģ ion
än drings
zw ei</w>
आ श</w>
erity isesti</w>
Rez er
sig t</w>
イ ン
Х эр
ci p
领 域</w>
વ ો
is ær</w>
es inde</w>
K im</w>
pon ú
crip tion</w>
re fu
မ ဖြစ</w>
က ဲ
အဲ ဒါဟာ</w>
ly g
လာ ပါတယ</w>
в с
régi on
મા ન
कदा चित</w>
pro fil
dow n</w>
aut ob
s ind
raz vo
у ли
H ej</w>
धा रण</w>
fotogra f
sta di
მ არ
præ sent
人 口</w>
li ğ
ல ி</w>
ப து</w>
un ya</w>
сь кій</w>
ک ي</w>
یان دا</w>
ز ە
دەتوان ێت</w>
بوو ین</w>
شێو ەی</w>
ت ێ</w>
شێو ەیەک</w>
му ні
H av
वेग ळ</w>
घे ऊन</w>
ed z</w>
aut onom
בע לי</w>
ema il</w>
і ң</w>
y u</w>
ჱნა ვ
st op</w>
не будзь</w>
мен и</w>
uz zjoni</w>
to ch</w>
ş ti</w>
em isi
δ ί
ժ մ</w>
ри йг</w>
پ زی
ə də</w>
seg unda</w>
în să</w>
i fa
пред став
puol esta</w>
ולי ים</w>
εί π
to ute</w>
ေန ာ</w>
ক র</w>
J am
com pren
қа тар</w>
an lam
post as</w>
pra wa</w>
考 虑</w>
רא ות</w>
id é
um ą</w>
ي ط
ნთ ვ</w>
קו פת</w>
el ser</w>
si apa</w>
G ost
mas sa</w>
prec um</w>
se de</w>
دو ا
institu tions</w>
ny i</w>
4 월</w>
red it
v ụ</w>
g is
hot o</w>
cen y</w>
ο φ
á nak</w>
و الأ
si ah
қа же
vi dere</w>
ku m</w>
স ব
het erna</w>
Т ре
не като
כ ר
utak mi
ex plic
প রি
ри й
επ ί</w>
' m</w>
dispon ib
ut en
vi sto</w>
ter jadi</w>
me as
સ ૂ
ה כי
ակ եր
开 展</w>
ne de</w>
ապ ա</w>
ट न</w>
jo ita</w>
ژ ین</w>
Fran cis
ဟ ို
ဳ ိ
j eta</w>
ש היה</w>
raz gov
ل ام
ari as</w>
me de
F ron
h ərə
ह ता</w>
ru c
joht aj
it al
그 래
ื น</w>
у ні
сла м</w>
eik ä</w>
K em
ba wa</w>
ότ ε</w>
пу нк
kar şı</w>
वे द
gü ven
h ind
cul ture</w>
vis u
پ ل
min d</w>
hæ ng
ю ся</w>
درو و
con duc
ע לה</w>
it ajiet</w>
ચ ર</w>
ח ד</w>
z ob
απ λ
z ati</w>
j ag
b ởi</w>
ха ри
مان گ
я кая</w>
रा च</w>
گف تو
шы я</w>
ە ق
ίζ ουμε</w>
د ەوێت</w>
پەرو ەر
کار ە
کر اوه</w>
at ro
د ست</w>
жа й
men ing
obo wiąz
з али
相 关</w>
အမြ ှောက</w>
ki ç
अस तं</w>
b red
טי י
po kud</w>
да ры</w>
г не</w>
dob ro
o ista</w>
առաջ ին</w>
վ ող</w>
ار ے</w>
تم ہ
જા ણ
egy ik</w>
zak e</w>
ורי ת</w>
ül ő
autom at
t í</w>
מי ד</w>
progra mu</w>
Româ nia</w>
יח ד</w>
μορ φ
əvvə l</w>
D rag
सा ध
ал ды
r ől</w>
indi c
ό μα</w>
slov en
th ật</w>
све т
naš a</w>
194 4</w>
го д
ra dar
பெ ண</w>
krij gen</w>
र योग</w>
di feren
h us</w>
아 이
Tel ef
is lam
mó wi
mi ch</w>
оты р
ဒီ မှာ
mil itar
паві нен</w>
ста не</w>
информа ция</w>
æn drings
up a</w>
ба га</w>
n una</w>
wszyst kich</w>
ج س</w>
den gar</w>
Եր բ</w>
т те
fi eld</w>
ħa ġa</w>
ros s</w>
жүр гі
N um
Қаз Ақпарат</w>
o ki
M ek
إ ح
sk or
ны п</w>
piemē ram</w>
q as
samen werking</w>
do ck</w>
خو ام</w>
drž av</w>
от дел
по пу
من ذ</w>
vien as</w>
et tu</w>
rum ah</w>
po dej
ik ol
S ci
лы ғы
ч рез</w>
bet ro
ισ μός</w>
cir cul
is ku
l ett</w>
polit isk</w>
ہ ون
gebru ik</w>
aj ąc</w>
i ekļ
Ma y</w>
vel dig</w>
ette pan
ain st</w>
íc ích</w>
Sen hora</w>
В ла
lang t</w>
pi es
ту ри</w>
בי ו
학 교
ჟ რ</w>
S ad
ro vi
en ige</w>
gel iş
қы лы</w>
eg ingo</w>
د ەوە</w>
for anstalt
بە هێ
क ॅ
ve řej
ચ ાર
ըն տր
տես նում</w>
A n</w>
vis losti</w>
dru ga
χ εί
bren gen</w>
आप ली</w>
by m</w>
रमा णे</w>
dé fin
מנ ות</w>
при ня
mo tiv
te or
হ চ</w>
eb b</w>
kin d</w>
12 월</w>
z v
z on</w>
сі з
gr æn
appro pri
ص ف
o ść</w>
przed stawi
ר בי</w>
с өз
po cz
विका स</w>
ac je</w>
bli ot
ရှ ိ</w>
ме ся
မ လုပ</w>
ေရ ိ
eti ri</w>
uvi jek</w>
Мо ск
orta ya</w>
medi da</w>
S pol
10 월</w>
sel b
न ै
Î n
fo is</w>
рова ть</w>
ק ל</w>
श ील</w>
הע רות</w>
лі ся</w>
같 이</w>
T ru
de más</w>
થ યો</w>
ल ग
on ların</w>
waar in</w>
ε άν</w>
кото ро
маа нь</w>
pre tože</w>
sta ur
ए वं</w>
го тов
ck s</w>
ті лі
ше н</w>
tek st
R at
z us
чи х</w>
com erci
ուն են</w>
em d</w>
is elt</w>
پ ڑ
то й
0 8
ver dade</w>
ó gi
itt le</w>
d än
vis as</w>
ن گه</w>
ắ ng</w>
č ist
у мет
વિ સ</w>
ता र</w>
ဇ ီ
τ υ
முடிய ாது</w>
P ier
kol u</w>
чи м</w>
é r</w>
โด ย
fog ad
s ati</w>
ę dzi
รา ช</w>
чи х
全 球</w>
я ка</w>
D ow
આ પ</w>
în tre</w>
ус ё</w>
produkt er</w>
ab y
ab e</w>
Un iti</w>
žel ite</w>
ç ə</w>
colleg hi</w>
ત ના</w>
s ett
σ τοιχ
ent er
কর া</w>
ме ха
스 트
да т
协 调</w>
pla at
pri bliž
am ist</w>
h ợp</w>
ան ձ
աս ել</w>
գի տե
非 洲</w>
چ ێ
во й
شێ وە</w>
ئە ر
Ка ко</w>
ow ym</w>
terse but</w>
Б ар
ငွ ေ
ser na</w>
ရွ ေး
मध ील</w>
is esta</w>
ko joj</w>
Im age</w>
f ten</w>
st art
мал и</w>
c ja</w>
g ave</w>
κά ποι
év vel</w>
stati st
regi onen</w>
vá ny
jo urs</w>
ج نو
ss al</w>
t ħ
dē ļ</w>
ra hoit
l ần</w>
이 었
ל הו
на сць</w>
twe ede</w>
pro get
ard ından</w>
वा ली</w>
K an</w>
еди н
く れ</w>
L ang
جو ان
Al ban
δύ σ
ді ї</w>
이 후</w>
vi ens</w>
á ny</w>
Ges ch
in ing</w>
جو ان</w>
ni ji</w>
sm r
پ ت
l ıq</w>
sab er</w>
ti kas</w>
מ צי
u ko</w>
ot ro
Qu ốc</w>
moż na</w>
λ ή
B ry
เ ฉ
no oit</w>
ū s</w>
and an</w>
da h
သ လဲ</w>
အထ ူး
သမ ိုင</w>
ပါ တ</w>
အမ ေရိ
dé termin
ћ е</w>
contra c
ener get
primer a</w>
अ च</w>
c ent</w>
áci u</w>
хэ лэ
에 도</w>
กา ศ</w>
bo t</w>
bi rin
av ven
tarko it
sar t</w>
ва е</w>
kol ej
L am
Pro to
T op
الم غ
mit te</w>
પહે લાં</w>
br ut
och ron
P ada</w>
ולו גיה</w>
kov á</w>
о ба
pre m
ra ju</w>
많 은</w>
ખ ો
за н
जा री</w>
P M
зу ра
kl in
באמצ עות</w>
li ka</w>
οργ αν
شار ه</w>
E G
ü ç</w>
چ او</w>
u će</w>
ж ка</w>
fal se</w>
बा जू
vi das</w>
Ph ili
д р
di jo</w>
کان دا</w>
အ ပြင</w>
במש ך</w>
းအ င</w>
თ მა</w>
ئا ز
ર સ</w>
ανά γκ
hor es</w>
о ти
h eder
ra b
و ہاں</w>
หม าย</w>
index .html
nj em</w>
ای ەک</w>
یەک ەم
یەک ەی</w>
ज से</w>
pro ġ
szem ély
रका र
Pl us</w>
ني ست</w>
te ad
de ja</w>
z az
ز ن
A st
dien as</w>
الع ربية</w>
ні чо
i vä
transpor t
gra ag</w>
ni ż</w>
pol is</w>
ال قا
си ята</w>
раз у</w>
sec teur</w>
m ess
kri st
му зи
ش کی</w>
آ د
במ ח
彼 女</w>
о но
u kl
is ra
e ye</w>
ma u</w>
sa ada</w>
ш ча
ist ič
จ ัด
فض ل</w>
ướ ng</w>
ка на
rättig heter</w>
kul tū
pi et
V in
dol go
IN G</w>
ი ს
mu ligt</w>
at ter
որ ի</w>
sel on</w>
CO M</w>
բ եր</w>
un ci</w>
કર ીને</w>
о че
س كانها</w>
ni ć</w>
ob serv
oc en
о ча
A pla
n eni
वि ज</w>
m k
sl ində</w>
с ө
στι γ
10 vt</w>
b una</w>
1256gzi p
en nes</w>
ø 8
L oi</w>
Pol i
ø8 Ï</w>
s se</w>
จ ัก
b ør
आ वा
ця пер</w>
cij ą</w>
ne pri
ุ ่ม</w>
ца м</w>
χρ ι</w>
R S</w>
ค ง</w>
pre j</w>
இர ண</w>
ф он</w>
မ ော
R ada</w>
နှ ောက</w>
လုံး ကို</w>
ت ن</w>
all tid</w>
includ ing</w>
je de</w>
hen kil
أ خرى</w>
تا کو</w>
co unt</w>
av ail
פ ש
uy gul
कर ो
P RO
с фер
jas no</w>
वा पर</w>
па н
Я ны</w>
მჲ ზვ
s che</w>
af fer
man ier</w>
և ս</w>
zeńst wa</w>
П од
Mil li
ર ણ
to u</w>
кел ген</w>
का मा
γ ε
stá ty</w>
es crit
ė se</w>
را ق</w>
ez er</w>
ко ї</w>
ש בה</w>
B M
souč as
μέ χρι</w>
últi mos</w>
dire ktiv
خ ەی
یەک ەوە</w>
لە م
یەک ان
پ ڕ
و اتە</w>
S K</w>
tra g</w>
organis ation</w>
mö v
ท ์</w>
வ ே</w>
الم ي
ভ ি
ав ч</w>
f ul</w>
و د</w>
Der for</w>
элек тро
मो ठी</w>
пар ти
H in
ရွ ား
သ ံ</w>
အ ိပ</w>
U t
ေဖ ာ</w>
kö ny
vi ene</w>
Re ut
ab ol
mid del
sé gé
M ö
don ne</w>
ре гі
fin den</w>
ნ ე
ду р
бе й
R un
ç i</w>
ta ire</w>
led en</w>
с қа</w>
gyven din
ー ン</w>
мо дел
sen i</w>
L ai</w>
ге й
да же</w>
चाहि ए</w>
Gos pod</w>
ne uv
pel os</w>
շ տ
एक मे
zet ten</w>
เ อ</w>
ای ران</w>
państ w</w>
ל הם</w>
م ام</w>
ti ks</w>
ac el
мал ко</w>
ra g</w>
con trat
ван не</w>
ig az
del t</w>
အေ မ
၂ ၀</w>
သ ော</w>
inst ell
зно ў</w>
гэ ты</w>
каза ў</w>
kt ə
tj än
ang g
j ah
H vala</w>
دو ست</w>
ке ң
pri eš</w>
S re
O f</w>
ek tor
u oti</w>
P el
ren seignements</w>
қы н</w>
tut o</w>
ท ธ
모 든</w>
financi ële</w>
ნ ი</w>
ıl ı</w>
rol l</w>
kra j</w>
خو ب</w>
демо кра
her vor
कृ ती</w>
mat éria</w>
ф ра
nad al
ā da</w>
за коно
gar anti</w>
πρ άγ
хар ж</w>
Хэр вээ</w>
ist itu
W h
ש ר
ط ف
ամեն ը</w>
dan ce</w>
im pul
alko hol
Lis abon
Sz áll
s ninger</w>
да па
ost av
بار ی</w>
S ono</w>
הי ום</w>
場 合</w>
тэ м
mal am</w>
pre sa</w>
ol acaq</w>
O v
ပု ံ</w>
ot taa</w>
mil jar
do u</w>
ل ن</w>
نا کات</w>
атры ма
ک ۆ</w>
قس ە</w>
کۆ ن
esi merk
מ פי
дире кто
min ha</w>
ก รรม</w>
an caq</w>
насел ення</w>
ver a</w>
områ der</w>
kõ ik</w>
ب نی
vi st
t eva</w>
जीवा णू</w>
edir əm</w>
α ση</w>
לנ ד</w>
ti mas</w>
heid s
вен и</w>
ва ний</w>
सुरु वात</w>
ळ ी
सग ळे</w>
gel en</w>
la ž
чи д</w>
la us
لا عب</w>
ا خت
ki it
пу блі
٣ ٠</w>
pp et</w>
stør ste</w>
ग ृ
ste det</w>
ir siniz</w>
qu ella</w>
ac tions</w>
g uz
in ud</w>
у у
ကိ စ</w>
օրին ակ</w>
եր ից</w>
ش ك
ရှိ နေ
တဲ ႔</w>
רכ ים</w>
strād ā
လျှ င</w>
g ono</w>
Ad ri
z il
polit iska</w>
pot vr
спо рт</w>
sp il
ح ية</w>
uk ses
боль ше</w>
le h
apart man</w>
om ány
с алы
на и
či ť</w>
fi ja</w>
้อ ย</w>
би ло</w>
ઉ ન</w>
ít ott</w>
ad en</w>
7 월</w>
problem er</w>
služ by</w>
b la</w>
bet yd
oħ rajn</w>
м д</w>
ні за
ko a</w>
ū t
事 务</w>
stran y</w>
D á
כ ו</w>
ang er</w>
ब ीच</w>
μπορού ν</w>
T ə
ал ь</w>
қара лық</w>
ied zīvot
ш ки</w>
dirit to</w>
க ி</w>
भ ा</w>
Re al</w>
int ă</w>
ဆို း
ဟ န</w>
Jos é</w>
ו אי
bl andt</w>
ה .
ch ez</w>
nap is
عل يه</w>
եր ն</w>
Алі са</w>
ar ası</w>
tan ut</w>
ни е
ад на
м с</w>
ud ar</w>
uz sv
Ob ama</w>
bere its</w>
अ श</w>
not re</w>
par edzē
бы л
liwo ści</w>
R ev
ру ха
võ r
för st</w>
ди н
S iz
او ل</w>
ú r</w>
polic y</w>
em aal</w>
op h
হ ি
қта р
gy er
An dro
ала р</w>
[...]
