, 22332443
的 18792508
. 12684648
和 9872946
▁ 8335342
، 7102189
ية 6423393
ة 6384294
、 5825643
▁في 5669599
在 5510945
م 4586809
ات 4502854
ق 4499012
了 4134692
▁الم 3939125
ج 3708767
▁من 3611130
年 3508994
) 3324564
▁إ 3230849
ك 3027220
▁- 2972664
▁( 2968891
是 2917492
( 2794960
▁وال 2667857
对 2641469
/ 2562462
▁ال 2471576
▁على 2392946
▁الت 2370015
有 2263659
不 2213851
为 2173630
ع 2162452
: 2154878
会 2119023
人 2053301
ين 2017221
第 1992790
▁و 1961540
月 1943205
▁الأ 1919468
中 1915815
▁أن 1908280
与 1879395
将 1755937
并 1753066
▁إلى 1744025
我 1734864
上 1729766
委员会 1689079
ها 1647579
" 1640474
و 1638243
所 1630712
一 1603573
▁الد 1573712
以 1528201
ي 1509778
《 1463029
国家 1452517
于 1409903
日 1407089
ف 1387969
工作 1377323
或 1366673
》 1359266
ول 1351064
你 1348992
其 1343698
▁أ 1320591
ً 1309913
法 1304638
ش 1299288
ت 1295641
联合国 1285640
会议 1284934
业 1279070
د 1256140
▁الإ 1255607
问题 1250637
性 1249838
ب 1248309
▁" 1230795
地 1197261
个 1188832
我们 1173938
应 1165903
来 1159733
▁ل 1157424
大 1156782
ض 1150820
ط 1139602
ير 1135961
这 1132190
国 1116319
就 1112736
下 1105520
▁الع 1103290
ح 1102657
报告 1102424
发 1100615
ون 1094642
国际 1093635
时 1089746
ز 1089553
提供 1089465
▁التي 1086633
س 1077796
关于 1059846
▁وت 1058042
“ 1055044
组织 1053727
该 1047859
以及 1040444
发展 1034250
到 1031008
يا 1026039
项 986099
▁我 974191
多 972721
团 971589
▁الب 969223
▁الح 968885
及 967445
▁ي 962770
ما 962201
尔 957832
包括 955845
一个 953895
说 943659
还 942681
▁الس 933927
▁عن 930477
▁الأم 921682
进行 920918
特 919872
后 918980
实 913605
▁لل 912857
▁بم 909293
ث 908605
▁ن 902722
用 899240
▁الق 898814
而 897008
权 883599
条 879546
向 879504
机构 878467
资 877093
长 873848
也 872974
者 851952
这些 850385
方案 847943
- 847479
出 846357
员 840616
政府 839303
代表 838767
被 838762
▁在 834630
ن 831703
▁الف 831479
ص 828667
次 826041
▁الن 820232
里 813779
行动 810382
ال 808136
安全 803356
组 801031
通过 795631
可 793547
▁المتحدة 790401
妇女 788575
▁مع 782877
小 780189
没有 778284
内 778055
事 775370
斯 768840
加 767432
部 766723
社会 763079
▁بال 760783
ذ 760183
本 759461
وا 757933
ُ 757916
各 757593
他 757331
ام 756608
ى 755820
▁ت 748053
; 738247
力 737880
外 732854
利 732755
执行 732488
从 731654
经济 723982
ر 722803
” 715107
▁المت 713379
期 710894
过 708204
جن 705544
مة 703491
1 702527
拉 702326
家 701334
能 700403
公约 699762
ري 699213
方面 697543
رة 696850
اب 695074
方 694807
ني 694217
经 692252
اد 688454
人员 688029
要 687533
ّ 685429
لي 682344
合作 681341
。 677471
اء 676512
建议 676286
体 675206
أ 673256
需要 673089
▁الج 672957
分 672197
؛ 671701
人权 670239
达 669538
▁أو 669023
ل 664241
▁ق 664077
其他 658903
规 651415
化 650185
都 648031
را 647802
▁العام 647389
得 646141
款 645881
في 642619
名 641826
公 635014
غ 632614
3 630906
▁لا 628741
定 627432
动 626578
同 626357
▁الش 625485
此 624103
ا 623793
حة 621156
有关 620821
活动 617666
▁المع 615259
儿童 612203
ه 611791
نية 609518
ظ 609368
文 608521
区域 607176
但 607001
计划 605210
使 604074
特别 603223
▁وأ 601336
▁你 600613
管理 600251
点 595498
يز 594954
好 594071
亚 590234
▁الإن 589169
段 588268
行 587991
▁ذلك 587568
2 586921
根据 585921
支持 585058
▁الص 582738
费 582345
已 582159
من 581849
合 581031
理事会 580957
▁الل 580073
عة 578900
可以 577882
计 577870
很 576735
技术 576454
着 575242
▁لم 575181
前 573831
更 570635
比 569583
专 567998
所有 566954
情况 566898
开 566795
制 563670
6 563132
▁我们 559337
法律 559039
天 558326
▁هذا 556999
指 556904
务 556262
صل 555971
现 555653
新 554644
دي 554016
▁这 553748
成 552625
لا 549639
机 548200
采取 548038
重 546926
总 546278
▁تق 545646
非 545233
ادة 544047
克 543854
خ 543468
产 540219
等 540156
两 539089
必须 538912
ار 538750
监 538740
هم 537618
议 536342
可能 534961
راء 532128
项目 530868
提出 529645
权利 528954
它 525426
给 524876
يع 522499
决定 519792
和平 519024
什么 518730
措施 517267
面 515995
4 515748
ور 515034
的人 513278
7 511071
جم 510976
署 509315
5 508056
يد 507393
关 507113
马 506692
▁وم 505484
职 505307
数 504644
主 503103
则 502881
理 497924
这一 497701
). 497424
保护 495234
巴 495214
لة 494833
言 494245
مر 493083
▁تع 492479
他们 491996
▁يت 491370
قة 491079
▁هذه 489692
服务 487794
最 487563
政策 486730
نا 485296
▁ما 485291
金 485251
سان 484473
ود 483461
运 482499
认为 479630
物 478335
لية 477770
处 477718
继续 477503
至 476043
证 475346
种 474160
وق 471960
▁للم 470322
يل 469563
工 468511
别 468103
ست 468024
那 467954
生 467230
目标 466601
作 462301
资源 461134
طة 461133
做 459139
▁المن 458677
入 457275
اس 456454
额 456421
努力 456121
让 455265
▁بين 454762
要求 454059
由 450937
看 450194
اف 450181
无 448345
规定 447995
意 447741
促进 447654
كم 446680
▁الر 446488
加强 445732
基金 445338
▁ب 444079
使用 443919
起 443402
▁الاست 443240
信息 442705
准 441134
进 439899
▁الذي 439377
▁وفي 438453
مال 438398
安 437240
▁الث 436552
办 436190
任何 434910
确保 433614
号 431661
科 431409
9 431188
吗 431116
▁م 429442
民 427816
8 427715
论 426648
级 426576
美元 426381
纳 425499
维 423450
去 423128
▁الك 420485
12 419177
派 418577
之 418434
回 418211
▁الخ 418148
如 417345
间 417208
▁عام 414814
兰 414144
环境 413686
大会 413065
教育 412402
商 411492
已经 411362
约 411222
▁تن 411085
类 410929
▁بشأن 410314
备 410072
见 409753
اق 409670
▁والم 409303
受 408538
▁ك 408372
ئ 408357
格 407701
订 407633
رية 406250
· 405909
世界 405652
系统 404434
高 403981
作为 403198
全球 402531
品 402501
دار 402352
量 400636
训 397657
想 396394
提 395149
保 394924
建立 393889
提交 393280
因为 392968
10 392472
يق 392324
▁المس 390808
▁المح 390720
شار 389869
南 386777
امل 386488
جه 386179
援助 385545
▁1 385306
增 383173
行为 383155
دان 382969
布 382892
دة 382768
变 381932
号决议 381393
价 381364
ئة 381274
质 381144
▁غير 381040
结 380559
影响 378559
▁وإ 377604
秘书长 377363
يم 377049
部门 376119
参与 375265
局 373896
核 373690
رب 373036
列 372142
عا 369849
道 369815
▁الات 369511
收 368649
协调 368475
研究 367652
报 367511
塞 366059
子 365840
ؤ 365785
这个 364677
述 364394
转 364051
地区 363869
联 363587
重要 363332
解决 361842
实现 360666
文件 360391
▁إن 359964
قد 359926
ولي 359856
把 359265
表 358813
共和国 358755
草案 358728
期间 358019
ائ 357803
▁تش 357304
尼 355287
明 355285
▁ف 355004
不是 354950
战略 354769
未 354225
官 353685
确 353631
决 353611
وط 353291
وي 352932
率 352610
信 352537
自 349923
▁أع 349554
缔约国 349314
十 348977
反 347557
非洲 347547
决议 346308
预 346201
ان 345801
成员 345798
يف 345335
届会议 345115
索 344275
强 344233
阿 344121
审查 344076
▁تح 342920
请 342710
效 341923
▁لت 341329
正 339203
关系 338827
▁المست 338810
▁تم 338799
失 338752
即 338726
实施 336524
取 336470
复 336266
领域 336019
海 336016
每 335534
单 335354
测 335235
德 335144
开展 335019
这种 334688
政治 333904
主席 333129
增加 332724
书 332324
编 332051
她 331824
审议 331269
مل 330793
▁المؤ 330303
心 329154
美国 328717
وف 327647
讨论 327280
▁الط 326944
任 326603
▁ع 326582
تر 326250
قانون 326234
相关 326078
当 325399
先生 325194
边 324920
谈 324695
فر 324609
定的 322953
اه 322731
西 322586
士 322570
三 322277
▁كان 322095
口 321389
现在 320260
得到 319796
表示 319447
学 319299
能力 319230
助 319015
有效 318149
事务 317971
获得 317361
适 316779
东 316751
رف 315889
مان 315471
诉 314765
放 314439
气 314283
تما 314137
培 313474
立 313158
样 313018
人的 312869
一些 311710
الة 309953
的工作 309911
中的 309634
▁وب 309268
程序 308480
ديم 308463
▁تت 307976
设 307743
عل 307194
险 306972
度 306737
据 306536
的一 306089
指出 305973
场 305923
▁أيضا 305206
19 305129
查 304945
رو 304878
手 304213
مت 303117
▁ح 302464
بر 301810
ليم 301088
其中 300828
▁سي 300516
سل 300244
危 299632
كة 299627
支助 298647
ريق 298333
干 297675
11 297577
▁والت 297167
عم 296838
时间 295952
دا 295708
عية 295502
عد 294798
عات 293933
▁قد 293451
يات 293300
رات 292771
▁他 292332
كوم 292111
视 292025
五 291701
人民 291699
▁2 291348
ساس 291326
案 290765
集 290324
水 289973
区 289496
作用 289220
记 289047
农 288245
预算 288134
中心 287977
▁للت 287934
وج 287263
管 286440
هي 286148
女 285576
اع 285472
رير 285334
数据 284961
ء 284882
调查 284408
ـ 283968
▁العمل 283711
▁) 283537
联合 282672
方面的 282391
开始 282365
▁است 282247
相 282163
▁بت 281876
正在 281850
带 281819
没 281801
تم 281695
▁7 281669
势 280622
常 280372
▁للأ 280065
نامج 279740
能够 279693
知道 279070
目的 277587
审 277561
基础 277357
جي 277295
▁جميع 277269
教 276566
راف 276213
电 276150
علق 275906
营 274425
يه 274142
处理 274130
وس 273825
▁3 273218
流 273097
利亚 272841
室 272270
▁العالم 272237
投 272096
冲突 271578
图 271525
采 271045
▁بما 270906
روع 270797
▁6 270716
وب 270573
欧洲 270540
今 270466
فت 270446
哥 269947
▁وع 269584
暴力 269421
的报告 269369
): 268469
第二 268280
سي 268212
它们 268200
位 268198
وك 268105
ائية 267649
问 267409
يت 266835
؟ 266790
贸易 266343
付 265703
的是 265570
部分 265409
导 265108
عي 264774
ورة 264707
犯罪 264630
▁الأول 264593
任务 264453
提高 264216
الات 263968
يس 263775
补 263187
ولة 262829
离 262664
语 262663
▁10 262615
▁. 262608
▁5 262469
▁مج 262000
公司 261499
各国 261149
伊 261071
土 261061
` 260505
جلس 260275
▁حقوق 259856
涉 259660
验 259522
تص 259174
اعدة 258570
瓦 258004
意见 257928
取得 257338
ند 257043
ارد 257012
▁不 256908
作出 256710
机制 255797
▁عليه 255402
步 255250
改 254853
快 254520
只 254352
قا 254167
لاح 254129
难 253701
قر 253575
选 253571
平等 253530
نج 253507
车 253357
条约 253335
标准 252223
مار 252189
艾 252173
وم 252143
نت 252037
▁أي 251956
供 251919
进一步 251696
必要 251487
تي 251368
فاق 251189
伙伴 251134
打 251069
由于 250350
吧 250049
扩 249847
إ 249847
▁أجل 249820
قي 249653
情 249541
▁الاق 249070
四 249039
主要 249007
家庭 248912
你的 248841
进程 248841
框架 248574
罗 248374
عت 248031
اني 247446
▁4 247383
▁ومن 247142
زم 246829
". 246504
▁الجن 246020
机会 245958
万 245884
发生 245630
评估 244768
卡 244171
مع 243972
秘书处 243943
仅 243778
开发 243579
▁البل 243522
争 243510
拟 243435
值 243285
减少 243042
应该 242930
尼亚 242790
人口 242753
武器 242666
班 242507
مي 242194
ظم 241991
这样 241923
就是 241876
لف 241567
资料 241500
原则 241423
爱 241251
许多 240922
联盟 240785
护 240683
参加 239899
▁خلال 239087
أة 239068
害 238831
担 238459
统 238233
因 238090
用于 237888
司法 237831
法院 237584
قل 237534
责任 237252
▁والأ 236479
强调 236351
问题的 236144
وص 235997
▁بل 235872
قت 235760
么 235586
部队 235252
交 234210
特别是 233307
通 232950
▁الو 232908
▁8 232762
的国家 232585
调 232545
▁السي 232538
طار 232202
是在 231821
发展中国家 231557
各种 231508
以便 231323
歧视 231162
越 230720
境 230522
举行 229466
确定 229432
▁مس 229371
庭 229288
判 229186
新的 229019
我的 228307
方法 228231
及其 228175
▁بر 227955
利用 227745
军 227458
除 227000
话 226786
制定 226339
自由 225788
▁التق 225747
支 225121
载 225111
راض 224738
ثل 224500
的问题 224431
不能 224385
头 224225
成为 224222
医 224016
لم 223685
切 223276
如何 222631
修 222547
اج 222503
和其他 222389
رت 222128
群 221959
▁كل 221955
节 221952
وية 221904
您 221683
题 221620
لك 221509
اي 221452
希望 220798
▁وقد 220718
清 220664
愿 220254
رار 220000
行政 219951
称 219783
فق 219679
几 219341
يان 219285
存在 219170
果 218994
▁12 218722
制度 218151
同时 217985
目前 217977
建设 217538
具体 217518
▁15 217507
َ 217486
اح 216895
传 216772
缔约 216242
▁9 215793
如果 215700
份 215527
咨询 215463
▁وك 215332
代 215248
举 215023
لى 214486
وز 214005
▁وف 213913
文化 213366
▁ص 212974
ضاء 212596
说明 212471
风 212415
为了 212043
难民 211918
▁مش 211799
全面 211648
帮助 211516
太 211366
تن 211306
办法 211193
▁ون 211014
例 210965
▁此 210793
▁التع 210764
▁تو 210578
划 210259
检 210199
▁该 210122
▁س 210105
▁ش 210055
يب 210040
▁الان 210040
▁ولا 209698
▁مؤ 209365
民主 209290
15 209288
听 209198
充分 208927
共同 208799
考虑 208657
生活 208394
评 208256
需 208218
些 208164
30 207252
▁وح 206997
整 206334
六 206323
像 206202
سين 206137
进展 205847
议程 205329
办事处 205097
往 205065
移 204618
标 203656
接受 203591
▁لأ 203319
路 203306
c 203077
承诺 202496
益 202369
刚 202360
而且 201761
低 201725
接 201559
20 200978
الي 200908
杀 200810
َّ 200699
住 200641
基本 200613
▁11 200576
儿 200432
美 199907
走 199544
队 199473
了一 199385
نم 199331
条件 199215
基 199051
协 198888
试 198477
ره 198392
性别 198340
▁الاج 197598
劳 197533
维持 197423
▁تد 196479
章 196456
持 196430
适当 196339
结果 196049
严重 195851
空 195804
哈 195745
罪 195656
▁فيما 195312
▁الما 195231
消除 195224
高级 195171
负责 194847
象 194825
宪 194806
各项 194080
جار 194028
老 193954
顾 193608
▁المج 193527
▁بأن 193115
از 193010
لب 192960
造成 192947
ادر 192911
▁وس 192707
界 192276
养 192265
具有 192177
对于 191994
▁一 191422
私 191396
是否 191342
▁مجلس 191275
会员国 191061
师 190936
设立 190851
药 190452
第一 190311
الت 190281
周 190104
全 190076
写 190074
▁因此 189754
威 189617
▁السلام 189295
真 188985
▁لح 188882
拿 188214
اط 188002
مه 187830
生产 187623
注意到 187602
密 187225
▁13 187175
个人 186706
平 186700
公共 186683
程 186595
▁المد 186589
众 186538
巴勒斯坦 186309
困 186254
بت 186192
رض 186096
之间 185944
▁مت 185886
ثة 185684
يك 185492
企 185421
减 185296
他的 184903
治 184635
按照 184587
ديد 184583
筹 184118
▁التح 184079
义 184029
并且 184014
第三 183723
共 183489
欧 183330
协助 183320
خاص 183203
著 183190
义务 182917
▁أنه 182694
در 182383
非常 182345
▁وي 182327
再 182284
جة 182240
推 182165
二 181853
ظر 181727
自己 181700
线 181631
待 181255
两个 181135
签 180774
▁المر 180627
علومات 180588
求 180504
受到 180036
状 179460
苏 179310
更多 179305
消 179271
健康 179198
雷 179134
دم 179122
牙 178977
سم 178452
货 178305
▁بعد 178176
又 177498
ناء 177432
? 177404
尽 177331
较 177273
极 177193
武装 176797
تمع 176679
之间的 176537
▁هي 176462
挑战 176455
▁30 176290
因此 176199
应当 176087
▁بها 175889
残 175848
况 175713
绝 175628
▁يمكن 175457
候 175230
设施 175143
房 174815
市场 174638
赔 174577
بة 174403
领 174350
国内 174253
以色列 173740
一般 173676
分析 173598
层 173356
战 173171
▁البر 173132
شر 173104
丹 172756
▁فيها 172535
بي 172458
لت 172260
萨 172219
我们的 172064
▁如果 171861
感 171681
议定书 171479
委 171232
正式 171204
主义 171120
不会 171050
损 170905
欢迎 170777
刑 170717
完成 170416
▁年 170306
), 170157
做法 170067
▁14 169733
方式 169681
▁د 169594
قدم 169589
形式 169537
夫 169516
سة 169470
积极 169461
创 169334
改革 169331
地方 169200
独立 169188
▁:: 169186
预防 169073
尽管 169072
▁بالت 169033
救 168908
恐怖主义 168845
年的 168736
伤 168626
18 168105
وض 167817
阿拉伯 167567
讲 167542
▁ذات 167499
认 167455
介 167440
عض 167305
▁المو 167186
ائل 167152
稳 166903
鼓励 166894
▁تلك 166877
▁المنا 166797
这是 166769
▁كما 166719
不同 166717
之前 166654
实际 166635
当局 166581
托 166551
先 166448
▁20 166211
▁غ 166174
国家的 165495
那些 165406
债 165237
ئم 164976
! 164926
黎 164916
▁با 164742
之后 164731
تح 164719
وى 164682
违 164651
日第 164573
首 164481
米 164451
▁هو 164395
性的 163828
كل 163814
▁ج 163794
▁دول 163780
▁أف 163484
一切 163225
型 163213
وع 163060
14 162874
يج 162560
ذلك 162554
▁ول 162524
到了 162437
购 162418
迪 162406
▁اله 162135
们 162076
充 162042
▁الرئيس 161953
رد 161826
▁لإ 161788
صد 161589
督 161421
يش 161372
承 161313
اري 161199
比亚 160980
卫生 160956
解 160949
岛 160859
觉 160783
شتر 160403
领导 160310
落 160172
件 160152
利益 159794
控制 159774
يرة 159509
نف 159479
建 159426
▁إج 159413
批准 159390
观 159338
绍 159270
驻 159250
户 159211
سا 159183
كت 159066
地位 158759
▁عمل 158661
致 158249
社区 157862
沙 157844
仍然 157795
附件 157761
拉克 157716
选举 157384
人道主义 157253
▁به 157097
▁这些 156721
优先 156708
察 156509
حاد 156330
اية 156260
▁الدا 156156
差 156153
ِ 156144
▁但 156123
免 155828
▁2008 155803
无法 155610
限 155409
才 155402
▁a 155343
▁أم 155117
协定 155105
▁那 155019
占 154964
中国 154718
▁مو 154619
军事 154561
以下 154389
哪 154106
▁16 154048
坚 153935
出的 153900
يون 153893
▁خط 153841
ريب 153748
了解 153720
科学 153549
▁وق 153290
选择 153176
يو 153135
算 153022
知识 152979
ايا 152829
انية 152751
财 152731
دى 152667
赞 152649
兴 152587
责 152472
مو 152333
上的 152232
洛 152184
... 152155
裁 152097
افة 152073
网 151950
成果 151654
▁مست 151569
仍 151567
一次 151430
警察 151414
▁الض 151361
获 151344
▁بع 151303
كن 150980
俄罗斯 150955
毒 150884
关切 150873
日至 150866
跟 150681
降 150470
ضي 150356
他们的 150352
a 150313
مائي 150133
英 149750
▁2006 149584
细 149536
轻 149440
16 149410
▁他们 149341
表明 149286
ته 149259
كات 149257
续 149108
怎么 148867
予 148845
اك 148844
طب 148837
安排 148723
▁2005 148592
25 148542
改善 148403
范围 148398
食 148321
偿 148299
厅 148204
简 148109
最后 147965
13 147805
▁الله 147619
直接 147387
综 147189
金融 147012
找 146746
种族 146697
乌 146603
▁بالم 146524
塔 146429
大的 146401
依 146154
▁18 145896
▁آ 145858
吉 145784
禁止 145690
关注 145624
▁为 145603
مد 145559
过程 145475
▁المش 145459
疾 145328
登 144906
库 144681
▁2000 144596
盟 144562
阶 144459
▁أخرى 144391
حق 144347
警 144320
止 144263
案件 144189
▁مم 144168
▁她 143994
协商 143882
器 143874
临 143754
犯 143743
深 143589
在这 143555
按 143431
刑事 143427
态 143408
وة 143373
飞 143150
粮 143149
ادي 143137
وار 143012
▁17 142974
联系 142944
▁الفر 142819
原因 142713
限制 142631
原 142544
打击 142523
立法 142482
一致 142410
履行 142403
▁* 142366
收入 142331
院 142323
سس 142289
كمة 142255
初 142084
照 142025
啊 141926
少 141914
空间 141596
▁مح 141564
▁有 141178
كر 141122
رى 141094
联邦 141065
习 141056
▁ان 140938
▁2004 140788
七 140579
散 140336
贫 140218
印度 140067
▁لع 140008
旨 140003
委员会的 139996
▁وأن 139934
رين 139877
排 139874
虽然 139721
بار 139641
门 139601
银行 139463
宣言 139388
▁2002 139374
▁2010 139307
近 139304
一直 139056
足 138684
倡 138574
贩 138416
---- 138307
有关的 138258
负 138203
▁بح 138150
司 137976
▁بعض 137923
▁تس 137884
律 137808
亿 137671
呢 137531
岁 137485
针对 137481
底 137426
鲁 137233
内的 137213
▁وا 137190
▁它 137177
▁دع 137156
▁ينبغي 136800
▁اتفاق 136761
公民 136732
坛 136583
يط 136453
呼吁 136244
17 136237
的一个 136229
领土 136165
حت 135924
卫 135725
装 135718
非政府组织 135691
▁الغ 135610
古 135596
كان 135448
成功 135380
出现 135234
存 135158
属 135084
击 135032
▁الخاص 134974
协议 134860
فع 134844
لس 134774
内容 134608
الم 134503
碍 134401
▁ط 134317
迫 134302
防止 134211
过去 133979
延 133870
威胁 133342
结束 133305
但是 133262
▁بص 133220
▁但是 133171
总统 133139
发现 132914
▁2007 132619
之一 132513
قيق 132420
色 132275
▁وضع 132066
奥 131993
دام 131979
حد 131883
错 131661
لها 131512
你们 131495
完全 131461
举行的 131400
注 131357
يح 131283
键 131268
许 131237
▁فإن 131226
随 131200
者的 131118
▁منظ 131071
只是 130960
届 130935
发挥 130879
خذ 130878
ابة 130827
好的 130765
او 130748
قرار 130659
广泛 130569
▁تج 130500
政 130333
دد 130215
圣 130062
客 129893
注意 129881
▁عملية 129879
同意 129828
تك 129702
买 129651
勒 129583
财政 129555
▁قرار 129552
寻 129528
▁بد 129476
销 129314
网络 129144
需求 129139
▁第 128961
富 128905
对话 128824
宣 128819
ؤول 128817
▁2009 128702
自己的 128672
伦 128589
▁对 128560
村 128502
نة 128371
خل 128193
重新 128187
طلب 128091
是一个 128084
وظ 128072
在其 127986
▁الفت 127969
▁[ 127953
导致 127889
留 127861
造 127772
估 127682
林 127680
▁21 127497
事件 127389
▁بأ 127329
死 127298
承认 127219
▁اللا 127172
وات 127082
课 127059
▁是 127024
▁العم 126943
وح 126842
ثر 126698
▁2001 126692
ِّ 126546
升 126526
城市 126315
令 126299
▁السيد 126205
某些 126086
临时 125999
تها 125866
人类 125543
大学 125412
远 125387
和国际 125232
国际社会 125177
خت 125142
病 125101
▁2003 125019
的国际 124929
弹 124814
3. 124747
▁الخاصة 124695
钱 124556
▁تقد 124537
提供的 124410
观察 124350
早 124310
病毒 124279
满 124220
نس 124200
运动 124191
جل 124176
席 124135
保障 124105
1. 123920
▁دولار 123783
非法 123649
摩 123639
例如 123582
▁25 123558
باد 123335
▁31 123333
法的 123303
缺 123227
加入 123085
只有 122972
▁عدد 122825
遇 122821
北 122679
عب 122667
构 122646
▁2. 122641
最近 122422
21 122419
送 122378
连 122342
告诉 122285
产生 122213
输 122162
▁رئيس 122034
نها 121948
火 121878
知 121856
可持续发展 121678
2000 121659
▁24 121625
▁' 121506
عادة 121501
终 121499
▁22 121372
سب 121334
专门 121281
喜 121228
根 121062
▁أح 120896
范 120807
ايات 120746
考虑到 120729
均 120393
黑 120267
推动 120217
لو 120150
▁الأطفال 119888
身 119880
▁ست 119864
重申 119832
دف 119766
2. 119640
▁الأع 119519
张 119471
曾 119281
] 119210
元 119044
▁عليها 119039
久 118821
引 118818
返 118656
▁بإ 118519
保健 118334
组成 118332
▁000 118312
策 118176
裁军 118148
整个 118118
未来 118049
遵守 117954
▁وج 117943
员国 117889
来自 117796
مبر 117770
包 117738
▁إذا 117736
有一 117675
享 117615
控 117596
目 117555
اض 117336
遗 117209
▁1. 117083
谢 117063
دو 116971
附 116958
▁23 116884
谁 116817
▁تحقيق 116630
▁تأ 116524
▁ضد 116450
请求 116409
فين 116289
的所有 116150
全国 116094
نه 116062
保持 115943
▁大 115842
广 115768
持续 115728
人们 115588
اقة 115510
的主要 115491
八 115491
瑞 115316
شاء 115228
年度 115218
تا 115138
▁الأخرى 115094
▁له 115039
因素 115003
▁2012 114745
▁ات 114707
内部 114628
答 114381
وروب 114339
副 114300
▁أكثر 114124
▁الز 114112
▁بو 114069
卢 114011
普遍 113967
▁2011 113896
▁يكون 113889
一样 113768
可持续 113714
情况下 113645
假 113581
24 113545
符合 113539
专员 113466
竞 113445
داف 113396
西亚 113377
置 113318
看到 113275
/5 113269
غي 113198
材料 112952
禁 112901
مس 112789
结构 112747
居 112680
سك 112283
一种 112242
程度 112145
以来 112112
▁19 112108
ندا 111929
恢复 111839
征 111530
字 111389
▁خاص 111371
题为 111344
▁المال 111336
▁عدم 111264
▁القط 111260
授 111224
新闻 111149
第四 111119
大会第 111014
孩子 110885
▁هناك 110805
▁ض 110789
学生 110569
يران 110565
ائي 110439
شت 110353
定期 110028
很多 109965
讨 109910
土地 109863
记录 109725
٣ 109616
联合国系统 109566
的活动 109457
便 109439
措 109312
严 109305
راق 109305
形 109300
▁الآ 109298
بلغ 109273
2005 109239
死亡 108975
侵犯 108709
—— 108640
▁منها 108515
汇 108474
的事 108199
▁ذ 108155
▁3. 108117
لان 108075
千年 108037
或者 108001
工具 107988
卖 107971
وان 107969
换 107881
完 107876
感谢 107696
▁كانت 107682
渡 107668
ده 107647
够 107624
了一个 107591
还是 107529
辩 107525
▁حكوم 107477
فة 107236
31 107208
从而 107122
重要的 107114
贝 107025
疑 107014
生物 106987
活 106975
滋病 106962
都是 106847
自然 106825
起来 106780
▁بالأ 106718
普 106620
▁然而 106605
有的 106340
姆 106340
学校 106188
某 106158
展 106013
认识 105826
不可 105779
疗 105651
紧 105504
叙 105467
▁نحو 105438
的影响 105271
▁• 105248
解释 105192
▁لن 105135
26 105104
▁بنا 104852
22 104754
23 104606
ظام 104527
的能力 104502
晚 104496
余 104227
أن 104198
外交 104149
欢 104135
税 104064
▁28 104061
▁الذين 104059
▁بن 104038
另 104025
宗教 103962
7. 103935
九 103885
لق 103880
耳 103837
▁قبل 103835
核武器 103781
▁يع 103737
▁مد 103646
游 103642
声 103575
尊重 103559
نى 103526
经常 103503
捐助 103478
球 103436
超过 103381
▁还 103299
也是 103291
كتب 103279
访问 103276
▁جه 103212
埃 103041
感到 102648
▁26 102606
更加 102566
滋 102565
民族 102481
改变 102475
▁لقد 102469
执行情况 102461
反对 102455
▁عملي 102449
▁تك 102307
贡献 102279
بال 102232
创造 102009
尤其是 101910
不断 101737
▁مثل 101672
▁يش 101648
28 101609
▁دور 101594
逐 101569
沃 101510
海洋 101492
福 101473
望 101422
لام 101216
▁ور 101166
双 101121
▁قانون 101097
拥有 101048
召 100779
是一 100698
鉴 100639
确认 100634
▁تب 100382
示 100376
却 100229
研 100229
▁؟ 99980
6. 99915
允许 99904
防 99844
保留 99745
退 99387
▁27 99355
显 99293
详 99234
2008 99196
族 99181
00 99162
停 99142
设备 99064
▁الحق 99062
来的 98840
省 98831
▁الآن 98798
白 98756
بل 98519
إن 98499
互 98375
▁عم 98370
رق 98266
星 98250
进入 98227
希 98168
▁تكون 98155
له 98064
▁فيه 98016
波 97895
▁سب 97735
国际法 97560
容 97554
دها 97539
▁دون 97521
能源 97469
败 97198
ذه 97194
东西 97172
▁للب 97164
▁ث 97129
مم 97049
2006 96929
州 96888
当地 96757
电子 96718
اسب 96665
عيد 96643
▁مكتب 96603
国的 96518
يدة 96505
跨 96501
▁4. 96388
لع 96322
27 96291
册 96229
半 96213
股 96172
阿富汗 96156
2010 96015
草 95914
5. 95898
دية 95728
美洲 95616
واد 95478
规模 95341
▁حيث 95244
端 95239
الية 95209
重大 95136
ويل 95088
并在 95082
4. 95067
كام 94966
化的 94929
声明 94913
2001 94879
ورت 94856
جز 94732
申请 94673
的主 94627
显示 94611
وت 94411
兵 94364
证明 94331
▁... 94292
▁ر 94290
ئي 94141
عين 94107
票 94061
▁بشكل 93954
贸 93946
1) 93944
另一 93937
▁طريق 93837
▁القد 93825
اعت 93728
基于 93657
德国 93622
▁هل 93560
盖 93525
طقة 93508
伊斯 93464
组织和 93407
概 93373
育 93320
2007 93279
然 93278
2004 93225
▁ه 93207
杂 93201
斯坦 93185
تاج 93180
2009 93146
▁الأن 92924
的方式 92911
ابع 92898
راط 92886
▁حتى 92833
▁زي 92639
▁جمهور 92637
▁这是 92610
战争 92592
2002 92551
▁好 92544
令人 92542
申 92517
ضع 92464
▁تر 92417
▁29 92295
▁وغير 92288
录 92277
رخ 92159
乐 92158
压 92084
女性 92021
▁لها 92011
旅 91861
2003 91715
▁موا 91585
▁وهي 91563
顿 91544
缺乏 91531
الث 91336
酷 91251
交易 91246
▁最 91195
相信 91172
午 91149
列入 90949
山 90873
▁استخدام 90851
神 90802
成立 90788
▁اعت 90761
贫穷 90607
市 90593
移民 90527
式 90496
紧急 90478
具 90421
▁يح 90407
رج 90397
最大 90376
设计 90230
وو 90207
داء 90178
▁ز 90044
告 89985
通过的 89946
拘留 89868
一起 89813
靠 89779
斗 89751
青年 89619
理由 89550
دت 89546
如此 89465
امات 89447
行的 89411
水平 89362
▁انت 89258
▁(200 89252
▁, 89052
▁مك 89028
日在 88936
废 88926
سمبر 88894
▁اجتما 88871
力的 88870
1999 88838
9. 88783
历 88742
▁5. 88699
فل 88568
رح 88557
▁مشار 88548
衡 88161
每个 88148
亲 88137
手段 87973
币 87863
50 87861
▁يا 87797
满足 87769
热 87751
▁المق 87721
光 87703
吃 87664
传统 87641
' 87540
管制 87506
优 87433
▁الوقت 87420
l 87397
▁نظام 87393
雇 87140
▁2013 87135
还有 86995
给予 86949
يفة 86852
反映 86817
念 86796
练 86704
的时候 86387
日本 86381
生的 86354
▁يجب 86336
词 86316
星期 86263
سبة 86090
.. 86081
8. 85999
分配 85976
▁: 85938
达到 85934
ارت 85859
殖 85808
世 85795
宣布 85777
何 85735
▁، 85636
促 85619
麦 85600
▁أنا 85450
陆 85434
用的 85404
架 85341
▁تض 85316
▁لك 85298
下的 85140
▁本 85021
▁لدى 84846
的情况下 84778
▁人 84758
精神 84756
رها 84682
▁الول 84616
最高 84595
ودة 84398
▁وين 84076
40 83974
森林 83968
并不 83954
▁与 83829
首脑会议 83827
工程 83811
▁أس 83798
伊朗 83788
法国 83738
储 83730
必 83653
五十 83493
龄 83488
捐 83424
▁الأش 83417
خص 83413
剥 83322
ستان 83280
29 83198
ناق 82967
s 82893
▁النساء 82762
婚 82705
رك 82702
来源 82657
受害者 82636
探 82620
سر 82555
بع 82519
ليل 82477
▁المص 82415
جع 82400
外国 82257
踪 82214
灵 82153
جر 82133
通知 82044
王国 82008
学习 81857
提到 81754
ذا 81742
▁1999 81696
时候 81638
嫩 81622
عداد 81621
志 81616
▁النظر 81606
▁المب 81590
百 81541
找到 81535
再次 81517
فا 81508
▁والد 81382
丁 81373
发表 81340
叫 81325
شك 81193
占领 81137
媒体 81102
勤 81061
属于 81038
一份 81007
三个 80972
台 80936
عه 80904
خط 80886
2011 80873
▁حد 80871
غل 80868
财产 80786
زام 80750
船 80726
莱 80626
突 80580
少数 80573
اته 80463
恶 80398
▁当 80382
恐 80363
障 80347
▁التص 80291
▁مص 80245
▁بي 80238
▁6. 80221
洲 80211
▁قض 80134
曼 80127
▁الأح 80014
[ 80002
售 79986
有人 79874
交流 79819
فس 79781
▁تف 79718
▁同 79659
▁وهو 79511
▁مق 79410
وري 79406
若干 79241
蒙 79142
团体 79100
طر 79099
俄 78930
رس 78881
▁حالة 78826
جب 78689
朋友 78676
酒 78572
身份 78551
راج 78478
片 78418
صر 78369
应用 78287
智 78285
▁السابق 78251
绩 78201
ريمة 78189
大量 78181
相互 78181
收集 78141
花 78138
ينة 78112
诺 78094
奇 78029
识 78009
澳 77948
▁المخ 77916
异 77881
演 77802
▁تص 77799
拜 77776
▁بالإ 77719
▁شب 77699
担任 77687
▁الصح 77622
核心 77594
几个 77581
十年 77548
童 77473
الح 77436
مين 77408
避免 77405
化学 77375
▁就 77292
▁وث 77190
▁مما 77189
狱 77134
提案 77073
▁وه 77000
骤 76883
断 76870
▁ين 76841
▁إلي 76838
截 76823
术 76800
作的 76775
▁منذ 76770
眼 76750
▁نق 76734
▁أث 76698
读 76542
,200 76497
削 76450
طق 76430
生命 76041
毁 76041
启 75994
صول 75992
馆 75988
纽约 75852
زة 75710
طل 75605
2012 75595
اش 75595
اعد 75490
归 75488
染 75480
真正 75421
纪 75395
يني 75360
弱 75197
射 75136
000 75044
页 75013
▁النه 74990
诸 74979
最终 74962
0. 74925
سن 74909
误 74900
不得 74842
精 74745
▁الأخ 74731
历史 74707
徙 74696
否 74679
账 74670
不知道 74659
آ 74628
▁مرا 74589
▁从 74579
▁50 74572
دات 74543
透明 74460
理解 74399
通信 74390
尤其 74300
脱 74289
▁7. 74255
جان 74232
数字 74167
加以 74037
▁主 74003
另外 73969
لد 73962
▁وط 73893
p 73876
▁قدر 73850
爸 73812
▁للإ 73808
地点 73710
破 73625
批 73620
▁جدول 73614
ذي 73564
▁الأص 73561
人和 73481
▁فعال 73472
航 73412
网站 73351
贷 73269
才能 73180
修正 73100
尚未 73080
治疗 73016
首先 72882
然后 72881
▁الجز 72853
» 72837
谨 72833
最佳 72728
كا 72680
系列 72662
وال 72611
敦促 72599
趋 72569
▁وتن 72551
帮 72549
特殊 72521
▁先生 72502
配 72435
替 72427
1998 72404
▁خ 72373
灾 72348
油 72330
甚至 72330
恩 72197
借 72195
各国政府 72171
▁حز 72107
▁وجود 72038
امت 72005
枪 71933
▁حال 71907
فاع 71893
破坏 71839
离开 71825
拒 71685
不要 71664
▁لمن 71663
直 71638
弃 71586
隆 71586
▁نظ 71540
世纪 71533
怀 71461
执 71458
以上 71371
行动纲 71322
b 71311
▁ليس 71291
源 71246
▁توص 71240
عمل 71217
迟 71077
传播 70975
以前 70860
至少 70775
趣 70722
▁تؤ 70614
▁مختلف 70585
超 70530
▁تست 70458
راس 70450
يار 70422
她们 70283
妇 70239
▁اتخاذ 70235
所以 70220
女孩 70211
社 70153
剧 70143
– 69997
▁طلب 69839
厄 69835
قام 69824
全体 69747
بان 69740
体制 69685
追 69664
菲 69634
短 69610
ارة 69597
贴 69550
帝 69526
▁لي 69299
撤 69257
وني 69235
كين 69189
▁آخر 69187
يئ 69157
急 69035
比例 68999
60 68942
固 68922
真的 68890
▁200 68838
ضح 68775
脑 68769
سات 68743
毛 68632
参 68607
闭 68563
▁إنه 68560
辖 68550
ائق 68524
墨西哥 68486
▁حالات 68479
出版 68406
▁هنا 68393
罚 68317
▁قائ 68301
融 68282
语言 68193
ــ 68151
国民 68150
روس 68137
كد 68127
▁يج 68097
▁جانب 68032
概念 67975
خصص 67950
2) 67876
روف 67866
▁لو 67843
▁در 67754
暂 67748
这里 67705
休 67611
袭 67605
认识到 67604
▁أنت 67549
▁معلومات 67542
莫 67508
一名 67451
模式 67439
▁مجموعة 67413
华 67277
▁مرك 67275
▁فريق 67245
套 67138
▁رقم 67124
▁استع 67034
ثال 66933
▁40 66846
观点 66838
善 66826
玩 66813
جموع 66770
行为的 66760
▁8. 66757
定义 66631
十分 66566
成本 66564
易 66526
一定 66522
微 66456
也不 66419
朝 66415
不足 66414
自愿 66389
واعد 66386
红 66306
出来 66155
ينا 66149
▁بغ 66141
缓 66139
荷 66128
站 66056
قار 65959
污 65944
服 65932
通常 65874
公平 65836
قال 65830
旦 65784
▁والا 65767
راع 65762
طفال 65743
范围内 65603
讼 65513
▁تز 65503
邀请 65474
كس 65458
به 65448
ذك 65440
激 65385
▁للح 65367
忘 65361
麻 65340
▁وظ 65308
济 65300
مكان 65272
不同的 65249
良 65214
力量 65184
腐 65164
反应 65012
石 65012
距 64964
支出 64904
的一部分 64894
疾病 64854
孕 64846
▁نم 64829
▁وإن 64823
ضر 64806
钟 64776
▁توا 64694
▁الأس 64690
▁كذلك 64667
大多数 64618
ترك 64595
▁منط 64550
ساب 64470
样的 64448
▁2014 64408
恐怖 64362
▁ود 64342
径 64304
غم 64170
赛 64167
意味 64061
▁وص 64058
▁قط 64024
سته 63905
城 63863
审判 63808
▁حق 63799
▁وز 63720
男 63715
جد 63696
埃及 63650
▁لأن 63617
اة 63576
▁بيان 63506
遭受 63418
的话 63394
公正 63379
ثق 63374
森 63357
瓜 63329
迅速 63273
▁وما 63217
▁وش 63176
▁أق 63158
صف 63141
بات 63094
ارا 63032
ريف 62971
任命 62880
▁إلا 62876
罗马 62874
料 62863
景 62840
▁حما 62828
大利 62720
昂 62669
▁33 62656
伯 62631
▁سن 62594
▁الا 62572
无论 62556
独 62542
始 62529
含 62522
宝 62438
▁خدمات 62400
ليا 62344
男女 62249
فاء 62249
▁بالنسبة 62190
▁فقد 62172
وسط 62147
类似 62144
▁لب 62097
▁9. 62047
3) 61985
有利 61897
▁الطب 61860
فض 61797
▁请 61766
ثير 61739
ذار 61720
2013 61535
制裁 61440
夺 61373
▁يتم 61371
▁تخ 61235
« 61211
▁لد 61198
伙 61170
▁60 61169
▁الأمر 61164
غير 61153
▁يؤ 61037
اعات 60894
حص 60891
想要 60859
特定 60781
奖 60778
راك 60764
لات 60725
▁عند 60628
سلام 60547
千 60473
▁أول 60461
▁1998 60439
▁ولكن 60424
d 60339
有一个 60322
خدم 60319
唯一 60247
▁100 60222
▁إس 60218
4) 60156
▁استرات 60088
▁حفظ 60067
▁إح 60026
毕 59960
اكل 59939
桑 59932
قط 59928
驱 59906
烈 59883
援 59876
季 59856
▁اليوم 59845
وقع 59832
灾害 59792
▁بق 59745
▁例如 59712
讯 59707
اذ 59703
洗 59670
人都 59587
聘 59526
拨 59466
薪 59441
▁这个 59374
ارات 59315
泰 59266
▁34 59182
平均 59146
惯 59059
速 59033
ظيم 59009
社会的 58885
兹 58839
ضة 58809
كون 58798
守 58794
ادات 58737
▁فقط 58714
-2 58699
意识 58598
之外 58589
既 58562
▁الحصول 58535
青 58528
似乎 58518
有些 58515
座 58442
一年 58400
辆 58376
攻击 58369
频 58194
باب 58020
▁نش 58019
行使 58010
多数 57999
分子 57976
人在 57946
▁وض 57943
-200 57896
با 57877
有限 57861
لاث 57855
押 57839
印 57756
施 57711
▁所以 57646
▁أحد 57629
巴西 57612
▁مليون 57594
怕 57589
磋 57502
▁مب 57501
", 57456
يتها 57384
鱼 57374
廷 57370
受害 57355
▁بحق 57316
▁مف 57308
▁وقت 57266
背景 57248
停止 57216
▁10. 57187
几乎 57043
▁أد 56998
▁عندما 56896
▁الجديدة 56880
园 56875
合法 56874
店 56870
双方 56869
轮 56864
引起 56860
▁أنها 56830
汶 56828
▁أص 56757
做的 56749
旺 56675
第一次 56625
本身 56617
5) 56452
دل 56428
غان 56421
肯 56413
بدأ 56406
الب 56354
扬 56348
鲜 56262
▁الذ 56220
党 56208
▁36 56204
شد 56192
▁因为 56170
吸 56113
▁قي 56089
虐待 55998
环 55987
اخت 55951
▁也 55934
▁37 55918
وبر 55917
少年 55872
英国 55866
清楚 55860
有可能 55808
谋 55793
▁ضمان 55782
血 55742
择 55730
▁الجنس 55718
掉 55635
围 55595
▁الخط 55594
اص 55589
▁يس 55579
释 55467
礼 55462
▁وكان 55456
زاء 55446
اور 55344
▁هم 55334
بح 55191
撒 55149
赫 55140
单位 55121
-1 55101
▁35 55098
غو 55072
居民 55035
她的 55033
蒂 55015
软 54964
هن 54917
建筑 54896
خاب 54840
▁45 54838
根本 54814
赞赏 54799
最新 54736
▁الشرطة 54633
途 54583
70 54447
▁برام 54420
且 54415
ستخدام 54413
يها 54405
灭 54401
ضية 54379
招 54291
▁除 54225
▁نه 54209
كي 54183
199 54082
体系 54066
评论 53969
在这方面 53921
赖 53917
相当 53912
▁قر 53910
阻 53885
ساء 53874
缩 53852
六十 53852
قب 53847
全部 53841
▁يوم 53840
友 53761
▁جديدة 53745
净 53695
津 53645
我要 53611
▁وجه 53596
رز 53594
▁المرك 53563
▁而 53526
/3 53454
100 53448
وضع 53442
▁شخص 53415
▁每 53393
▁39 53343
▁ضرور 53293
合理 53292
▁فر 53283
游戏 53272
f 53253
宾 53160
▁الأولى 53157
原子 53156
احت 53087
出席 53055
فظ 53045
用户 53041
اطر 52995
▁() 52973
温 52937
▁ظ 52897
抵 52795
▁你们 52791
的地方 52787
رائي 52785
接触 52781
▁目 52756
▁.. 52714
دور 52697
▁النا 52672
的重要性 52652
▁الوا 52643
码 52614
▁لش 52606
敌 52584
堡 52565
博 52561
笑 52531
积 52500
裔 52486
容易 52438
▁أش 52432
▁32 52429
ريا 52419
颁 52364
抗 52339
投票 52316
的大 52305
▁نفس 52145
挪 52073
ترة 52017
▁وتم 51903
计算 51851
侵害 51826
▁11. 51790
▁قو 51787
命 51780
حب 51765
▁محد 51745
时期 51729
丽 51704
官方 51699
▁بسبب 51691
封 51690
▁يد 51689
心理 51664
▁ارت 51661
它的 51654
سه 51650
明显 51610
那里 51604
▁تحت 51588
▁38 51570
▁55 51543
صة 51517
نون 51460
لاف 51455
رتب 51453
▁عق 51338
翻 51313
发布 51302
▁نز 51267
杰 51250
播 51192
技能 51174
更新 51078
译 51047
▁بش 51047
▁بب 50943
考 50929
طي 50883
皮 50864
捕 50786
地注意到 50698
贵 50694
十二 50646
祝 50645
▁أفضل 50613
背 50596
ائج 50500
束 50485
حي 50423
▁12. 50302
جود 50278
▁正 50257
امي 50256
عال 50254
遣 50239
▁أج 50222
اهم 50134
▁要 50131
يث 50111
1997 50102
▁تقوم 50048
量的 50033
穿 50029
随后 50002
的那 49993
依照 49956
请秘书长 49696
▁自 49670
ريل 49653
ْ 49650
摊 49603
素 49592
许可 49580
刻 49521
راز 49490
200 49475
▁ته 49409
▁我想 49395
غيير 49382
▁إي 49365
اجة 49315
▁يم 49283
ئين 49223
楼 49195
▁مز 49187
须 49105
巴基斯坦 49087
ابت 49084
▁الطفل 49025
▁حسب 49023
ادت 49011
圭 48951
韩 48947
غة 48936
王 48910
بد 48910
针 48851
抱 48694
ذكر 48676
▁فض 48583
最低 48582
以外 48572
▁ثم 48439
ريك 48405
▁b 48354
وء 48354
▁كف 48334
لط 48323
وث 48316
研究所 48218
里的 48200
ولو 48199
▁تكن 48166
集中 48154
طور 48121
息 48101
醒 48101
当事 48080
▁لكن 48055
笔 48019
男子 47981
攸 47913
0 47904
.1 47879
▁عل 47859
妨 47841
相同 47829
大使 47826
彻 47756
▁48 47750
大家 47670
幸 47665
ائر 47618
▁يق 47588
▁منع 47584
جو 47539
-3 47472
▁ترك 47453
校 47430
▁وات 47360
صال 47338
坦 47290
餐 47276
▁上 47275
لاء 47265
اسي 47262
脆弱 47060
河 47049
قى 47042
% 47022
قص 47016
90 47009
▁将 46983
تمام 46981
▁安 46978
يين 46978
石油 46908
块 46891
حر 46865
系 46846
露 46844
中央 46817
扰 46814
络 46793
都有 46780
هد 46776
便利 46732
▁رس 46684
▁كبير 46661
9) 46647
▁42 46597
▁اعتماد 46587
各自 46586
▁كيف 46583
惊 46569
80 46559
ناول 46492
略 46461
剂 46459
爆炸 46457
掌 46425
赋 46415
لقة 46368
潜 46347
慢 46341
▁13. 46319
顺 46296
▁منت 46289
阅 46257
▁其 46247
▁تنظيم 46213
* 46143
▁ولم 46134
食物 46125
▁الحال 46125
敦 46117
弗 46103
荒 46081
旅行 46030
判决 46023
屿 46011
年以来 46008
形成 46005
▁أت 45911
جال 45896
序 45887
享受 45838
قبل 45801
逮捕 45798
坏 45781
▁44 45775
我是 45751
镇 45720
所有的 45718
/6 45694
不利 45683
برا 45683
咨 45668
商品 45663
يدان 45658
▁مقد 45655
邻 45629
▁أمام 45627
包含 45472
▁شر 45398
▁43 45393
▁今 45327
-4 45324
正常 45297
父母 45281
现代 45190
矿 45111
▁14. 45100
عر 45068
国籍 45061
租 45032
陷 45019
乱 44966
تى 44960
وبة 44935
偏 44914
%, 44892
太平洋 44869
2/ 44867
角 44859
▁c 44859
递 44846
▁جدا 44745
身体 44657
学院 44648
阁 44621
仲 44573
▁كنت 44573
▁حين 44570
逃 44545
▁داخل 44536
武 44529
▁إليه 44520
惠 44492
35 44490
邮 44421
ركة 44417
▁أقل 44414
我想 44409
▁تط 44396
2015 44375
放在 44363
阐 44347
▁التر 44345
荣 44334
分享 44288
▁46 44283
不再 44280
وذ 44278
▁أكبر 44220
▁54 44219
▁57 44218
عبة 44144
坐 44127
▁منه 44104
大部分 44080
践 43973
يسي 43924
访 43896
瑞典 43890
7) 43832
▁لما 43759
地球 43754
汽 43733
ودان 43730
عى 43693
▁56 43624
徒 43619
仇 43568
母亲 43550
m 43538
ادا 43535
渔 43520
2014 43469
▁女 43458
▁2- 43435
憾 43352
▁خارج 43307
▁نوع 43273
▁يست 43266
航空 43264
▁شامل 43262
卷 43254
喀 43233
兼 43168
外部 43161
▁49 43132
▁47 43126
يمكن 43121
▁كبيرة 43114
نو 43081
症 43038
ستن 43034
隔 43025
居住 43020
倒 42993
نز 42989
▁حسنا 42972
▁阿 42942
▁00 42833
▁للس 42795
巨 42780
句 42731
▁如果你 42709
رائيل 42709
缴 42705
▁أخ 42689
فه 42676
宗 42614
意思 42547
▁أه 42507
▁سوف 42500
▁新 42483
▁所有 42478
لاه 42464
南部 42453
全世界 42421
▁جديد 42401
玛 42374
年代 42364
▁عبر 42357
x 42350
▁1- 42333
人士 42319
当时 42287
▁15. 42286
胜 42269
▁小 42239
肯定 42238
漠 42207
▁حول 42198
地的 42197
遭到 42193
8) 42181
ئل 42161
"، 42148
حدة 42148
贯 42140
راح 42119
e 42077
عو 42029
木 41949
▁我的 41944
▁الصغيرة 41939
道路 41916
قاط 41899
▁وست 41884
普通 41880
妈 41819
父亲 41797
基地 41782
迈 41775
倍 41772
▁جنوب 41725
لاق 41717
▁وزار 41714
滥 41687
腊 41685
شي 41679
诚 41656
▁بذلك 41656
不可能 41646
نان 41630
杜 41610
▁وخ 41609
▁باست 41600
▁شيء 41581
▁أما 41563
45 41539
add 41536
戈 41518
▁نتائج 41489
▁مخ 41453
▁2015 41449
▁واحد 41448
▁نفسه 41408
共同体 41407
帐 41401
▁رأ 41397
幕 41368
▁هام 41313
/4 41297
饮 41252
طن 41239
قان 41213
▁الموضوع 41207
冰 41189
▁عش 41186
宜 41181
电视 41172
6) 41150
▁1997 41107
▁جي 41085
舞 41037
和解 40991
物的 40986
浦 40959
▁للع 40878
科技 40870
投入 40859
يلة 40776
军队 40775
可能性 40768
▁16. 40759
穷 40746
不受 40729
板 40711
▁فإ 40675
شف 40644
يرا 40639
依然 40620
تو 40612
盘 40607
أس 40595
默 40593
جا 40570
كو 40554
暴 40534
▁53 40518
▁سنوات 40510
年前 40500
模 40493
若 40492
▁下 40483
افي 40435
藏 40376
悉 40352
); 40344
▁41 40339
洁 40330
اما 40305
指示 40297
▁وسي 40297
佛 40270
▁59 40230
▁我要 40198
▁بك 40188
静 40177
عون 40138
母 40137
玻 40123
رم 40121
ليق 40080
状态 40078
波斯 40053
زي 40027
感染 40004
零 39972
ريد 39947
什 39916
▁اح 39898
继 39875
▁واحدة 39859
高度 39853
▁如 39846
▁看 39827
قات 39814
▁ماذا 39782
▁القيام 39777
帕 39774
期限 39748
函 39713
جيل 39657
是一种 39640
ستخدم 39632
怪 39586
▁لص 39532
ضا 39488
拖 39477
思 39459
/1 39432
询 39425
侵 39419
▁عد 39417
稿 39402
غذ 39386
عار 39276
也有 39258
▁أك 39256
▁法 39235
而是 39219
阳 39195
▁سأ 39181
堂 39127
▁全 39105
زال 39080
▁(1) 39005
夜 38962
以为 38930
侧 38747
的事情 38722
▁حل 38701
▁可 38699
▁65 38683
وه 38657
7- 38642
恤 38625
永远 38609
ماس 38593
الا 38589
法案 38585
▁17. 38550
典 38497
ستر 38488
容忍 38467
艺术 38458
信仰 38453
واء 38441
梅 38434
松 38367
قاب 38319
动物 38314
电影 38276
孩 38273
平台 38265
▁وعد 38241
喝 38232
方向 38208
اره 38203
今年 38178
命令 38142
نص 38129
在一起 38114
疆 38109
酌情 38089
惩罚 38088
▁العديد 38082
▁/ 38055
دود 37976
实的 37967
ُّ 37961
▁واس 37953
隐 37887
故事 37880
8/ 37851
حث 37830
潜在 37814
▁قدم 37805
77 37799
繁 37797
دن 37779
▁18. 37725
▁مر 37690
指定 37680
1996 37676
同一 37630
良好 37618
▁然后 37617
حن 37610
▁شه 37588
كار 37579
迄 37544
65 37538
葡萄 37527
يغ 37499
ليز 37425
多少 37423
دير 37420
去了 37335
街 37316
▁ضمن 37288
扎 37252
▁عرض 37246
冷 37207
▁3- 37199
厂 37170
▁الخارج 37130
功能 37123
陈 37120
世界上 37096
姐 37092
氧 37089
耗 37077
遭 37061
▁سنة 37037
燃料 37023
حال 37006
事情 36995
▁مل 36956
▁إذ 36948
秘 36936
档 36913
凯 36895
▁! 36850
直到 36789
حاب 36736
沿 36726
捷 36721
▁نف 36717
伐 36693
▁لكي 36663
涵 36647
他在 36617
▁أب 36612
500 36576
سال 36573
33 36548
即使 36523
派遣 36506
g 36497
歉 36495
▁ير 36488
ٍ 36475
解除 36454
谅 36437
▁وان 36437
▁19. 36410
▁لات 36397
▁مه 36373
▁الوح 36355
34 36287
▁كم 36258
الغ 36258
树 36248
▁نهاية 36244
1- 36236
梦 36220
▁1996 36203
面前 36191
男性 36134
旧 36122
烟 36098
▁معاه 36080
谴 36075
▁1995 36072
宽 36062
▁الشخص 36057
消息 36023
▁لذلك 36022
لمان 36021
碳 35971
▁ألا 35971
哦 35942
成就 35915
尊 35906
لاج 35901
死刑 35894
音 35856
搜 35817
اتي 35809
位置 35764
丧 35758
▁مرة 35743
歌 35723
داد 35717
يمي 35690
基督 35685
韦 35585
国防 35562
▁各 35555
的生活 35548
▁جز 35538
挥 35503
混合 35474
▁المط 35436
中有 35417
▁52 35336
▁51 35334
康 35329
炸 35310
▁61 35296
港 35275
▁第二 35265
被告 35239
睡 35238
的名 35210
ذل 35198
-5 35187
冲 35141
民众 35125
用途 35116
谓 35100
أت 35070
铁 35065
▁فرص 35044
苦 35043
当然 35029
庇 35010
链 34997
2- 34996
▁آب 34989
约翰 34987
跑 34952
▁مجموع 34920
诊 34890
缅 34850
▁نص 34804
辅 34781
阻止 34762
婚姻 34760
蛋 34755
▁المل 34747
▁政府 34715
كرة 34666
▁20. 34624
يمة 34622
▁来 34621
جاه 34615
他说 34609
▁يو 34581
雅 34567
▁رسم 34562
▁事 34506
واج 34484
1995 34464
穆 34458
36 34448
وقف 34445
所有国家 34421
قاء 34410
▁عنها 34401
▁لهذا 34384
75 34382
阵 34381
cn 34356
7/ 34332
篇 34323
甸 34283
聚 34192
فقة 34188
剩 34141
辱 34102
▁21. 34053
▁(199 34030
朗 34025
是由 34019
尚 34008
1990 33929
拍 33925
▁موضوع 33921
籍 33908
▁الأرض 33903
览 33822
上帝 33815
食品 33807
▁مال 33779
▁يقوم 33775
▁قب 33765
抓 33760
خلي 33758
▁قال 33748
▁63 33736
▁وهذا 33731
ظة 33724
吸引 33722
故 33715
儿子 33714
ايد 33700
宁 33697
37 33670
版 33593
:" 33582
覆 33577
▁لكل 33549
妈妈 33540
▁70 33539
位于 33484
偷 33447
▁بالح 33425
طلاق 33419
▁0 33409
▁الحياة 33368
بين 33367
جام 33354
لول 33341
▁عشر 33318
累 33226
▁اقت 33224
件事 33221
حدث 33215
ضم 33212
ـــ 33181
期待 33168
▁58 33164
角度 33147
شم 33099
之中 33098
波兰 33079
画 33063
▁لاح 33058
▁64 33031
速度 33006
▁500 32966
39 32955
▁مي 32883
ماني 32868
代理 32791
67 32789
▁كاف 32779
▁巴 32769
址 32763
ماء 32706
جاد 32695
▁الظ 32683
芬兰 32644
رائ 32641
▁三 32602
孟 32590
▁آس 32590
缘 32583
床 32573
一位 32482
摄 32434
▁الساعة 32413
▁رف 32402
忽 32383
忙 32322
▁بار 32317
▁e 32295
避 32289
مون 32255
交通 32249
后来 32234
64 32232
▁22. 32195
变成 32176
44 32172
赢 32159
亮 32118
我就 32096
坡 32075
一体 32054
▁رو 32031
回答 32028
不在 32007
▁نتي 31987
人道 31966
▁66 31939
圆 31920
史 31919
想法 31899
غام 31873
▁أرب 31856
▁بات 31811
▁فى 31795
秘书 31777
盛 31760
▁صاحب 31704
用来 31684
似 31676
辑 31671
丰 31603
1/ 31587
桌 31572
成了 31562
زع 31552
例子 31550
▁أمر 31527
▁国家 31505
谷 31484
耶 31440
ريت 31381
▁أود 31363
锁 31337
▁80 31328
▁المدر 31299
▁ألف 31295
3/ 31275
囚 31208
兄弟 31200
لوك 31179
▁احت 31145
婴 31142
▁23. 31139
纸 31090
渐 30983
之下 30960
ارن 30949
折 30918
箱 30870
48 30849
脚 30822
计算机 30818
泊 30814
巩 30811
删 30810
متع 30801
الإ 30794
▁而且 30758
吁请 30746
مث 30733
صاب 30696
▁77 30691
▁把 30669
ديدة 30665
甲 30624
▁نيو 30611
倾 30596
茨 30562
طو 30562
▁كامل 30547
▁جن 30526
▁加 30491
奸 30441
革 30419
اغ 30397
غا 30358
所在 30354
迁 30344
▁لق 30324
斯特 30316
毫无 30300
绿 30289
怎样 30275
▁بالق 30232
域 30198
▁مكان 30196
أي 30191
▁24. 30189
透 30185
▁شؤ 30175
▁بالا 30173
建造 30172
沉 30165
女人 30154
拥 30149
世界各地 30129
▁صندوق 30124
搞 30109
▁المزيد 30105
乔 30098
你可以 30088
▁إل 30081
爆 30078
摆 30078
3- 30059
牛 30056
制作 30045
الج 30026
役 30024
▁جزء 30019
豁 30015
地理 29989
▁(2) 29927
▁4- 29925
牌 29905
辞 29903
他是 29899
نظ 29880
理论 29875
耶路撒冷 29839
يته 29832
巨大 29824
خصوص 29817
99 29747
忆 29743
▁تعمل 29734
▁الآخر 29712
▁واضح 29680
敏感 29671
照片 29663
▁ولك 29657
附近 29622
狗 29589
毁灭 29584
墙 29583
而不 29582
ارف 29581
▁بأنه 29567
出生 29544
تين 29542
主流 29481
عتقد 29472
叛 29458
▁لر 29448
اريخ 29415
▁عالم 29400
6- 29355
影 29334
百万 29323
解放 29322
▁25. 29305
周期 29302
▁s 29297
▁نقل 29290
v 29285
▁安全 29274
▁بط 29263
▁当然 29251
غال 29245
▁نحن 29193
38 29099
痛苦 29073
تل 29069
32 29055
前往 29054
علم 29051
▁المهم 29046
缔 29038
▁真 29001
自治 28996
▁其中 28962
毫 28954
خر 28944
澄 28939
قوب 28925
▁بالغ 28921
▁بالن 28901
▁صح 28900
73 28877
,199 28876
填 28792
肉 28791
鼓 28788
▁مباشرة 28752
握 28745
ولا 28710
w 28707
▁世界 28685
音乐 28678
▁نعم 28648
扫 28645
▁二 28642
自我 28637
▁انظر 28630
出去 28603
博士 28602
忍 28596
خب 28593
岸 28570
混 28542
▁26. 28518
伴 28501
/2 28465
二十 28439
▁مرح 28424
你说 28420
▁جمع 28402
丝 28375
共有 28369
خاذ 28359
如果你 28353
他们在 28336
北部 28321
▁بهذا 28321
逻 28310
大幅 28293
ماع 28263
ساد 28256
▁75 28214
政党 28212
盗 28212
49 28209
小型 28208
دون 28183
赶 28170
▁فع 28128
▁90 28119
زيد 28113
娜 28106
بير 28104
▁ثلاثة 28095
▁لمس 28090
▁الي 28082
颠 28081
欠 28061
患 28041
▁مراج 28006
恰 27993
▁للر 27971
تاح 27949
واع 27939
دين 27897
赠 27855
▁وقال 27853
男人 27831
▁他说 27823
痛 27820
除非 27802
▁بان 27789
淫 27746
佩 27725
浪 27721
ظات 27713
▁عنه 27710
قف 27658
مى 27650
▁至 27641
▁27. 27616
鬼 27597
能的 27557
6/ 27557
的一切 27554
齐 27550
ران 27530
▁وسلم 27517
非政府 27516
死了 27513
▁多 27459
ئيس 27454
自身 27435
高等 27426
▁d 27399
奴 27389
伍 27386
虚 27374
参考 27373
اند 27370
▁موارد 27352
万人 27338
نب 27331
秩序 27325
مول 27271
▁اخت 27262
▁1994 27250
烧 27241
▁الأك 27240
ترف 27220
声音 27195
▁سو 27184
弄 27182
明白 27153
饭 27126
▁كور 27115
جات 27110
▁1990 27095
▁بالفعل 27091
▁بول 27087
نظر 27083
▁اه 27054
ميم 27040
مك 27031
忧 27013
角色 27012
▁ـ 27011
野 27010
曲 26999
舍 26979
ابان 26978
▁نس 26977
要素 26970
扣 26913
▁نت 26894
▁ورد 26873
烦 26870
操作 26853
▁مهم 26851
顶 26836
▁واح 26822
▁5- 26818
饿 26815
بادل 26815
سو 26813
摘 26776
凡 26770
▁الحرب 26766
▁نظم 26760
ئد 26747
▁28. 26741
▁الجديد 26727
▁طرف 26699
排除 26673
▁يعت 26643
最初 26629
▁مناسب 26611
وبا 26583
باش 26572
4- 26556
纠 26551
棒 26549
描述 26544
汉 26542
1994 26499
") 26499
妹 26498
克服 26498
صب 26444
▁中 26443
回到 26442
亡 26436
沟 26433
واب 26406
انت 26406
失去 26390
际 26367
熟 26363
▁68 26331
▁الماضي 26329
植 26307
▁ليست 26280
▁لهم 26258
سمح 26235
▁سواء 26177
响 26166
钻 26156
乡 26139
赤 26110
▁واج 26075
▁الناس 26069
戴 26058
委员 26055
欣 26021
▁لج 26020
在那里 26016
妻子 26003
تان 26003
ئت 26002
▁行 25983
末 25975
绑 25964
欺 25947
صاف 25938
短期 25926
▁يص 25900
卜 25884
嫌 25884
صرف 25873
ئر 25861
يلي 25837
4/ 25828
▁إنها 25820
ائع 25820
▁29. 25819
▁只 25813
ونا 25812
5% 25810
بن 25810
▁منظم 25787
شه 25784
الأ 25783
يورك 25766
嘛 25761
ربي 25757
旱 25747
董 25746
9/ 25712
▁أل 25695
ديق 25690
85 25680
柬 25676
▁دار 25667
▁到 25633
癌 25629
▁مؤخ 25600
▁300 25598
莉 25581
醉 25555
比赛 25544
▁اعتبار 25542
▁يوجد 25535
▁ممكن 25524
励 25494
قول 25476
▁قيم 25443
غط 25433
思想 25407
▁شك 25376
▁مسائل 25372
然而 25368
/10 25366
患者 25362
疯 25353
يبي 25348
跳 25312
俗 25307
▁以色列 25304
仪 25303
饥 25301
لاقات 25241
▁以 25232
▁ثلاث 25230
ابي 25228
▁2005. 25225
ناز 25216
مام 25202
▁لغ 25200
疫 25182
糟 25180
▁30. 25169
装置 25165
انه 25141
امه 25141
奶 25119
募 25116
▁جلس 25104
轨 25094
胡 25089
有用 25054
▁ا 25031
寨 24981
平和 24961
ناك 24954
巡 24944
迷 24926
ترنت 24924
胎 24913
▁يب 24897
北京 24887
恨 24863
بط 24854
称为 24839
懂 24824
قدر 24791
伟 24790
黄 24770
独特 24753
▁دائ 24747
夏 24717
/8 24681
▁سيكون 24660
革命 24657
技 24621
▁31. 24617
▁توج 24608
▁يك 24581
银 24577
جمع 24574
▁يعمل 24573
骚 24562
十字 24556
زل 24539
هيل 24508
▁ني 24498
طان 24476
لاك 24473
操 24458
任意 24419
贺 24374
流行 24361
▁مقر 24351
献 24332
匈 24323
دخ 24308
▁62 24300
▁لف 24269
脏 24268
▁مناطق 24259
t 24258
早期 24231
▁0. 24197
▁مرت 24163
龙 24142
丈夫 24141
悲 24123
庆 24116
盲 24110
▁الكثير 24099
▁中国 24067
陪 24032
▁32. 24027
辛 24016
ريح 23987
▁يكن 23984
埔 23977
乍 23960
嘿 23949
旋 23903
▁去 23883
47 23876
يعة 23873
▁قام 23866
68 23843
在我 23820
5- 23815
穆斯林 23800
看见 23783
骗 23779
▁6- 23774
▁مذ 23770
▁مض 23756
功 23753
艰 23739
乘 23723
霍 23712
▁ملا 23708
秘密 23695
▁说 23693
اعة 23663
تاب 23632
عان 23621
55 23619
妥 23610
▁比 23606
生存 23606
例外 23605
材 23602
恋 23595
接近 23571
▁انته 23571
脸 23566
بول 23564
ورو 23547
r 23542
ئنا 23522
▁يل 23513
لهم 23512
▁نشر 23512
▁أط 23453
300 23452
▁和 23383
▁الواقع 23378
66 23376
▁33. 23368
碎 23367
吨 23341
教授 23338
有益 23323
遵循 23308
▁又 23307
▁بهذه 23300
幅 23298
▁نج 23263
庄 23255
你要 23250
宫 23240
▁داخ 23193
▁2008. 23192
振 23165
▁حساب 23158
▁2010. 23105
▁تماما 23098
添 23078
吓 23076
蓝 23074
循 23054
▁73 23047
▁يبدو 23036
探索 23024
▁34. 23010
京 23006
劫 22995
وخ 22987
各地 22949
8- 22928
الف 22926
▁آثار 22920
硬 22916
▁جو 22903
就可以 22901
幼 22895
味 22883
做到 22869
شهر 22858
خي 22849
▁علي 22845
挑 22844
将来 22836
理事 22836
ستم 22835
-- 22833
其他人 22817
闻 22808
▁مراق 22791
你们的 22765
▁بطريقة 22763
رتك 22750
89 22720
尝试 22717
陶 22701
细胞 22658
▁الى 22618
▁69 22601
裂 22584
▁وو 22584
迹 22575
88 22545
▁مشاور 22525
ئاس 22523
▁اقتصاد 22522
▁不要 22514
▁حدث 22495
遵 22465
任何人 22458
▁قص 22457
▁لمدة 22454
皇 22439
湖 22427
耶和华 22425
▁35. 22417
使他们 22415
69 22410
版本 22395
臭 22374
▁ميز 22373
巧 22362
有害 22354
قه 22340
▁تل 22338
▁再 22335
加速 22334
永久 22324
▁有人 22323
誉 22309
▁سير 22300
▁1993 22295
▁كثيرا 22290
▁بج 22285
冻 22283
ئب 22278
有罪 22270
▁جما 22237
▁· 22224
▁等 22202
دع 22173
▁أغ 22171
文章 22161
▁2006. 22158
衣 22138
教会 22137
ظت 22095
,19 22049
اوز 22049
呼 21992
袖 21992
▁فحسب 21992
ٌ 21972
▁القب 21965
0) 21941
صح 21938
46 21935
▁جل 21933
ناش 21932
父 21925
券 21923
聊 21915
عامل 21897
▁36. 21889
نيا 21853
▁(1 21836
▁زم 21804
佣 21792
▁واع 21784
نين 21777
斥 21772
▁第三 21748
سون 21747
日常 21732
▁2007. 21732
▁بينما 21731
绕 21716
暗 21714
狂 21708
的罪 21705
راه 21690
جون 21689
宏 21683
符 21680
▁عض 21673
▁كلا 21661
▁حاجة 21628
اسم 21627
啦 21624
▁(3 21624
▁بالس 21603
共和 21594
ستند 21590
乎 21539
▁بخ 21537
سام 21517
▁تاريخ 21514
▁7- 21506
ليون 21480
酋 21472
▁向 21467
杯 21457
▁会 21448
▁مقابل 21435
▁شار 21403
▁37. 21402
-6 21401
▁انتشار 21401
▁الهام 21400
يي 21360
了他 21334
植物 21302
牧 21286
▁四 21285
▁最近 21275
纲 21265
امن 21259
يص 21239
一部分 21224
بارات 21196
文明 21181
تب 21175
نهم 21174
نع 21150
贾 21147
▁ربما 21136
尸 21105
n 21099
لايين 21090
▁بدا 21063
不明 21020
نك 21015
▁第一 20991
نوع 20985
▁بالك 20979
نات 20963
▁معد 20951
国境 20945
挂 20940
侵略 20925
冒 20895
▁تول 20889
▁38. 20883
▁توس 20879
جين 20852
▁مث 20835
▁400 20818
راهن 20812
▁1992 20802
▁وبعد 20782
k 20775
嗯 20753
▁ترا 20740
奉 20735
敢 20725
▁اق 20719
住在 20716
▁即 20714
耶稣 20675
亦 20672
▁خب 20654
▁2003. 20641
غار 20640
虫 20639
▁2000. 20632
柱 20630
واق 20628
乳 20627
▁由 20625
洞 20622
保存 20620
抢 20611
ترام 20610
奋 20609
▁نائ 20597
اله 20585
▁تعاون 20582
▁احترام 20581
信心 20572
▁كي 20555
抽 20547
蓄 20547
▁بدون 20536
中间 20526
▁مستقل 20510
展示 20507
▁فه 20476
再生 20471
啡 20463
▁2002. 20451
渠 20427
努 20420
تش 20416
▁طب 20412
لار 20401
▁39. 20397
驾 20377
▁كث 20375
/201 20372
香 20371
▁ويس 20343
彼此 20332
雇用 20307
扶 20288
牢 20265
▁أولا 20257
咖 20252
搬 20246
世界的 20245
▁天 20241
▁他的 20238
侦 20219
雨 20218
▁40. 20215
▁عناصر 20198
واقع 20197
سبوع 20191
▁سلام 20190
43 20183
▁الاع 20180
身上 20173
润 20172
刊 20164
بق 20156
▁الملك 20152
رن 20145
遥 20133
غر 20130
42 20129
▁67 20126
池 20124
41 20104
惧 20101
▁f 20101
隶 20090
▁دي 20072
割 20067
▁8- 20066
灯 20059
78 20050
披 20048
▁رؤ 20045
دهم 20040
ابر 20037
▁منح 20033
طلق 20025
触 20024
▁سيت 20022
▁ينت 20006
峰 19992
▁النار 19986
▁1991 19970
▁نظر 19969
▁واق 19960
قتل 19958
خلص 19956
祖 19949
▁سل 19924
汞 19909
▁توافق 19888
谎 19876
莎 19874
▁بوس 19863
طف 19858
▁2011. 19849
阴 19845
逆 19811
酬 19756
▁41. 19735
▁用 19722
▁طل 19708
英文 19704
▁هؤلاء 19695
凭 19683
事故 19681
糕 19668
ارب 19664
▁85 19661
ناد 19649
▁حدود 19618
镜 19604
▁特 19594
纯 19584
▁وليس 19579
حل 19578
▁42. 19568
▁فرصة 19552
فور 19544
▁إب 19542
医学 19536
尤 19516
洪 19507
那是 19487
犹太 19484
戒 19482
▁تنت 19481
سبب 19470
▁أريد 19463
▁تبادل 19462
天然 19450
باع 19447
▁حص 19446
宛 19436
警告 19422
▁الممكن 19405
▁صف 19401
逊 19399
▁72 19399
▁قوي 19399
▁أر 19383
▁الرب 19380
宿 19363
菜 19345
绪 19336
衣服 19333
惩 19274
俱 19269
嘴 19267
名称 19253
▁لس 19245
▁قيد 19240
▁تغ 19229
前提 19227
▁你要 19224
学位 19189
,201 19188
牵 19160
h 19158
来到 19139
— 19096
猜 19074
思考 19070
▁月 19054
彩 19029
▁2012. 19027
▁للغاية 19013
)) 19002
骨 18986
لح 18980
▁بور 18979
▁201 18952
ادها 18939
▁若 18931
▁43. 18927
▁西 18921
زر 18918
رفة 18887
▁9- 18862
72 18853
漂 18806
在大 18797
▁回顾 18796
重要性 18786
زا 18782
ذهب 18781
▁表 18774
▁الأقل 18772
▁كثير 18758
诈 18757
/15 18749
驳 18746
窗 18742
▁جام 18738
邦 18730
▁الرجل 18726
▁老 18719
▁بس 18719
▁علينا 18707
▁جوان 18705
姓 18699
支援 18687
▁74 18642
▁44. 18639
屋 18620
زو 18611
▁لنا 18608
田 18601
融合 18592
▁راب 18587
▁سري 18577
▁可以 18568
ويا 18562
▁صاح 18556
أنه 18543
▁78 18542
外国人 18526
携 18495
لال 18483
▁الشر 18476
▁但我 18469
/9 18446
▁جمل 18446
京都 18420
丢 18398
知的 18387
呈 18375
焦 18368
▁ملاح 18365
1992 18364
شاد 18359
▁مط 18349
袋 18321
▁出 18317
睛 18312
.2 18310
有许多 18307
唱 18306
79 18284
仔 18276
撰 18265
▁منهم 18257
▁توق 18239
واز 18224
疟 18220
▁10- 18187
寄 18151
ذين 18149
正当 18146
▁45. 18145
ورد 18118
ch 18107
ساق 18103
▁لماذا 18097
廉 18089
塑 18085
震 18075
伸 18058
▁اسم 18039
▁فهم 18036
▁所 18034
▁يف 18029
弟 18028
▁وغ 18023
▁46. 18010
▁عضو 18002
▁دائما 17966
اندا 17956
ودا 17953
ئن 17948
سار 17936
اده 17924
▁600 17908
瑟 17892
الس 17875
▁你可以 17874
雪 17845
لقي 17842
呀 17840
-201 17827
86 17820
誓 17818
عط 17812
硕 17798
弥 17777
▁أعتقد 17752
燃 17749
▁يمك 17744
جهه 17740
يارة 17712
漫 17706
أكيد 17678
51 17674
桥 17651
契 17650
هل 17648
▁نع 17643
تبر 17640
ظهر 17633
▁انا 17624
勃 17620
▁أنك 17610
涨 17597
驶 17588
歧 17583
ماد 17581
زى 17570
▁47. 17559
▁غرب 17542
湾 17538
胀 17532
▁لديها 17528
95 17515
▁را 17492
舒 17487
▁رد 17483
شكلة 17479
滑 17478
▁وحد 17477
炮 17457
▁انه 17448
苗 17436
قاد 17436
拘 17432
▁اس 17419
向大会第 17402
碰 17400
انها 17390
攻 17379
▁استث 17375
▁48. 17370
▁عليك 17370
捍 17350
▁79 17346
学的 17338
87 17337
▁] 17314
▁معا 17305
些人 17295
理想 17293
▁ثان 17292
虑 17286
▁(4 17279
慎 17256
忠 17249
ac 17247
▁الطريق 17225
▁هدف 17207
汤 17180
▁199 17152
▁سلط 17149
▁ذك 17147
肥 17137
▁رغم 17134
一步 17121
▁لله 17120
▁السف 17097
باره 17084
拆 17075
▁مشكلة 17073
نش 17067
▁زال 17064
▁95 17063
插 17061
▁ام 17033
昨 17032
▁أعرف 17016
大型 17012
▁متعد 17012
配置 17004
▁تعم 16999
لين 16995
▁150 16981
▁50. 16978
厌 16971
▁高 16965
▁49. 16961
▁يخ 16956
首脑 16951
首都 16938
活性 16928
赦 16889
他人 16880
竟 16877
▁هاي 16858
▁لط 16851
▁يعيش 16848
旁 16837
74 16821
▁بز 16815
抗议 16812
▁الرجال 16806
▁سان 16805
هام 16798
بو 16787
▁موقع 16778
ديث 16771
61 16767
▁(2 16764
قوم 16764
妮 16754
▁11- 16753
摧 16741
▁سع 16740
厉 16728
海外 16725
液 16722
▁اض 16721
▁的 16714
▁علم 16714
真主 16704
模型 16703
▁96 16698
▁صحيح 16695
洋 16684
▁صنع 16683
▁2016 16656
▁ترتيب 16643
酸 16639
粉 16618
▁فوق 16589
豪 16564
右 16535
普及 16533
عود 16527
左右 16504
اخ 16504
铭 16503
▁有些 16479
عن 16476
واي 16476
▁سيدي 16470
▁被 16461
يكون 16446
‘ 16443
西方 16434
5/ 16423
叶 16417
诞 16411
漏 16399
尺 16393
▁86 16381
糖 16372
▁شرا 16368
否认 16366
▁فت 16344
▁رع 16344
晤 16336
跃 16331
اها 16329
▁反 16327
باه 16325
▁ها 16323
رهم 16321
上面 16318
قع 16299
▁注意到 16263
荡 16253
李 16220
▁88 16205
箭 16198
-7 16181
▁امت 16179
▁51. 16167
لز 16164
▁南 16163
意外 16147
怒 16145
غب 16140
固定 16139
لمة 16139
▁مون 16138
春 16112
▁الور 16112
消失 16090
76 16078
ذت 16073
鸟 16066
所得 16060
扭 16059
/7 16055
地域 16039
屠 16029
参照 16029
ائد 16025
1000 16008
魔 16004
愈 16003
就要 16001
روب 16001
▁حقا 15988
400 15964
▁外 15961
云 15951
▁المغ 15943
نام 15940
82 15934
ذة 15934
作品 15933
▁لدي 15932
肤 15927
▁98 15926
ئيا 15918
▁يأ 15904
▁12- 15900
▁研究 15894
▁84 15886
رام 15886
迹象 15877
分布 15876
信号 15875
在你 15870
59 15862
▁أين 15861
▁52. 15845
انا 15780
▁تعليم 15774
究 15769
秒 15766
▁تعرف 15756
一方 15753
ذر 15745
▁سيد 15741
شور 15737
/199 15731
▁عب 15710
娘 15706
▁وصول 15699
ومي 15697
▁وقف 15689
左 15686
ابط 15685
艺 15677
▁800 15661
▁سوى 15661
▁فرض 15660
يدا 15658
▁حقيق 15657
匹 15654
▁شرق 15645
9- 15627
▁فلسط 15608
本来 15604
孤 15601
▁(3) 15595
▁83 15593
▁相 15590
旗 15583
▁الجميع 15576
فون 15556
国王 15555
▁53. 15553
▁اج 15550
病人 15546
خرج 15541
泽 15531
▁استعمال 15522
صاص 15515
▁2017 15514
84 15480
53 15476
63 15463
▁اللي 15462
刀 15431
.4 15417
金属 15410
لن 15404
62 15396
وغ 15392
挺 15376
▁مجددا 15375
لون 15373
尾 15349
71 15332
永 15315
8). 15310
▁لان 15298
▁منص 15277
▁2013. 15271
▁日本 15263
一人 15263
遍 15261
▁مواد 15253
ورا 15238
اولة 15223
,2 15214
氯 15211
/13 15211
▁54. 15198
روا 15178
追求 15173
نق 15173
壤 15165
幸福 15156
俩 15155
绳 15144
死的 15142
-19 15138
▁دخ 15136
合格 15133
薄 15127
妻 15123
衰 15113
柏 15105
拯救 15098
تقد 15092
وضوع 15091
▁13- 15090
刺激 15089
罕 15069
绘 15063
▁اشت 15062
在他 15054
▁土 15048
cc 15037
...... 15027
▁ميدان 15023
加工 15002
▁دليل 14984
▁55. 14980
/200 14969
7% 14966
▁ويو 14963
艘 14962
媒 14954
56 14954
/18 14951
稍 14948
▁رجل 14944
ــــ 14935
▁مفت 14924
同性 14917
زان 14917
ليب 14911
斐 14869
▁120 14862
主的 14861
▁ممت 14848
▁الباب 14841
县 14840
54 14830
▁عال 14824
فو 14823
رته 14819
▁更 14818
菌 14804
纷 14785
▁نام 14782
揭 14770
地面 14748
魂 14743
▁أننا 14737
之日 14715
▁يعني 14694
都要 14678
▁56. 14676
浓 14646
▁بأس 14641
免疫 14636
وام 14636
枚 14630
co 14629
رع 14629
戏 14627
▁تعد 14623
颗 14621
نتي 14618
放射 14617
فضل 14614
▁99 14612
▁76 14609
壁 14607
▁مساعد 14596
被称为 14583
▁بأي 14569
تنا 14551
▁جميعا 14545
堆 14537
▁(2000 14532
▁بكل 14529
▁14- 14527
▁رح 14523
▁89 14512
وازن 14508
西洋 14493
صبح 14486
يانا 14475
/24 14467
纵 14440
珍 14434
▁或 14431
دأ 14427
▁يه 14424
يره 14424
氛 14419
▁ويب 14417
兑 14396
58 14395
诗 14393
▁طويلة 14381
▁海 14368
خبر 14362
▁تام 14360
▁أصبح 14352
▁لذا 14339
83 14334
▁استخ 14331
史上 14311
秀 14280
▁近 14248
▁欢迎 14245
ولاد 14240
▁طبيع 14222
▁700 14213
▁57. 14209
械 14206
ضل 14204
蓬 14195
也要 14187
rev 14182
▁مار 14169
欲 14153
使命 14146
▁15- 14146
重大的 14140
▁بف 14131
52 14129
▁فعل 14113
辐 14110
辜 14107
煽 14100
▁بلا 14075
زون 14072
配偶 14069
▁رب 14067
81 14066
▁بذ 14062
以色列的 14055
船舶 14053
凶 14053
舰 14043
岗 14043
بحث 14039
.5 14036
?- 14024
▁قانوني 14022
كب 14018
聪 14010
واس 14008
▁x 14004
阿拉 14002
▁هيا 13999
الك 13993
地下 13987
发展中 13978
▁奥 13963
وندي 13955
غت 13953
香港 13938
▁قسم 13938
圈 13932
اول 13927
▁كام 13925
رور 13919
▁# 13902
600 13891
150 13881
▁58. 13874
▁افت 13871
on 13864
敬 13858
失望 13854
赌 13845
祸 13842
博物 13841
▁اكت 13837
▁شهر 13825
▁تقريبا 13823
طه 13823
الن 13812
▁أسر 13811
ندي 13802
佳 13792
赚 13789
甚 13784
鸡 13763
▁جيد 13762
▁المكان 13761
▁حجم 13749
-8 13745
▁ستكون 13732
▁عامل 13726
يض 13696
▁مفهوم 13694
▁كون 13691
横 13686
حول 13685
▁(" 13684
▁مواجه 13677
▁مثلا 13670
▁16- 13654
呆 13652
鼠 13651
彼 13650
勇 13646
喂 13643
颜 13636
▁محدود 13635
▁59. 13630
▁لأنه 13594
猫 13587
刺 13585
-9 13584
都可以 13583
صان 13576
▁شركة 13569
耐 13561
▁خمس 13555
▁2018 13546
▁شيئا 13545
突然 13542
▁بدأت 13525
i 13523
حدود 13523
ic 13513
▁71 13506
▁ترى 13505
▁سم 13489
均衡 13482
▁شف 13482
شى 13481
▁يحدث 13477
房屋 13472
抚 13459
福祉 13447
▁تقل 13444
▁مور 13435
溴 13434
وابط 13423
▁就是 13414
.3 13405
▁عليهم 13393
叔 13375
搭 13367
بك 13362
朱 13356
▁60. 13355
括 13354
▁أيام 13353
不安 13341
坎 13339
▁خمسة 13336
▁حياة 13310
▁前 13302
▁تفعل 13300
▁● 13299
迎 13295
他们是 13295
▁لآ 13295
▁وقوع 13295
y 13279
▁معي 13259
ابل 13245
粹 13244
乃 13243
▁شعب 13242
57 13240
撞 13228
判断 13222
▁الأمور 13220
ستط 13219
مات 13203
跌 13190
-2009 13152
泛 13148
特性 13144
牲 13144
宇宙 13133
▁17- 13129
فات 13128
▁تريد 13125
▁明 13124
羊 13115
堕 13110
▁g 13092
▁并 13085
履 13084
社交 13079
▁你说 13078
婆 13070
寿命 13066
-2005 13065
▁بعنوان 13061
]. 13059
▁منس 13056
▁他在 13054
孙 13052
:1 13045
潮 13043
/11 13040
伪 13036
▁بدلا 13031
神的 13028
▁94 13025
捞 13020
▁بواس 13020
信用 13007
ونه 12999
▁61. 12993
糊 12985
奠 12980
噢 12973
لند 12969
诱 12964
淡 12959
ينه 12956
كه 12954
埋 12946
垃 12942
▁لدينا 12940
امين 12940
▁أصبحت 12928
▁i 12919
圾 12918
▁سابق 12911
gt 12896
ظه 12896
▁سنت 12880
▁مجرد 12864
▁لست 12857
罢 12856
▁كأ 12847
+ 12831
▁& 12831
文字 12824
/12 12823
▁تاب 12791
骑 12786
能量 12783
仓 12781
掩 12773
ولت 12769
海岸 12768
站在 12765
▁قاب 12751
cr 12747
زار 12739
▁18- 12737
’ 12734
▁+ 12732
▁بدأ 12711
治安 12705
يبة 12696
深刻 12687
瓶 12685
▁خل 12685
▁حي 12676
▁حوالي 12672
▁-- 12666
部落 12663
2020 12654
猎 12649
-2007 12649
▁كار 12642
犹太人 12639
▁شمال 12636
灰 12618
胆 12611
磨 12606
叠 12606
▁اب 12600
▁الري 12599
▁都 12598
fa 12592
يلا 12581
滚 12579
ارس 12578
▁1999. 12573
ايت 12568
▁19- 12548
ائرة 12542
报酬 12541
冈 12540
قم 12528
2016 12527
▁شع 12526
▁数 12512
屏 12504
▁أيها 12474
▁عموما 12467
腿 12456
地中 12447
分散 12437
▁(6 12434
▁شي 12432
▁h 12429
os 12413
برت 12411
▁تحقق 12410
هر 12406
呼吸 12403
膨 12403
-10 12403
▁可能 12399
جوم 12393
حم 12391
▁انتقال 12369
▁دفع 12362
互相 12361
ليه 12360
矛盾 12352
▁مالي 12350
▁يمكنك 12346
妙 12336
▁عائ 12331
▁ترد 12318
▁بند 12314
遏 12291
爵 12286
▁20- 12284
▁(19 12282
اث 12282
赐 12280
智慧 12279
蠢 12268
井 12267
▁مستق 12266
▁جاء 12262
▁64. 12246
▁متا 12241
物理 12230
تق 12228
▁عاد 12221
لته 12220
犹 12206
恒 12201
▁87 12199
▁ساب 12186
▁علا 12184
悬 12171
-2011 12168
▁65. 12165
بون 12144
عرف 12135
僵 12129
▁(5 12116
▁أليس 12111
▁跟 12108
▁خال 12101
牺 12072
扮 12063
的人们 12049
▁97 12045
▁بخصوص 12042
咱 12039
▁اع 12020
▁希望 12014
炎 12012
▁خدم 11997
窃 11982
饰 11979
著名 11972
鞋 11972
嗨 11971
روح 11967
的神 11966
逼 11965
哭 11963
الد 11953
仿 11950
▁خص 11947
▁آن 11946
▁مغ 11944
▁السبب 11940
▁الحقيقة 11927
▁أبدا 11924
▁واخت 11905
▁خطر 11891
冠 11888
▁الوحيد 11884
كلم 11882
2% 11878
▁سوء 11877
抵抗 11876
平方 11874
▁مباش 11872
把他 11864
▁古 11863
ياد 11859
寓 11854
娱 11853
فقت 11845
er 11834
▁كانوا 11811
成人 11799
/23 11788
▁نح 11786
▁صد 11776
集会 11769
▁الحقيق 11765
除外 11757
▁حديث 11756
描 11746
/14 11737
分裂 11733
印刷 11731
竭 11730
▁لديك 11725
▁21- 11724
▁900 11716
▁آم 11716
▁كت 11715
人物 11710
炼 11705
▁原 11703
茶 11700
▁شكرا 11699
▁(4) 11689
▁66. 11686
▁2009. 11684
▁حوار 11681
راحة 11677
▁تنق 11676
غول 11657
▁باب 11650
愤 11645
▁أنهم 11642
▁كو 11625
3% 11623
ادل 11619
▁ملت 11618
▁زوج 11617
▁اختيار 11616
▁امر 11614
碑 11613
荐 11612
▁91 11609
大地 11608
▁فأ 11599
艇 11595
يتان 11593
▁تستطيع 11576
劲 11562
▁طريقة 11554
▁مواقع 11544
寸 11537
▁فرد 11528
摇 11515
梯 11506
挝 11495
琳 11493
▁非 11489
▁重 11485
勘 11485
▁رك 11481
▁كول 11479
冬 11474
▁2014. 11471
وله 11466
我所 11461
▁فن 11460
作者 11458
1% 11458
翼 11450
▁مول 11449
▁أخذ 11442
صار 11423
表演 11419
惜 11418
ذن 11418
ريم 11413
▁بقدر 11408
فال 11400
ئق 11396
▁بهم 11394
▁فل 11392
▁نصف 11391
▁22- 11388
▁حسن 11384
▁以下 11381
▁غرفة 11373
▁今年 11370
西部 11369
▁وسط 11368
健全 11367
▁سلسل 11361
z 11356
文化的 11351
美的 11347
▁مخت 11340
▁سيع 11334
120 11330
馈 11327
زه 11317
/19 11314
表面 11307
▁حمل 11306
甜 11299
▁使用 11297
برو 11294
慰 11293
渴 11282
挖 11273
陀 11270
▁بحث 11269
▁تحتاج 11263
يتي 11245
فعل 11237
▁p 11234
▁بسي 11228
▁美 11223
▁رفع 11211
▁شخصا 11205
الع 11199
不幸 11189
赏 11188
支配 11188
جور 11186
▁68. 11185
慈善 11177
▁قتل 11172
▁مقبول 11170
▁معامل 11164
es 11145
فاده 11133
泡 11122
▁1989 11116
al 11115
郎 11112
▁قالت 11112
文学 11111
崩 11111
纽 11109
奈 11107
侣 11103
فته 11098
怨 11094
▁احتمال 11074
است 11043
وده 11030
pr 11029
帝国 11027
▁{ 11026
▁جنس 11025
ابه 11019
雄 11016
孔 11007
▁دم 11005
▁اث 10996
掘 10992
2017 10985
▁محت 10978
人生 10975
珊 10951
仁 10947
▁69. 10946
▁اختصاص 10944
▁قادر 10932
▁دوا 10932
بري 10930
症状 10929
和他 10916
▁موعد 10911
衷 10907
us 10905
▁منف 10902
▁82 10901
▁110 10899
▁قل 10895
▁تعلم 10885
▁فق 10885
أخر 10879
فن 10853
地震 10843
1: 10839
▁سف 10832
▁مكت 10829
挤 10825
▁بحاجة 10809
虽 10806
▁تحدث 10803
▁保 10794
▁公 10787
邪 10770
▁مجموعه 10770
يوس 10767
/16 10752
发出的 10750
卓 10746
钢 10741
▁دا 10741
▁طوال 10737
▁بلو 10732
ستخ 10729
▁فعلا 10724
尖 10718
▁أبي 10717
的心 10715
st 10715
na 10710
▁81 10710
▁از 10708
学者 10705
ريس 10703
詹 10693
.10 10689
▁或者 10684
-2013 10680
兽 10673
▁الطريقة 10672
▁70. 10665
وها 10662
喷 10661
谐 10657
▁بدي 10657
▁بالط 10643
我将 10634
▁2019 10634
▁重申 10631
▁جعل 10629
盈 10625
寺 10617
成熟 10591
蔓 10579
▁جد 10567
厚 10565
湿 10562
▁جيدة 10555
▁قدرت 10553
يمين 10542
روج 10535
▁لمح 10527
屁 10517
يذ 10511
意志 10510
ائلة 10506
铺 10504
殿 10501
氏 10500
على 10499
祈祷 10494
傻 10488
روم 10468
le 10465
▁2020 10458
ip 10454
▁سبق 10444
▁لديه 10434
印象 10424
脉 10417
▁依 10415
中止 10403
温度 10396
疼 10393
晨 10393
抛 10391
▁一般 10388
حاق 10388
甘 10381
▁26- 10380
▁شرط 10377
▁معه 10370
栏 10365
▁分 10362
赁 10356
آت 10350
▁1988 10348
君 10343
葬 10341
▁我就 10333
▁جيدا 10333
▁l 10324
▁所以我 10321
佐 10315
▁نب 10307
钥 10290
2018 10288
▁بسرعة 10286
6% 10281
浮 10280
暖 10276
蜜 10276
伏 10275
盐 10275
▁قبول 10273
吹 10272
▁ولي 10267
ابق 10259
ئا 10242
▁أعلم 10242
ريبا 10237
惩治 10235
壮 10233
▁(7 10229
一部 10201
▁سين 10199
-199 10175
شب 10166
أخ 10166
▁يقول 10165
ad 10160
▁شري 10154
أكد 10144
▁27- 10140
وش 10134
对他们 10131
躲 10124
▁دين 10110
داق 10101
▁كلمة 10085
▁موجود 10082
▁تحمل 10073
▁国 10072
el 10072
▁دستور 10067
▁أستطيع 10065
▁مرتب 10059
怜 10057
分割 10056
成分 10053
既然 10048
com 10043
▁حر 10039
▁جهاز 10022
辨 10021
鹿 10019
遭遇 10010
ئك 10009
▁180 9999
صور 9999
ائب 9994
追加 9983
晰 9981
▁教 9977
▁قبر 9973
▁هات 9965
央 9959
800 9959
▁r 9957
芬 9952
▁130 9952
hr 9949
必然 9944
▁معها 9930
▁28- 9928
厨 9925
秋 9923
▁تاي 9922
混乱 9915
轰 9906
灌 9895
j 9886
o 9881
▁سر 9874
in 9870
滞 9866
傲 9862
▁إخ 9857
黑暗 9855
▁متوسط 9852
▁أنني 9848
▁سج 9848
唐 9836
قيقة 9825
确信 9824
1980 9821
丑 9816
orr 9816
▁تحول 9809
教徒 9806
庞 9801
辈 9798
坐在 9794
▁社会 9789
con 9788
英雄 9786
▁140 9782
▁عنصر 9781
▁يكفي 9771
▁170 9767
滩 9765
▁تظ 9762
数百 9758
唤 9757
صلت 9753
你所 9752
和他的 9749
先知 9749
فترض 9749
ندما 9732
貌 9729
亨 9717
3: 9708
ابا 9699
敲 9696
致命 9694
少女 9692
钩 9690
▁令 9680
▁29- 9672
▁جس 9671
▁ادع 9671
▁علاق 9670
▁نقط 9665
揽 9660
• 9650
▁30- 9647
▁شئ 9646
▁جان 9645
▁白 9641
磁 9634
▁ضع 9630
▁عاج 9628
اتف 9627
50% 9620
▁(8 9609
▁هذ 9608
峻 9605
▁عالمي 9601
جى 9599
吻 9589
引导 9587
▁تفس 9586
闪 9580
信念 9579
عام 9577
慨 9572
聚集 9571
مق 9570
▁回 9566
肺 9563
▁سور 9563
地上 9561
歇 9561
▁إذن 9559
هه 9553
▁تأخذ 9545
▁آخ 9545
畴 9544
不法 9536
▁受 9532
is 9524
▁". 9520
数学 9512
▁鼓励 9505
疏 9502
اوي 9502
▁مرحبا 9502
垒 9496
羁 9494
人工 9486
▁75. 9479
عنا 9474
▁يعرف 9466
▁قلت 9457
恶劣 9455
ذب 9454
贪 9451
▁نؤ 9444
羞 9434
▁强调 9419
نيد 9411
哲学 9410
厘 9409
舌 9406
究竟 9403
▁منظور 9402
墓 9395
مح 9393
باس 9391
▁92 9389
棉 9386
▁وأنا 9375
催 9374
▁ساع 9369
匙 9368
猛 9364
▁طف 9360
▁الحديث 9357
▁يغ 9353
叉 9352
/2000 9345
▁ودا 9335
▁تشعر 9330
وره 9327
▁مصر 9325
▁250 9317
▁(201 9312
:200 9310
][ 9306
烂 9305
,1 9304
▁اذا 9303
▁انتخاب 9295
乙 9294
▁حض 9292
织 9288
堪 9285
天上 9285
扔 9285
▁93 9284
▁31- 9283
▁مقرر 9272
啥 9268
un 9267
桶 9239
凌 9226
ديه 9222
700 9214
▁早 9207
闲 9184
懈 9184
▁因 9183
▁دال 9178
饼 9175
▁نو 9175
▁مطال 9174
▁جورج 9172
悔 9169
▁مان 9168
拓 9162
▁يمكننا 9159
甄 9158
▁أعط 9157
▁اخ 9154
▁地 9147
▁جدي 9145
▁نسب 9140
▁انها 9131
▁ورو 9122
的儿子 9110
▁32- 9100
▁ملك 9098
▁当时 9076
انس 9073
昆 9070
为他们 9068
住宅 9064
肩 9063
يسر 9053
罗斯 9044
يهم 9039
猪 9032
粗 9015
1). 9001
迫害 8981
▁عقب 8979
▁السجن 8959
▁ثانية 8954
幻 8950
الص 8942
بود 8942
.9 8929
96 8927
摸 8915
▁موض 8912
▁محل 8906
▁英国 8905
逾 8904
5000 8894
剑 8886
泳 8884
不信 8880
▁神 8869
▁يستطيع 8864
▁الجم 8860
اسو 8846
晓 8845
▁للتو 8845
▁فال 8844
泥 8842
▁北 8839
▁(9 8829
镑 8825
锡 8820
拔 8807
娃 8804
愚 8803
10% 8798
▁مراحل 8795
شا 8794
لل 8790
怎 8775
缉 8773
4% 8762
珠 8759
踏 8742
ed 8740
▁علاقة 8737
溃 8734
泄 8733
大人 8724
真理 8720
آخر 8719
化合 8713
▁تود 8712
生涯 8703
台湾 8699
祂 8697
/17 8685
ردن 8676
ياة 8671
▁سبب 8663
هيد 8661
لاس 8658
▁ند 8653
▁قان 8650
求你 8642
以色列人 8640
家族 8631
柯 8631
▁دقيقة 8629
孤立 8628
صت 8626
他们所 8606
他们不 8604
▁لكم 8604
慕 8603
凝 8602
▁أض 8599
لور 8586
▁إست 8585
▁موافق 8583
民地 8579
▁80. 8552
初期 8551
go 8550
崇 8537
▁صادر 8533
▁35- 8531
元素 8520
他所 8518
蛋白 8517
淘 8514
2: 8509
▁رج 8509
يام 8501
} 8495
sa 8481
▁للغ 8462
姑 8455
ma 8440
بور 8433
▁windows 8426
▁هما 8417
廊 8409
فهم 8407
ديب 8403
8% 8399
健 8398
أك 8397
حه 8397
▁سك 8395
▁صوت 8394
ann 8390
▁يمكنني 8390
▁بخير 8390
طرف 8384
▁طفل 8381
▁فكرة 8365
兄 8363
▁198 8358
娩 8357
▁طويل 8357
▁2015. 8357
▁1967 8356
أل 8355
at 8350
/20 8343
哀 8340
豆 8339
▁1980 8339
▁ميان 8334
防御 8330
▁معك 8329
sh 8328
▁البعض 8324
رتان 8322
▁معرفة 8320
▁يريد 8317
▁بوت 8315
20% 8314
曰 8313
血液 8313
偶 8310
邀 8304
呃 8303
作家 8298
敏 8295
愉 8282
稀 8277
▁فورا 8277
شو 8267
▁参加 8264
郁 8262
他们将 8260
虎 8253
滴 8253
باح 8250
250 8243
91 8243
▁أخبر 8241
ويلة 8241
▁سائ 8235
代替 8232
耻 8226
q 8225
纹 8223
慷 8222
▁صغيرة 8222
▁عوامل 8222
▁فلا 8219
惑 8216
▁انتخابات 8216
,5 8210
受的 8207
▁男 8206
▁ويل 8186
ئه 8186
▁تون 8183
قابل 8180
خارج 8176
体重 8173
听见 8173
98 8171
▁خبر 8166
▁دو 8162
▁هن 8162
硫 8161
الو 8161
ترم 8159
女子 8150
浴 8148
ps 8136
引用 8130
抑 8129
ستي 8128
▁حيات 8122
80% 8121
ناس 8120
▁أحب 8115
▁2) 8112
一生 8107
▁وجد 8100
讶 8096
▁109 8088
撑 8069
ادم 8054
疲 8051
▁كتاب 8050
▁= 8049
涂 8044
▁دائم 8044
اوت 8034
▁教育 8031
▁تقول 8029
鲍 8026
惨 8026
▁رغ 8021
ائن 8019
天使 8018
it 8015
1, 8010
在他们 8004
▁未 7999
بعض 7999
▁105 7997
耕 7995
被害 7989
岩 7987
▁معرض 7983
▁تور 7982
▁ساعة 7974
大臣 7969
▁كب 7969
谱 7967
梁 7967
介入 7963
فتح 7960
2019 7958
肇 7957
حا 7949
行星 7948
▁مأ 7935
晋 7934
依存 7933
▁متع 7932
as 7928
pa 7928
2). 7921
百姓 7903
ارم 7897
嫁 7895
▁1) 7892
暴露 7888
乏 7879
سمع 7875
ck 7872
▁تعتقد 7872
3). 7866
لوم 7864
ar 7860
اصل 7860
سى 7852
▁يجعل 7848
三十 7847
93 7837
عج 7836
▁ناح 7836
擎 7829
▁استقلال 7825
pe 7824
胸 7816
▁学 7814
▁مدا 7806
▁ترت 7805
▁ره 7802
▁حظ 7797
▁تعهد 7771
▁使 7769
福音 7765
睡眠 7765
劝 7765
ضاع 7765
盒 7760
sr 7759
لاد 7759
谊 7756
▁تحفظ 7753
th 7749
▁كال 7745
▁اتصال 7741
ادى 7739
▁ضم 7727
肌 7726
▁نوا 7725
见证 7724
▁شد 7724
▁رؤية 7721
▁عين 7718
حض 7717
لاط 7716
كتور 7714
殴 7712
هان 7709
▁84. 7708
▁ملي 7708
زوج 7708
▁خلاف 7703
煤 7701
溯 7687
▁قليلا 7686
▁برا 7682
/22 7681
مز 7679
▁رأيت 7679
砍 7676
▁160 7675
يدي 7670
▁先 7656
拳 7656
般 7652
▁نقاط 7652
典型 7636
性能 7635
蜂 7630
-2015 7627
尘 7623
ca 7620
尊敬 7620
لائ 7618
مكن 7606
夸 7602
▁سياسي 7602
感情 7599
▁بإمكان 7596
榜 7592
جاج 7590
or 7586
▁认识到 7583
纂 7581
▁生 7572
رش 7559
اهر 7558
ft 7555
▁صدر 7552
舱 7543
97 7529
璃 7527
▁متى 7522
▁فتح 7513
吞 7505
卸 7494
难道 7491
使者 7488
▁内 7482
▁متنوع 7475
▁ضعف 7474
▁المدرسة 7470
اتل 7468
تري 7443
فى 7441
زب 7432
斤 7411
▁صوب 7408
30% 7398
▁كر 7398
日子 7396
92 7395
▁(5) 7391
▁مئ 7389
汰 7375
يء 7371
皆 7369
▁يول 7365
▁做 7364
腺 7359
▁119 7355
琴 7354
▁1986 7354
▁ماي 7353
ياب 7350
حك 7349
挡 7345
4). 7343
بس 7341
柴 7339
生成 7336
▁لديهم 7336
▁استط 7333
胖 7331
▁صورة 7330
潘 7324
浏 7323
数千 7316
喊 7315
ba 7313
▁1998. 7312
▁决定 7310
▁وصل 7309
يال 7304
app 7293
铀 7292
颇 7288
▁ميل 7281
熊 7280
▁موق 7280
▁فائ 7271
爬 7267
/2010 7260
ربما 7256
▁包括 7252
肃 7247
烤 7244
ياس 7239
▁فعلت 7216
赎 7215
3000 7208
▁كنا 7207
عوا 7204
苹 7193
indows 7192
الق 7179
▁كن 7174
▁j 7167
▁توقف 7166
数十 7164
腹 7157
▁88. 7155
▁بوجود 7155
ارتي 7154
94 7152
▁google 7148
▁تصو 7145
亏 7144
吵 7140
胁 7139
▁注 7134
▁متعدد 7130
لمات 7126
قطع 7121
杆 7119
骄 7117
寡 7113
挽 7107
痴 7106
_ 7103
恕 7101
ph 7093
朵 7093
是非 7090
▁تخت 7080
斡 7079
完了 7078
تون 7076
an 7075
挫 7056
bi 7055
夹 7053
▁واقع 7050
org 7043
蛮 7042
▁فس 7031
▁خر 7027
.6 7025
ناه 7020
▁ستت 7019
cebook 7015
▁(( 7014
▁أقول 7014
▁جاه 7012
140 7008
琼 7006
ريقة 7004
野生 7002
首相 7001
等人 7001
睹 7000
▁طرح 7000
▁تحق 6993
铲 6987
胶 6984
▁ناق 6982
川 6977
يوان 6977
▁المدينة 6975
掠 6971
201 6968
▁成 6966
泉 6966
7). 6965
▁90. 6963
6). 6959
ماذا 6950
da 6948
▁تجاوز 6947
▁m 6946
فكير 6945
gd 6944
راث 6944
闹 6942
▁اتحاد 6940
▁حصل 6939
尿 6937
筛 6936
▁تصد 6923
▁المنزل 6916
▁بيت 6913
己 6895
府 6894
旬 6886
的日子 6884
60/ 6884
兆 6881
▁دعا 6880
:20 6878
柜 6871
经典 6868
再度 6861
90% 6853
复活 6851
次世界大 6849
妓 6846
▁87. 6845
-15 6844
ينو 6833
▁بالتأكيد 6832
▁1987 6830
and 6829
拼 6827
▁وته 6825
氟 6823
▁مهما 6821
祭 6808
惹 6808
▁خس 6797
今日 6791
▁101 6788
▁الام 6787
芝 6783
▁通常 6782
宰 6782
肠 6766
am 6764
ولم 6763
▁直到 6759
▁لكنه 6759
狭 6758
▁فور 6758
▁قاد 6756
▁استعداد 6749
▁(2009) 6748
礁 6746
▁رق 6746
▁指 6744
▁日 6737
窟 6736
苯 6736
▁صباح 6734
-20 6732
ce 6728
▁ثابت 6728
心理学 6726
▁جون 6726
▁1982 6719
合成 6718
▁الأب 6718
▁مستعد 6716
▁1.5 6715
-2010 6713
,3 6712
▁سلاح 6712
▁الشيء 6708
安全保障 6705
▁وهم 6702
▁1985 6700
囊 6698
▁科学 6695
▁هكذا 6692
▁متخصص 6692
奏 6690
他们说 6686
▁难道 6684
▁ببر 6684
▁صاف 6683
杉 6679
弊 6670
40% 6667
瑚 6667
不然 6667
▁خار 6665
▁مسل 6665
▁صن 6662
▁الاث 6659
10. 6657
▁الليلة 6647
▁منك 6646
痕 6645
▁طول 6644
帽 6643
▁فري 6643
▁3) 6642
玉 6639
汲 6639
哨 6634
▁1: 6628
▁الأفضل 6628
▁v 6621
be 6619
▁وأنت 6617
笨 6610
是至 6605
喔 6596
涅 6590
勇敢 6587
▁2001. 6587
▁世 6585
▁اي 6575
se 6572
狼 6570
的居民 6568
▁رائع 6565
裤 6562
▁آسف 6561
争论 6560
ستون 6560
▁خلف 6558
▁سيح 6556
ct 6555
ليس 6555
▁صلاح 6548
瘾 6543
▁(2006) 6539
▁水 6535
▁1949 6532
لاب 6532
▁بالطبع 6532
但他们 6531
挣 6528
▁تفع 6527
▁رجال 6523
”“ 6522
鼻 6522
▁% 6510
炉 6508
▁حصلت 6508
▁فك 6501
▁104 6500
▁99. 6497
想像 6492
▁سام 6487
▁كه 6486
شفى 6484
祷 6482
▁نوو 6478
屈 6474
افر 6472
▁corr 6471
擦 6461
▁صدي 6461
بته 6459
辍 6450
上帝的 6449
裕 6442
▁باز 6442
/2005 6441
▁١ 6439
▁٢ 6436
饱 6434
一件 6430
ov 6419
▁أرج 6418
笼 6413
▁تبدو 6407
▁115 6405
卧 6399
舞台 6398
▁لوح 6394
抬 6390
يرت 6390
蚀 6388
国立 6387
علوم 6387
▁139 6379
肆 6374
wp 6374
巫 6371
▁غالبا 6371
咒 6370
啸 6369
▁108 6368
▁عز 6367
ومو 6367
侨 6366
man 6365
涌 6364
▁أمي 6360
▁125 6355
拦 6351
▁كلها 6351
▁يون 6343
▁عبد 6341
宇 6340
op 6340
卑 6339
▁103 6336
壳 6331
▁بني 6331
قس 6328
革新 6324
【 6316
保守 6314
▁مظ 6313
捉 6312
▁187 6311
科医 6298
▁106 6296
ضب 6290
▁102 6286
▁حاول 6275
لاص 6272
شن 6270
▁خصوص 6263
id 6261
▁اللع 6261
ؤال 6251
高速 6250
最小 6248
يزي 6243
▁نسبت 6240
基斯坦 6229
/0 6224
矶 6220
命名 6209
尝 6193
纤 6189
臣 6187
肢 6184
▁مصل 6184
ـــــ 6183
▁قائم 6180
واه 6173
▁昨 6170
厕 6167
墨 6162
剪 6160
وجد 6159
▁اغ 6157
▁متر 6153
110 6152
▁ممن 6150
شتا 6146
180 6144
▁معن 6139
勾 6133
慈 6131
▁186 6129
▁تجرب 6129
渗 6120
使他 6107
逝 6105
دث 6101
▁اد 6096
▁مات 6096
民主党 6092
肿 6090
▁البت 6090
肝 6089
خا 6088
▁أست 6087
60% 6079
12. 6078
5%, 6077
踢 6077
坪 6069
▁甚至 6060
俘 6056
wg 6056
一杯 6054
de 6048
粒 6044
幽 6042
▁إنهم 6041
الش 6041
飓 6039
相互作用 6037
▁إنت 6031
独自 6025
▁أظن 6024
峡 6021
راب 6018
起源 6017
70% 6008
刑罚 6005
躺 6003
忌 6002
▁حاف 5998
▁حضور 5996
侮 5993
膜 5990
,4 5989
串 5983
▁تسل 5981
▁(6) 5980
寒 5972
▁شام 5972
▁تفص 5968
陌 5967
修理 5966
摩西 5960
▁188 5958
عاد 5958
▁2: 5957
ديمة 5955
▁سمعت 5955
▁金 5954
▁رومان 5948
▁دير 5944
أنا 5941
贬 5933
▁add 5933
嘉 5932
,2012 5932
5: 5930
▁民 5927
▁107 5925
影片 5924
▁أكون 5915
吐 5907
消防 5904
▁هد 5899
▁حس 5893
顷 5889
逃避 5888
": 5887
▁وجدت 5880
臂 5876
睦 5873
▁185 5873
-12 5866
▁جول 5861
ab 5859
لأ 5858
فرت 5854
▁قاض 5854
▁1970 5853
▁قطع 5853
ogle 5848
鸿 5848
有名 5842
挠 5841
半数 5839
翁 5838
١ 5838
900 5837
▁(2011) 5835
رون 5831
否定 5827
صدقاء 5824
鸦 5822
悲惨 5809
抑制 5802
ولان 5797
▁ألم 5792
施行 5787
▁(197 5787
أخذ 5787
sp 5786
▁مستقبل 5786
▁耶稣 5785
▁أوه 5784
平安 5777
▁100. 5776
瘤 5768
擅 5765
服用 5762
▁نن 5762
زن 5761
-18 5758
im 5756
博客 5755
▁性 5753
丘 5740
整理 5732
使你 5731
迦 5728
矩 5728
搁 5719
▁ظاه 5719
齿 5715
蛇 5714
▁2.5 5708
柔 5707
9% 5702
▁مصرف 5698
脂肪 5692
▁سرا 5692
▁متن 5688
▁利用 5687
▁深 5685
尉 5684
给你们 5682
▁حب 5676
▁حملات 5674
▁الذهاب 5668
▁٣ 5665
侵入 5664
侯 5662
框 5659
160 5654
▁جم 5654
يري 5651
拾 5646
مج 5644
بوت 5641
فك 5639
栋 5638
▁خام 5632
25% 5626
颈 5624
唯 5622
汗 5622
▁عنوان 5620
▁凡 5619
洪水 5618
▁مضمون 5618
江 5612
ia 5605
en 5604
ii 5604
哺 5600
帅 5597
▁أرى 5593
畅 5592
胺 5592
▁注意 5591
!- 5591
之地 5586
砸 5581
▁لوا 5581
瑙 5577
陛 5575
-0 5571
▁اند 5570
ودي 5569
/2008 5563
垄 5562
烷 5561
vi 5558
شان 5557
▁يفعل 5553
辟 5551
▁موج 5551
son 5550
▁112 5549
▁t 5539
同在 5538
ra 5533
推定 5531
pn 5524
▁ic 5517
▁حقيقي 5508
10) 5506
姿 5505
啤 5505
▁بون 5502
葛 5498
2, 5496
惟 5490
▁1981 5487
re 5485
雾 5483
焚 5481
篮 5480
▁صالح 5480
▁1984 5478
et 5468
▁الذى 5466
溶 5465
▁114 5462
▁قس 5452
ur 5450
▁1978 5448
▁(10 5448
―― 5442
,10 5442
奔 5439
▁تذكر 5434
▁1.2 5433
11. 5431
رمان 5429
▁111 5427
阔 5424
▁روح 5424
ge 5421
%) 5420
9). 5417
▁جع 5416
蔬 5412
:2 5412
▁英 5411
▁الأشياء 5410
夕 5409
▁60- 5408
脊 5406
▁باه 5402
قدار 5401
mar 5400
وسي 5400
糖尿病 5398
坠 5396
▁جار 5396
▁فردا 5395
咬 5394
谍 5390
雕 5390
议定 5389
同盟 5389
衅 5388
▁طال 5381
确是 5380
▁118 5380
um 5375
▁شبه 5372
肖 5369
▁سه 5369
▁مناس 5367
ماش 5363
▁23- 5362
▁مرات 5360
▁** 5359
宠 5356
▁مرور 5354
▁أخبرت 5354
▁دف 5352
▁手 5351
▁149 5349
▁n 5342
▁ساعات 5342
▁米 5341
▁ابت 5338
▁الاس 5337
ard 5336
▁جب 5336
出身 5330
▁). 5324
▁انك 5323
豫 5316
ينين 5315
الل 5315
酌 5312
▁بمب 5311
لتي 5289
نل 5285
御 5283
▁24- 5283
恶魔 5281
▁ذا 5281
惕 5280
mo 5279
li 5278
▁警察 5277
▁197 5276
4: 5272
世界中 5266
▁116 5262
逗 5261
▁قريب 5257
司令 5255
▁117 5255
浅 5251
▁123 5244
cs 5239
te 5237
一日 5236
▁1979 5231
亟 5229
牲畜 5226
▁作 5222
罐 5222
em 5221
吊 5213
窝 5213
缝 5212
▁نما 5211
0000 5210
▁حان 5209
تام 5208
بش 5202
提示 5201
▁122 5200
▁25- 5195
▁113 5194
ta 5192
沮 5190
▁وشك 5190
悼 5186
宗教的 5181
1.5 5179
谤 5179
7: 5169
-11 5167
▁(2008) 5167
饶 5158
▁حم 5151
la 5143
ياء 5142
▁اص 5139
▁مدت 5139
/29 5134
▁الماء 5133
ندو 5133
& 5128
办事 5123
لوغ 5121
舆 5120
胞 5119
يتك 5114
慌 5112
= 5111
▁أني 5111
▁ضروري 5110
罩 5108
سنا 5106
蕾 5102
▁تأتي 5102
▁اعتقد 5097
荣耀 5093
哇 5093
▁apple 5091
拐 5090
▁1973 5086
oso 5082
مور 5078
腾 5077
保管 5077
▁220 5077
/2001 5074
妄 5072
瞒 5069
恭 5067
▁ناف 5062
▁ساد 5051
一同 5044
化石 5042
كذا 5041
▁190 5039
炭 5038
蹈 5037
铅 5036
▁اختلاف 5036
▁micr 5035
▁1975 5031
ظار 5030
▁الصباح 5023
苯醚 5017
锋 5014
娅 5014
▁والو 5012
▁حزب 5011
▁محاف 5010
浸 5008
铜 5007
醇 5000
4000 4998
▁منز 4998
غه 4993
盯 4991
ئف 4985
5, 4983
轴 4982
الما 4978
حتاج 4975
名叫 4969
عك 4967
淋 4966
▁ار 4966
20. 4965
/2009 4964
生物学 4959
ريه 4959
▁والآن 4958
▁عنا 4958
弟兄 4957
▁ارتباط 4955
▁باد 4953
ing 4950
▁واو 4950
▁بنف 4949
65/ 4948
▁فوا 4947
▁حك 4942
耍 4941
▁تابع 4939
垂 4937
▁1974 4937
▁4) 4933
يما 4932
100% 4929
ولد 4926
戮 4924
枢 4921
众人 4920
-16 4919
درس 4917
畜 4916
قتي 4913
▁أنظر 4912
mi 4910
女王 4909
白人 4908
喻 4906
丛 4905
▁بعيدا 4905
▁توجه 4901
胃 4899
so 4898
3, 4898
昏 4895
** 4887
ًّ 4887
诫 4886
▁初 4882
狮 4877
〔 4875
gb 4869
▁بنه 4868
▁1977 4867
.7 4867
٤ 4865
悠 4860
bo 4859
,6 4853
裁判 4851
郊 4850
刷 4846
زات 4844
余地 4842
闯 4839
赴 4838
ter 4838
res 4838
泪 4836
妆 4834
كى 4833
ازه 4833
▁صغير 4828
▁عص 4828
▁w 4827
爽 4825
锻 4824
1960 4823
▁189 4822
▁مطلوب 4821
▁معني 4819
▁3: 4817
抹 4815
启示 4811
ادن 4811
u 4807
神秘 4803
科学的 4798
▁私 4798
▁ضرب 4797
自信 4795
5). 4792
映 4791
ss 4791
虐 4785
▁فضلك 4783
▁أشعر 4782
叹 4781
ir 4781
2.5 4775
顽 4774
蒸 4772
集合 4766
氢 4765
فلة 4761
ردي 4759
▁نا 4758
▁منا 4752
慑 4748
▁اط 4742
▁المرة 4740
崇拜 4739
▁145 4735
/2002 4735
名誉 4730
ie 4729
贿赂 4728
▁شج 4727
▁350 4722
▁متصل 4716
棘 4709
▁153 4709
▁1960 4703
▁تذهب 4698
▁128 4696
▁قمت 4695
▁1/ 4693
▁138 4691
لائي 4689
巾 4687
car 4685
▁أفعل 4684
4, 4681
▁1000 4679
旅客 4675
-14 4667
▁او 4663
▁محمد 4661
▁تعال 4660
好多 4659
▁مني 4659
蚊 4658
▁.... 4657
ne 4655
▁رائ 4653
▁父 4651
扯 4648
膀 4647
物理学 4646
05 4646
祭司 4645
纺 4641
كما 4641
鲸 4639
衔 4637
奎 4637
▁لرو 4637
▁دقائق 4631
悟 4628
▁121 4628
▁1990. 4624
寿 4622
▁124 4620
汁 4617
▁فتاة 4614
▁ندا 4613
溉 4610
著作 4608
▁قلي 4608
▁قت 4605
يند 4604
▁مثال 4601
孤独 4598
大事 4597
.... 4597
▁أردت 4594
芭 4584
公式 4582
▁135 4576
允 4574
▁(2010) 4573
▁هند 4572
▁الصغير 4572
▁اف 4571
ber 4569
宴 4566
▁أخت 4566
▁得 4563
裸 4561
يخ 4561
▁194 4560
▁دعوت 4557
钦 4554
政治家 4553
▁1969 4550
骂 4548
▁市 4540
▁1951 4539
▁1.1 4537
▁لاو 4537
蔑 4535
▁سيم 4535
▁王 4533
霸 4533
▁126 4532
▁家 4530
椅 4529
▁(18 4529
摔 4525
诽 4525
ro 4524
▁عظيم 4524
坑 4511
必定 4510
劣 4510
▁他们说 4509
▁1972 4507
挨 4500
▁k 4499
▁لابد 4499
▁政治 4498
▁عرو 4498
اتو 4495
瞧 4492
堵 4489
悖 4489
الر 4487
ho 4486
▁يعلم 4484
▁بدل 4483
盾 4482
نوان 4482
火星 4480
ins 4478
好奇 4478
▁次 4475
:19 4473
▁نفسك 4470
br 4465
盆 4457
فار 4457
旷 4456
▁أرجوك 4453
▁ميت 4451
肚 4449
▁مرض 4445
都市 4438
澡 4437
▁مائ 4437
آس 4437
"؟ 4435
珀 4434
保有 4434
▁سفر 4433
ap 4424
▁192 4424
▁لائ 4424
洽 4423
▁196 4423
صدق 4420
▁1961 4418
خار 4418
▁اعتراض 4418
▁朝 4416
独裁 4413
雅各 4413
▁غالب 4412
▁195 4411
il 4408
锐 4407
主人 4406
贱 4406
ha 4405
▁耶和华 4405
جس 4396
▁1971 4395
▁$ 4395
▁سار 4395
凉 4394
▁o 4393
▁لاي 4389
po 4388
恼 4388
ly 4385
▁لز 4381
猩 4374
沦 4373
,9 4372
web 4371
,7 4368
▁معروف 4368
衍 4362
谬 4361
fi 4360
▁علام 4351
ka 4350
▁تري 4346
▁حج 4344
瞻 4342
▁2004. 4342
▁1996. 4339
▁انس 4339
吩咐 4338
磅 4337
▁معيار 4334
▁تبا 4333
使徒 4329
▁ip 4328
▁خت 4328
inf 4327
▁فين 4324
噪 4317
ml 4315
紫 4315
▁جواز 4315
▁الكتاب 4312
限定 4311
look 4310
仆人 4304
▁بتر 4302
▁179 4301
▁1983 4299
▁70- 4299
▁انق 4292
禽 4289
社群 4288
沿岸 4288
▁以前 4286
黛 4285
▁129 4282
▁1995. 4281
仆 4279
▁5) 4273
▁ليلة 4273
▁عي 4273
▁صديق 4272
▁مرب 4269
招待 4268
▁مبت 4267
▁127 4260
▁٤ 4259
ol 4258
陵 4257
-13 4256
盼 4255
溢 4253
يلو 4253
01 4252
جوان 4252
▁قلب 4250
坟 4248
匀 4247
▁1976 4245
彰 4242
数年 4237
脂 4235
bar 4235
▁(8) 4235
▁مدار 4234
ms 4229
▁انف 4229
,8 4228
to 4226
光明 4226
▁تحب 4220
狄 4217
低下 4217
血管 4216
娶 4214
ابس 4214
▁_ 4209
ضه 4209
▁信 4206
▁عني 4204
mic 4203
放置 4203
.) 4203
tr 4200
遂 4199
ga 4198
ou 4195
▁表示 4194
倦 4192
اتر 4189
www 4187
mac 4181
net 4178
▁مين 4176
per 4175
弯 4174
أنت 4174
▁叫 4173
od 4172
遮 4169
▁لين 4168
ff 4165
▁155 4165
▁(7) 4165
扼 4164
شق 4164
▁2.1 4163
تال 4163
戚 4162
真主的 4160
妊娠 4155
滤 4152
ts 4151
شاه 4149
▁حذف 4148
om 4146
祝福 4145
▁حذ 4143
仰 4142
ظري 4137
▁有些人 4134
▁cd 4133
ديك 4131
腰 4130
匪 4130
ونو 4127
ولار 4126
▁193 4125
/2011 4125
仙 4124
把握 4123
粘 4122
▁الموت 4121
▁متف 4121
▁ماز 4119
仗 4111
汀 4109
hi 4106
▁ناش 4104
犬 4100
・ 4097
yo 4096
卿 4096
▁(15 4094
▁غدا 4094
▁أعني 4093
▁البيت 4090
▁2.2 4089
古兰经 4086
-17 4086
▁خطأ 4084
-30 4081
▁مجه 4080
▁مخالف 4079
幻想 4076
تس 4076
钮 4073
▁طاق 4072
لقد 4070
▁هنالك 4070
jo 4066
▁تنج 4066
僚 4062
魔法 4062
匮 4059
▁169 4057
ot 4054
是更 4053
ليك 4053
芒 4051
扇 4050
兔 4049
-2006 4049
رفت 4041
温暖 4036
▁عمر 4036
▁السيارة 4035
▁فش 4035
▁شن 4035
انو 4032
卵 4028
侠 4025
▁134 4022
晶 4020
▁تقص 4018
ختار 4016
وما 4015
▁132 4014
ny 4013
▁إت 4011
350 4009
شل 4008
▁ردا 4007
】 4005
▁ماد 4003
sky 4002
ers 4002
我曾 4001
di 4001
▁1.3 3993
瞬 3989
勋 3984
饲 3980
▁فقر 3980
ri 3978
榄 3977
橄 3976
愧 3976
point 3971
屎 3969
▁الحب 3969
簿 3968
▁لحظة 3968
疹 3965
هو 3961
125 3954
▁راس 3952
une 3949
▁اقتصادي 3947
▁(21 3942
▁بفر 3934
▁st 3933
▁فصل 3933
سد 3930
▁روس 3928
▁365 3922
▁تي 3922
▁اش 3918
逍 3917
▁شغل 3912
棍 3909
٢ 3908
▁أذهب 3907
万物 3903
▁ابتدا 3903
ay 3902
鹰 3901
sub 3900
عور 3898
٦ 3895
▁死 3891
غيرة 3891
古代 3888
▁تحاول 3888
番 3887
▁تتحدث 3887
6, 3884
▁ظهور 3884
▁مجم 3883
穴 3882
ry 3878
歪 3872
教室 3864
ja 3863
٧ 3860
▁تعط 3857
7, 3854
me 3851
毯 3850
▁نستطيع 3850
▁火 3849
部族 3848
窄 3842
▁والدي 3841
共和党 3840
漆 3840
伞 3838
爷 3832
وند 3832
الخ 3831
▁تا 3830
▁قابل 3830
▁سيارة 3828
碗 3826
▁نات 3825
敬意 3824
悯 3822
▁万 3822
向上 3820
▁عادل 3819
诅 3817
膝 3816
رال 3808
市民 3806
▁إنك 3804
▁136 3803
تور 3803
ver 3802
厦 3802
/2012 3801
▁لاز 3794
101 3793
▁ذهب 3793
▁عزيز 3793
原理 3792
不正 3787
咪 3786
cop 3783
腔 3782
锅 3778
▁لى 3778
▁الرح 3775
眉 3773
▁名 3770
▁الطعام 3769
一度 3762
▁191 3762
▁برع 3762
毗 3759
征服 3756
▁131 3755
一番 3751
he 3748
▁وبه 3747
咎 3745
稻 3744
▁facebook 3743
,12 3742
ظن 3742
蔽 3738
لتك 3737
▁ترجم 3737
棋 3736
缠 3734
栖 3731
▁通 3730
▁40- 3730
▁وارد 3727
垫 3723
ul 3721
▁نفسي 3720
刘 3719
缆 3717
▁متح 3717
▁دب 3716
途中 3715
肾 3713
▁空 3712
滨 3712
▁137 3712
▁أى 3710
嗣 3708
〕 3707
▁شيئ 3706
▁202 3704
.] 3704
▁133 3702
▁2.3 3700
▁mac 3698
▁يحاول 3696
▁178 3695
▁ماه 3691
▁أصدق 3687
▁حادث 3686
▁رت 3686
▁رجاء 3684
▁عزيزتي 3684
猴 3683
原文 3680
讽 3679
▁خلق 3679
▁نكون 3678
▁نعرف 3676
濒 3673
谣 3672
▁كله 3671
鲨 3668
魁 3667
▁تدا 3667
颂 3665
▁182 3662
▁مارس 3661
酱 3658
ci 3657
▁生活 3655
▁共 3655
吾 3654
淆 3651
瞎 3650
制服 3649
كاس 3648
ارى 3643
煮 3642
斑 3639
▁عط 3639
撕 3638
123 3634
裹 3632
匿名 3627
▁اريد 3627
ندق 3623
▁最高 3620
▁خطاب 3619
眠 3616
ex 3614
,18 3612
倚 3608
20) 3604
▁علاج 3604
▁240 3601
▁توغ 3601
枯 3600
篷 3599
▁1948 3597
▁office 3596
▁144 3596
ine 3595
夷 3592
▁أكن 3591
eb 3590
▁6) 3590
▁جاك 3586
▁غريب 3583
▁انتظار 3582
▁رش 3582
衫 3578
▁نحتاج 3577
ضان 3575
▁مسلح 3575
ek 3574
▁موس 3574
▁قم 3571
▁معنا 3569
اغل 3568
▁حف 3564
amp 3561
螺 3556
庙 3550
沫 3550
las 3550
恳 3548
▁إليك 3547
敬畏 3542
▁سعيد 3542
▁ثبت 3542
▁عر 3542
仑 3541
ag 3537
凿 3536
▁مشت 3536
谦 3531
"; 3527
趟 3527
▁مستند 3526
槛 3525
敞 3522
佑 3520
لمه 3519
▁٥ 3516
oud 3514
榴 3514
14. 3511
▁147 3511
贼 3507
▁حياتي 3507
▁学校 3505
画面 3503
▁فعله 3503
si 3498
▁154 3497
▁3.1 3496
▁平 3495
▁إلهي 3494
ستطيع 3492
▁كات 3491
▁شرح 3490
▁ظهر 3489
pro 3488
▁4: 3486
▁اليس 3485
▁3.5 3483
ذاب 3483
▁(20 3479
▁2.4 3477
▁لندن 3477
▁التى 3477
剖 3474
椅子 3474
hone 3472
憎 3469
▁3.2 3469
.19 3469
-2008 3468
▁(2013) 3468
▁قول 3467
▁بأنك 3465
恩典 3463
▁طالب 3461
لر 3460
▁عرف 3458
▁143 3456
نن 3455
▁واش 3454
اتا 3451
,11 3449
▁خطوط 3442
فعله 3442
凸 3441
ve 3441
:4 3441
9: 3437
▁450 3436
耀 3435
▁الفتاة 3431
/2013 3428
ؤلاء 3426
斜 3421
氟氯 3421
بوط 3419
酪 3417
▁us 3417
钓 3416
ak 3415
渊 3413
1.2 3413
▁146 3411
▁ماس 3410
性格 3408
har 3405
حان 3401
ترن 3401
塌 3400
8, 3399
فوظ 3399
15. 3398
va 3397
岂 3396
皂 3396
▁175 3394
▁بري 3394
13. 3393
٠ 3393
▁هون 3391
▁ري 3391
▁مدارس 3391
▁05 3390
▁اذهب 3389
:3 3387
▁id 3387
▁1991. 3386
▁80- 3383
pp 3379
烯 3379
钉 3377
嘱 3376
fr 3374
攀 3373
٩ 3373
▁قرب 3373
▁166 3371
مش 3366
亵 3365
▁ونه 3365
贡 3364
▁156 3362
بتي 3362
▁اعتراف 3359
,20 3357
祖先 3354
欲望 3352
事例 3352
▁مقاب 3352
▁غو 3349
▁أحتاج 3348
桃 3346
▁خذ 3345
▁قير 3344
▁ترين 3342
瞄 3341
丸 3339
髓 3338
盔 3338
▁يهم 3338
▁جر 3337
棵 3335
趁 3334
郡 3329
▁خاط 3329
妒 3327
▁أنتم 3327
!" 3325
淹 3323
崛 3320
▁توقع 3319
▁148 3316
▁متم 3314
خش 3311
جرت 3311
莲 3309
▁صفحات 3305
رتي 3305
瘫痪 3300
▁141 3296
▁(10) 3296
,15 3295
▁ذهبت 3294
暑 3287
喉 3287
▁2030 3286
ham 3284
燥 3283
▁نذهب 3282
# 3281
▁ائت 3281
渎 3280
▁الغرفة 3279
-24 3278
▁شىء 3277
▁تخصص 3276
的民众 3269
枝 3269
世代 3258
1.1 3253
程式 3252
٥ 3251
匠 3249
٬ 3249
驰 3245
▁مري 3243
يتون 3241
▁دفاع 3241
▁iphone 3240
回避 3238
▁ساح 3238
▁فح 3237
▁جذ 3235
ram 3233
筒 3233
بره 3233
改良 3231
▁230 3231
▁مقا 3228
棕 3227
▁1968 3226
▁رائعة 3226
罂粟 3222
▁قصد 3222
拷 3221
han 3220
!! 3220
▁هى 3220
▁1963 3217
▁حاد 3217
ya 3212
裙 3211
膳 3210
كرا 3208
▁1.4 3207
ler 3206
谜 3205
▁4.5 3205
▁142 3201
▁صرف 3200
▁هاد 3198
les 3197
▁50- 3194
▁تخبر 3194
▁أتعلم 3194
婊 3193
▁(2012) 3193
年以上 3192
▁منزل 3192
磷 3189
▁女性 3187
of 3186
cl 3186
阱 3186
▁مند 3184
▁صاد 3183
نهن 3180
萝 3176
烹饪 3175
奢 3174
▁شفاف 3174
尬 3173
基督的 3172
衬 3170
pt 3169
▁1966 3169
▁جميل 3169
▁q 3168
ld 3168
ونت 3166
▁تريدين 3164
筑 3162
▁彼 3161
▁جميلة 3160
75% 3156
政治的 3154
▁1945 3150
偶然 3149
伽 3149
爷爷 3149
黄色 3148
扑 3144
▁صور 3136
▁لكني 3132
冥 3131
▁تحص 3131
ni 3128
骸 3124
▁سؤال 3121
氟氯烃 3115
▁تصديق 3115
%. 3114
▁بعدها 3114
挚 3112
lar 3110
▁5: 3108
佬 3106
17. 3105
/50 3105
悦 3104
祈 3102
茄 3102
▁سند 3101
▁知 3100
▁بالضبط 3096
ht 3094
▁أرد 3093
▁واز 3093
喜悦 3091
٨ 3091
逢 3090
07 3090
▁以及 3090
▁سما 3089
▁1950 3087
▁152 3087
▁كلام 3085
伯拉罕 3084
▁残 3081
▁自由 3075
▁الجحيم 3070
肉体 3069
▁انتق 3068
哲 3064
名前 3064
抄 3063
16. 3063
▁une 3063
▁ستن 3063
ut 3062
移植 3061
bs 3061
لج 3059
丙 3058
02 3058
当初 3058
泵 3057
▁un 3057
▁أتمنى 3055
pi 3053
嫉 3053
▁ضبط 3052
اؤ 3051
▁دعنا 3048
اظ 3047
-3) 3044
▁٦ 3043
ارين 3042
▁حاج 3041
198 3039
▁(100 3038
信奉 3035
:5 3032
▁冷 3030
▁برم 3030
耽 3029
▁رهن 3027
杨 3023
we 3022
lt 3021
▁انهم 3020
▁عنك 3020
▁آث 3018
▁260 3017
尴 3016
ib 3015
witter 3014
副作用 3014
الط 3014
450 3012
$ 3010
09 3010
خو 3009
▁حالت 3009
▁157 3008
锦 3006
▁مدر 3006
qu 3004
▁وخت 3004
楚 3002
gr 3001
▁بير 3001
▁165 2998
▁زه 2994
痹 2991
▁4.2 2988
يلين 2988
帖 2987
析 2986
安息 2985
▁母 2984
ans 2983
恪 2983
▁救 2982
▁210 2980
▁360 2979
酗 2978
▁心 2975
▁夏 2974
坝 2974
wi 2973
▁أشياء 2973
芯 2970
▁web 2970
▁道 2969
-2012 2969
عمه 2968
آب 2964
04 2962
溜 2961
ئون 2961
铝 2959
▁مقدار 2957
▁شو 2956
批判 2955
降临 2951
杠 2950
▁158 2950
魅力 2949
rosoft 2945
聆 2942
▁نخ 2939
浆 2937
▁بام 2937
膏 2936
مود 2936
朴 2935
▁سوا 2935
萧 2932
ash 2931
za 2931
▁} 2928
徽 2925
▁فرق 2920
▁何 2917
▁成功 2916
▁تصور 2916
▁سأت 2916
ley 2913
▁شعور 2912
坊 2911
勿 2910
▁151 2909
one 2908
▁1962 2908
来临 2907
侍 2905
▁159 2905
应许 2904
龟 2904
▁تظن 2904
慈悲 2903
▁أريدك 2903
昭 2902
18. 2897
藐 2896
ris 2895
هذا 2894
▁ترو 2892
美味 2886
▁التحدث 2885
氨 2883
绵 2883
03 2882
搅拌 2877
▁1992. 2877
十字架 2875
▁山 2873
▁رام 2873
▁ذاه 2872
鸣 2870
-25 2869
▁طري 2869
▁الاش 2866
棚 2865
坞 2863
ceda 2863
fice 2862
▁اجل 2859
▁750 2857
▁161 2856
掷 2855
▁164 2855
矫 2854
呐 2853
ok 2850
粒子 2849
ina 2849
皇帝 2848
▁1993. 2848
جيم 2842
▁(12 2841
鄙 2839
苯丙 2839
by 2838
6: 2838
你不要 2835
要因 2834
▁موافقت 2830
▁تنوع 2829
焰 2828
يرن 2828
斋 2825
06 2819
哉 2818
▁4.1 2818
巢 2817
▁162 2813
▁موت 2812
pet 2811
撤退 2810
遴 2809
姬 2808
吴 2807
▁دولت 2805
ns 2802
do 2800
腥 2799
▁真主 2798
▁خرج 2797
no 2796
爹 2796
ليت 2796
隧 2793
lo 2792
راي 2790
art 2789
▁اعرف 2789
▁自然 2787
ub 2785
▁الليل 2785
ys 2784
▁علوم 2784
颖 2783
)). 2781
唇 2780
▁? 2780
砖 2779
俊 2776
▁نغ 2775
9, 2772
ايو 2771
ec 2769
▁مره 2769
ko 2767
鞭 2767
ob 2765
lin 2762
dr 2762
▁ذاك 2760
ومت 2759
▁3.3 2758
▁تعرفين 2758
▁آل 2757
▁سخ 2757
脖 2755
▁1.6 2754
▁(9) 2754
▁لأنك 2754
ice 2753
,2014 2752
▁دام 2752
▁・ 2749
▁لطيف 2748
▁كوم 2743
▁直 2742
▁سطح 2742
-22 2741
▁1958 2740
▁سأكون 2739
▁متناسب 2739
أم 2738
ant 2737
0, 2736
/2014 2734
vid 2733
-2000 2733
▁2018. 2733
▁cr 2730
玫瑰 2728
▁163 2727
▁u 2724
逸 2720
柄 2719
▁体 2718
▁2.6 2718
▁5000 2718
豹 2713
彭 2712
勉 2712
邓 2712
畏 2710
凑 2710
▁مقررات 2709
▁أخر 2707
姨 2700
懒 2696
▁عيد 2695
يانين 2694
cat 2693
▁لأنني 2691
▁最初 2690
08 2690
我必 2690
▁7) 2688
ser 2682
帜 2680
▁1965 2679
▁أتعرف 2679
琐 2677
▁هش 2676
▁花 2675
▁点 2671
鹅 2671
瘦 2670
ائك 2670
kar 2669
:: 2669
)! 2666
辰 2660
▁أقوم 2660
نما 2660
▁光 2659
▁请秘书长 2656
▁جغ 2655
▁نك 2654
▁地球 2653
▁ضرر 2652
薇 2650
all 2649
▁out 2649
▁2017. 2649
ai 2646
▁ــ 2645
يور 2645
▁(2007) 2645
妖 2644
▁دعني 2644
:30 2642
sc 2640
ــــــ 2638
▁رفاق 2638
ell 2637
2.2 2637
▁1964 2637
诡 2634
毙 2630
▁205 2627
郑 2625
▁270 2625
▁10) 2623
ani 2621
wa 2620
宅 2616
量子 2615
che 2614
▁ترب 2613
蝠 2612
زح 2612
▁أحاول 2612
寂 2608
▁× 2607
.- 2605
▁168 2604
اصر 2601
▁خائ 2600
▁متأك 2600
▁حدا 2598
甩 2595
▁09 2592
▁استطيع 2592
乐园 2591
矮 2589
▁(14 2589
▁فيل 2589
ki 2587
聋 2587
▁فلم 2586
pal 2583
妞 2583
▁167 2583
▁شاه 2582
陋 2581
穆萨 2580
ste 2580
fe 2579
▁رود 2579
press 2576
曝 2576
ti 2576
▁174 2576
mer 2575
粪 2575
▁لام 2575
فران 2575
▁بشر 2571
▁٢٠١ 2570
▁جائز 2568
360 2566
唆 2565
▁الآب 2565
▁تلف 2565
诵 2563
桩 2563
ادو 2563
30) 2562
ens 2558
ندس 2558
دك 2557
▁1954 2555
ux 2548
泣 2547
bb 2546
▁والدك 2546
og 2544
▁0.5 2544
ke 2543
▁(30 2543
▁غذ 2542
乞 2541
▁احد 2541
翔 2536
倘 2535
▁عرضه 2535
-21 2534
脆 2532
▁no 2532
祥 2529
▁100- 2529
يده 2528
ميش 2528
阀 2527
▁4.3 2526
هيا 2524
翅 2523
蝙 2523
xx 2523
3.1 2523
▁183 2522
-4) 2520
匿 2518
▁حت 2518
8: 2516
▁船 2514
▁!! 2513
لوس 2513
ana 2512
崔 2511
譬如 2510
泻 2509
ill 2509
迭 2508
▁(12) 2508
▁بالض 2507
روي 2504
驯 2502
▁انتظ 2500
▁www 2498
ضحك 2498
律法 2497
藉 2495
ena 2494
帆 2493
-2017 2491
1] 2491
roid 2488
冗 2488
▁دوم 2488
ation 2486
2.1 2486
▁ظننت 2485
▁هلا 2481
▁177 2478
涕 2477
▁181 2476
晕 2473
2] 2473
pl 2472
正直 2472
▁173 2472
▁172 2471
▁求你 2470
霉 2468
喘 2468
刮 2467
屡 2465
ome 2464
烷磺 2464
▁6: 2463
001 2462
▁ابن 2459
▁2.7 2458
▁لكنني 2458
虔 2457
垮 2456
槽 2452
宵 2449
羽 2446
▁5.1 2446
▁1946 2446
يهود 2446
踩 2445
▁280 2445
缚 2443
pop 2443
▁حساس 2442
氮 2438
▁176 2438
▁مناف 2438
▁1.8 2436
▁أفكر 2436
▁شغ 2436
吕 2435
渣 2434
昧 2432
▁身 2432
▁184 2432
▁~ 2431
▁(13 2430
▁شم 2430
贮 2429
演奏 2429
ary 2429
▁عرفت 2426
世人 2425
ينى 2422
iii 2421
.13 2420
▁(16 2419
/67 2415
▁خي 2414
隘 2411
▁is 2411
▁طالبان 2410
oc 2409
噩 2409
▁5.2 2409
洒 2407
▁لكنك 2406
菩 2405
冤 2405
捏 2405
▁اين 2405
▁mi 2400
▁قلم 2399
狩 2398
▁ممل 2398
分解 2394
蕉 2393
3.2 2393
孝 2392
▁استق 2392
辣 2391
اتك 2391
▁عموم 2391
▁مرتبط 2390
cf 2386
آخ 2386
utube 2385
▁(11 2385
▁كأن 2385
ابقت 2385
الى 2383
▁تبدي 2381
▁64- 2380
蜘蛛 2378
عش 2377
▁متأكد 2377
قاي 2377
ng 2375
▁فران 2375
-23 2374
渥 2373
▁٧ 2373
晒 2372
▁sp 2372
eg 2370
魏 2362
▁(17 2360
rob 2359
▁ايضا 2354
▁رأيك 2352
▁أيمكن 2352
铃 2351
沾 2350
茂 2348
led 2347
墅 2346
je 2345
嘲笑 2343
sk 2343
▁نار 2343
▁大学 2342
▁هار 2342
▁健康 2341
can 2341
▁171 2339
虾 2336
غاي 2336
eda 2334
ner 2332
▁1.7 2331
▁夫 2330
,[ 2330
راد 2328
▁عهد 2328
جج 2326
▁8) 2324
藤 2320
橡胶 2319
▁رم 2317
▁حو 2316
躁 2315
], 2314
▁■ 2313
琪 2313
▁3.4 2312
▁‫ 2312
酶 2311
为你们 2309
▁محو 2309
嵌 2304
cm 2304
▁iso 2303
▁سقط 2303
殊 2300
▁سال 2300
▁الامر 2299
▁少 2298
cel 2296
警戒 2294
▁اخر 2290
芙 2289
▁اك 2288
لانا 2287
捡 2286
孽 2285
gar 2284
奇妙 2283
▁حياتك 2282
▁فات 2281
▁ً 2277
▁the 2276
ert 2272
贤 2271
"" 2270
يسا 2268
▁مهلا 2268
mp 2267
-29 2267
今世 2266
赡 2266
▁مسح 2265
▁دل 2265
▁and 2264
秉 2260
瘘 2259
▁قار 2258
搏 2257
cy 2257
▁عوض 2256
▁معاملات 2255
flix 2251
ate 2251
住民 2246
par 2246
▁عرب 2245
fo 2244
肘 2244
▁ستر 2244
僧 2243
腕 2243
▁إسم 2243
▁ch 2242
los 2242
闷 2241
▁(0. 2241
unes 2240
的刑罚 2240
▁ازدواج 2240
沼 2239
要件 2238
▁سات 2237
雨水 2235
肮 2232
▁أقصد 2232
▁2-1 2231
ger 2230
ٍّ 2229
▁ناد 2228
ish 2227
梵 2226
锥 2226
▁موجودات 2224
▁تنه 2222
▁sh 2221
شون 2221
▁فار 2215
纱 2214
自己所 2213
ليغ 2213
cos 2212
-27 2212
苛 2211
▁مجنون 2211
▁mar 2210
▁320 2210
炒 2209
舟 2203
▁着 2202
▁6.5 2199
▁全体 2194
▁مشابه 2191
▁محتو 2190
▁التحص 2189
iso 2188
雀 2187
▁1955 2187
▁(1. 2186
▁شاهد 2183
俯 2179
稽 2178
iv 2178
脾 2177
ane 2175
▁روابط 2175
筋 2174
▁متو 2174
-26 2171
▁سح 2171
嘘 2167
/59/ 2167
碱 2166
飘 2166
驼 2162
:6 2159
؟" 2159
手法 2156
▁5.5 2154
▁550 2151
斟 2150
▁انفر 2149
▁sky 2148
▁9) 2146
صلى 2145
氢氟 2143
21. 2141
قدان 2141
رده 2141
慎重 2138
▁(25 2138
ity 2137
侄 2137
ازت 2137
▁宗教 2136
▁اعط 2136
bu 2135
贿 2134
堤 2134
° 2133
cia 2133
柳 2132
胚 2131
ure 2130
hn 2129
捣 2129
▁(11) 2129
gi 2127
ari 2127
▁رخص 2126
▁تذ 2126
▁4.4 2125
ماق 2125
贞 2122
▁1959 2122
3] 2122
لكم 2122
امان 2122
▁以上 2121
疚 2118
▁cc 2116
box 2115
:9 2115
ted 2115
钞 2114
▁خو 2112
▁عبور 2112
197 2111
نده 2110
▁212 2109
咸 2107
捆 2105
年末 2102
趴 2099
lia 2096
ze 2094
哎 2093
انى 2093
世界大 2092
天地 2089
杖 2089
▁حام 2089
▁ma 2088
25. 2086
▁خان 2083
▁مقاو 2082
啰 2081
厢 2080
摒 2079
▁225 2079
▁كرد 2079
سوب 2076
飙 2074
sm 2074
侪 2074
▁دوره 2074
▁故 2073
▁...... 2073
7] 2073
缮 2071
▁تعلمين 2069
ji 2063
碌 2062
van 2062
ah 2062
▁دان 2062
▁زو 2059
▁تلا 2058
乖 2055
恫 2053
ائنات 2050
غى 2049
لاي 2048
〉 2047
out 2046
ent 2045
骇 2045
td 2045
▁جوا 2045
▁car 2044
▁عراق 2044
迅 2043
洄 2041
قتك 2041
愁 2039
侈 2037
▁منافع 2034
sta 2033
lie 2032
莓 2030
chi 2029
▁داي 2028
وران 2027
24. 2026
50) 2026
gh 2025
اون 2024
gu 2023
雌 2023
▁1-1 2022
▁سمحت 2021
▁تعداد 2021
铐 2017
藻 2016
上回 2016
book 2014
瞩 2014
cha 2013
▁co 2012
انين 2011
up 2009
睫 2009
▁موح 2008
▁650 2007
su 2006
int 2006
霜 2005
▁سول 2005
冯 2000
跪 1999
ادار 1999
ريان 1999
ستل 1999
隙 1997
▁2). 1996
روز 1993
▁突然 1992
اهي 1992
▁1956 1991
▁يار 1990
担当 1989
▁2019. 1989
▁1957 1984
ارو 1984
▁قوم 1983
لهن 1983
iss 1982
▁خدمت 1982
fs 1976
شته 1976
▁am 1975
ig 1974
▁أيض 1973
ستو 1973
你们所 1969
对他们说 1968
▁مشك 1968
缸 1967
▁كس 1966
弦 1965
崎 1963
橡 1962
▁204 1958
▁"1 1957
ova 1954
4] 1954
▁ترس 1954
cu 1952
▁home 1952
蜡 1951
壹 1951
▁330 1951
改正 1950
my 1949
▁203 1949
-28 1948
ترين 1948
橙 1947
滕 1947
htt 1947
11) 1946
خه 1945
▁1947 1944
用意 1943
▁入 1942
偶像 1941
诋 1933
▁15) 1932
ماز 1932
ريون 1932
eth 1930
▁12) 1930
▁٨ 1930
爪 1929
浩 1927
▁6.1 1927
▁310 1927
▁منفرد 1927
溪 1926
6] 1926
▁تعامل 1924
▁2050 1922
يلان 1922
▁عج 1921
ثه 1919
法老 1918
▁11) 1918
▁رده 1918
▁it 1917
逮 1916
بى 1916
▁يان 1914
▁موع 1914
ker 1913
vin 1911
▁نور 1911
▁(2014) 1911
{ 1910
▁ge 1909
▁z 1908
▁ar 1908
▁235 1908
,17 1907
豚 1907
ik 1907
▁منطق 1907
ورن 1905
▁بشه 1905
بران 1903
狙 1902
紊 1901
▁al 1900
茜 1900
lu 1899
▁不可 1896
瘟 1895
uk 1894
nd 1894
姊 1891
▁اعلم 1888
驴 1885
ess 1884
rick 1884
▁محق 1884
梭 1883
ليو 1883
▁ميد 1883
▁شهري 1878
:10 1873
扁 1872
▁شعر 1872
▁حالا 1872
est 1871
)... 1870
韧 1869
▁(14) 1869
لهي 1869
vo 1867
▁طيب 1867
矣 1866
萎 1865
▁290 1863
留意 1861
asa 1860
忏 1860
懦 1860
ياتي 1859
▁طور 1857
ريز 1856
如果你们 1855
ino 1854
薯 1854
酵 1852
▁ذه 1851
▁[+] 1851
《渥 1850
〈 1850
▁android 1850
▁نر 1850
岳 1849
畏惧 1849
谟 1846
浇 1846
mu 1846
猖獗 1846
▁تعلق 1843
▁تمام 1841
▁خش 1841
ton 1840
▁y 1839
for 1838
篡 1837
绞 1837
\ 1836
▁7: 1836
hu 1833
弓 1833
▁15: 1831
泌 1830
land 1830
yan 1830
gen 1830
疤 1828
rive 1827
▁فرانس 1827
▁215 1825
竹 1820
> 1820
ئز 1820
هور 1818
袜 1817
▁(24 1816
▁اكثر 1814
ud 1813
庸 1812
蝶 1812
▁http 1812
ds 1811
▁زار 1811
傅 1810
her 1809
▁211 1809
睁 1808
den 1808
巴勒 1808
儒 1807
/2006 1806
▁ورود 1806
▁"3 1805
▁لوب 1805
▁3000 1804
▁هان 1804
-2014 1803
00. 1800
我们的主 1798
▁子 1798
▁ريا 1796
the 1792
آن 1791
▁(13) 1790
▁عاش 1790
▁أتم 1789
▁عصر 1788
▁8: 1787
ora 1786
med 1784
以降 1783
سند 1783
毅 1782
mba 1781
▁رابط 1781
ru 1780
22. 1780
硅 1778
裨 1777
▁وور 1775
婪 1774
揍 1774
▁左 1773
/2004 1773
ستا 1773
cle 1772
熬 1772
ale 1771
柠檬 1770
▁10% 1770
word 1768
▁مجد 1768
▁wi 1767
:- 1766
yn 1765
砂 1764
-40 1764
ura 1762
▁ab 1759
剔 1758
وسف 1758
茱 1757
سور 1756
▁tag 1755
▁1952 1755
玄 1754
纬 1753
▁فو 1752
撼 1751
ore 1748
▁(16) 1748
هيم 1746
hop 1745
行善 1742
▁吁请 1742
san 1741
钚 1741
上司 1740
mm 1739
▁word 1739
bit 1738
▁示 1738
狐 1738
▁لائق 1738
▁ناس 1737
哩 1736
▁1, 1736
,2015 1734
5] 1734
▁روز 1734
ea 1731
▁ورس 1731
浑 1730
▁(50 1730
▁معاش 1729
▁يوني 1729
乖乖 1728
berg 1727
诠 1727
▁استرال 1727
▁مالذي 1726
── 1725
pdf 1725
熔 1725
▁ht 1725
▁口 1724
fer 1723
ith 1722
▁自己 1722
撇 1722
-31 1722
辉 1721
罹 1720
▁ph 1720
▁روا 1720
▁(198 1720
▁206 1719
亩 1718
▁سقوط 1718
蜡烛 1716
els 1714
▁قوت 1714
▁مطابق 1714
虏 1713
ass 1710
اران 1710
let 1708
泼 1708
dec 1708
▁اصط 1708
▁واد 1708
▁re 1707
▁208 1707
窒 1706
喇 1705
骼 1704
pm 1704
▁(15) 1704
8] 1704
▁يوق 1704
瑜伽 1703
mon 1703
▁وري 1700
ist 1699
ite 1699
ali 1697
col 1696
槟 1694
坯 1694
数日 1692
▁سا 1692
▁全部 1691
▁1.9 1690
ندر 1689
▁جنا 1689
恩惠 1687
轿 1687
矢 1687
char 1687
▁^ 1686
____ 1686
▁340 1686
▁380 1686
"). 1686
株 1685
sd 1685
ben 1683
搅 1682
碘 1678
▁1929 1678
▁at 1678
__ 1678
▁فرا 1678
▁207 1677
瞧瞧 1676
茎 1674
▁sc 1674
盎 1673
曹 1671
▁") 1671
▁وام 1669
辉煌 1668
,, 1665
▁"2 1665
癖 1661
zon 1661
▁11: 1661
cal 1658
▁1500 1658
win 1656
溺 1655
淇 1655
▁مدد 1655
二人 1653
ros 1652
are 1652
▁مير 1652
vd 1651
pu 1651
▁صحت 1649
▁جائ 1649
15/ 1648
/2007 1648
ev 1647
葡 1647
兜 1647
▁ed 1647
▁عليكم 1646
▁تغذ 1646
涡 1645
悄悄 1643
昼 1642
窥 1642
▁net 1642
▁هج 1642
虹 1641
▁حضرت 1641
竖 1640
رائع 1640
日本人 1639
mail 1639
▁صدق 1638
▁هيو 1638
ماي 1638
研究者 1637
▁1-2 1635
ini 1634
tra 1633
▁خير 1632
ايل 1632
▁عار 1631
خور 1630
▁اضطر 1630
亭 1629
--- 1628
镖 1626
病院 1626
咯 1626
椎 1625
▁im 1625
▁ناب 1623
顺从 1622
▁air 1622
芳 1621
靴 1621
鸭 1619
掳 1618
ons 1616
▁باقي 1615
▁قف 1614
拣 1613
▁普通 1613
▁7.1 1613
-1. 1613
ama 1612
way 1612
你们当 1611
mat 1610
.[ 1610
▁216 1610
噬 1609
ara 1609
▁ساق 1609
cerd 1608
▁٩ 1608
▁850 1605
铸 1604
▁رض 1604
▁pro 1602
999 1601
蕴 1599
▁8.1 1598
▁اوه 1597
哑 1596
▁مخاط 1596
▁نقصان 1596
蹂躏 1595
lan 1595
30. 1595
▁ad 1595
芽 1594
tu 1594
炫 1594
sam 1594
抉 1590
▁واي 1589
▁معام 1589
bur 1588
诲 1586
ue 1584
wal 1584
▁275 1584
▁(22 1584
tic 1583
-2020 1583
▁(196 1583
袒 1580
▁تفاوت 1580
茅 1579
far 1579
骆 1579
lam 1578
咳 1578
▁هر 1577
锈 1575
gl 1575
نهي 1575
崖 1574
12/ 1573
cor 1572
昌 1572
▁وار 1572
▁ستم 1572
-35 1569
艳 1566
椰 1566
min 1566
▁th 1566
瀑 1564
ado 1563
幢 1563
▁صفر 1562
bra 1561
حيم 1561
▁حامل 1561
对你们 1560
cap 1559
ym 1559
帘 1559
晃 1559
僻 1558
▁شان 1556
▁br 1554
阈 1551
?" 1549
珥 1549
▁توخ 1548
▁100% 1547
▁as 1546
▁جاد 1546
狠 1544
▁منهن 1544
▁ذخ 1544
mb 1543
und 1543
▁نوب 1542
屑 1541
▁256 1539
▁عندي 1539
▁ساف 1539
mt 1537
ada 1537
▁14) 1537
▁اقتص 1537
枕 1536
▁مطالب 1536
后世 1535
秽 1535
▁لاس 1534
▁(28 1533
خان 1533
▁13) 1532
安定 1531
醋 1529
▁50% 1529
灼 1528
橱 1528
墟 1528
▁420 1528
▁مفه 1527
▁1967. 1526
ath 1525
▁2-3 1524
咋 1523
▁218 1523
▁13: 1523
▁زر 1523
tor 1522
▁عظ 1522
العمل 1522
禅 1521
old 1521
يمان 1521
▁سؤ 1521
-5) 1520
ope 1519
sl 1519
ida 1518
咙 1517
钴 1517
▁(27 1516
tag 1515
illa 1515
▁ظرف 1515
蹲 1514
吼 1512
▁da 1512
▁خم 1512
沸 1511
< 1511
jam 1510
呕 1509
氯苯 1508
▁قبض 1508
▁آف 1508
اعده 1507
羡 1504
ams 1503
邸 1503
祢 1502
岭 1500
▁ترج 1498
قوي 1498
▁ريت 1497
▁° 1495
▁غم 1495
ang 1494
ردا 1494
昔 1493
眷 1491
▁نفع 1489
姜 1488
,30 1488
▁01 1488
▁仲 1487
ars 1486
▁12: 1486
徐 1484
▁9: 1482
▁مشاه 1481
سول 1480
绅 1478
碟 1475
▁٢٠٠ 1475
斩 1474
▁sam 1474
وبه 1474
▁ca 1473
ire 1468
▁(26 1468
▁(23 1468
pace 1467
▁370 1467
▁؟! 1466
信道 1465
袍 1465
▁10: 1465
هات 1465
▁اى 1464
▁80% 1461
0% 1458
▁el 1457
弘 1456
cer 1456
朽 1455
▁خروج 1455
val 1454
燕 1452
酿 1451
蝴 1449
▁on 1449
▁رمز 1449
ابد 1449
卒 1448
峙 1448
▁1907 1447
孵 1446
▁ms 1446
:// 1446
att 1445
ذهاب 1445
胰 1444
ism 1444
▁اضطراب 1444
sim 1443
稠 1441
▁右 1440
酮 1439
▁"[ 1438
荧 1437
‧ 1435
禧 1434
zi 1434
笛 1433
cis 1432
mas 1431
ets 1431
幺 1431
ator 1430
棺 1429
巷 1429
play 1428
▁شخصي 1426
9] 1425
pay 1424
▁▪ 1424
▁2025 1424
▁td 1424
▁وره 1424
tion 1423
pad 1423
chael 1423
▁(2. 1423
烫 1422
▁سرد 1422
]] 1421
迷惑 1420
▁انني 1418
▁20% 1417
▁1988. 1417
▁وانا 1417
ks 1416
亥 1415
晴 1415
胳膊 1415
▁فيلم 1414
▁فرو 1414
bas 1413
eri 1413
▁ابدا 1413
port 1412
ward 1412
刹 1411
支派 1411
▁ec 1410
慧 1408
lem 1408
棱 1408
明日 1407
▁255 1407
ita 1406
▁متش 1406
▁sa 1405
~ 1404
una 1404
rad 1402
▁16) 1402
/98 1401
▁موسم 1400
▁سرور 1398
tech 1396
ano 1396
end 1395
mart 1395
', 1395
kh 1394
▁ضر 1394
蚂蚁 1393
eng 1391
▁1953 1390
缪 1388
敷 1388
مئن 1388
唬 1387
岌岌 1386
〇 1386
▁مبار 1386
“《 1384
忍耐 1383
ast 1382
▁تاري 1382
蛙 1381
▁(17) 1381
▁2, 1380
崭 1379
▁هوا 1379
碧 1378
栽 1378
赵 1376
yr 1376
外邦 1375
会合 1375
▁مشغول 1375
شاق 1375
殉 1373
▁ثرو 1373
اتور 1373
躯 1372
ju 1372
绸 1371
uc 1371
® 1371
ost 1371
冶 1371
▁excel 1371
▁بوين 1369
梨 1366
何人 1366
榈 1365
▁pet 1365
▁to 1364
ws 1363
▁اذن 1362
ep 1361
高校 1360
▁مذه 1360
▁جلب 1357
▁夜 1356
▁1). 1356
sch 1355
gs 1355
راو 1355
share 1354
als 1354
▁1944 1353
惰 1351
诀 1350
bt 1350
dd 1348
ras 1348
▁"" 1348
ind 1346
▁le 1346
你的主 1345
ona 1345
ric 1342
▁物 1341
▁بسر 1341
▁必要 1340
▁متفاوت 1340
嗜 1339
熄 1338
▁افضل 1338
▁اني 1338
▁人生 1336
▁男性 1336
▁بوش 1336
ods 1335
▁cat 1335
羔 1334
lor 1334
met 1333
الان 1333
▁440 1331
▁انهي 1331
pat 1330
▁share 1330
isa 1328
捧 1327
趾 1327
adi 1327
▁200. 1327
▁de 1327
وته 1327
▁جامع 1327
▁"4 1326
▁دست 1326
我的主 1325
▁"5 1325
▁معلم 1325
▁رات 1325
冕 1324
▁in 1324
▁شين 1324
▁خد 1324
▁2030. 1323
▁youtube 1321
▁تناسب 1321
0). 1321
ern 1318
C 1317
jan 1317
葱 1317
cher 1316
▁pp 1316
eldon 1316
▁عاط 1316
逞 1315
扳 1315
苍 1314
剃 1314
▁§ 1314
power 1313
注目 1313
▁la 1313
الز 1312
-2. 1310
/2003 1310
نجي 1310
逛 1307
ney 1306
▁236 1306
俾 1305
▁ste 1305
▁90- 1305
pan 1302
mit 1301
锯 1301
▁今日 1300
dy 1299
▁○ 1297
怪我 1296
▁325 1296
ran 1294
斧 1293
▁ac 1293
▁برد 1293
tt 1292
شتى 1292
▁gc 1291
▁نوم 1291
ong 1288
硝 1288
▁301 1288
▁17) 1288
▁لاب 1288
辙 1287
▁1939 1286
▁1930 1284
▁نصب 1284
bla 1283
▁mp 1283
ls 1282
▁3). 1282
使你们 1281
苍蝇 1277
cas 1277
惮 1277
稚 1277
همه 1277
▁خوف 1276
鸽 1272
▁بود 1272
hd 1271
ere 1271
uri 1271
▁1933 1271
ero 1270
畸 1270
▁1997. 1270
锤 1269
▁20) 1269
"! 1269
歹 1268
ـــــــ 1268
▁ودوا 1267
vr 1266
▁90% 1266
▁سون 1266
▁تان 1266
coin 1264
aa 1264
掏 1264
▁power 1263
涤 1262
▁2.0 1262
▁وزن 1261
▁الآخ 1261
nt 1259
▁متحد 1259
af 1258
▁1940 1258
ald 1257
朋 1256
掀 1256
ll 1256
嘲 1255
▁an 1255
▁جا 1255
aw 1254
▁هز 1254
嗅 1253
竣 1253
镍 1253
ku 1252
钝 1252
hal 1250
▁480 1249
境界 1248
除去 1248
寞 1246
▁ak 1245
▁(0 1245
▁(' 1245
▁١٠ 1245
war 1243
hl 1242
▁430 1240
elle 1239
▁سنا 1239
▁زن 1239
▁باج 1238
怂恿 1237
▁حرف 1237
慈的 1236
钙 1236
lah 1236
ata 1235
ott 1235
ink 1234
▁قوله 1234
que 1233
▁(40 1233
لوب 1233
▁عادت 1233
▁باس 1230
▁2-4 1229
fin 1228
rt 1228
鳄 1228
熏 1228
lip 1227
▁21) 1227
iz 1226
era 1225
▁3, 1224
廓 1223
哟 1223
mis 1223
▁حيوان 1223
酸化 1222
呵呵 1221
酯 1220
xi 1220
煎 1220
ise 1219
狸 1219
▁مخل 1219
▁يال 1219
塘 1217
▁← 1217
yah 1217
× 1216
▁..... 1216
ike 1215
俟 1214
安心 1214
入手 1214
馅 1213
zo 1212
wh 1212
bon 1212
▁حاض 1212
▁ii 1211
▁er 1211
▁خلاص 1211
靶 1210
sen 1210
-34 1209
▁١٩ 1209
;" 1208
oth 1208
▁18) 1208
栓 1207
玷 1206
ten 1205
▁سلامت 1205
由来 1204
薛 1204
ug 1203
▁em 1203
▁حوض 1203
▁pay 1202
▁ينب 1202
淀 1201
氓 1200
彦 1199
▁ناه 1199
匆 1198
eh 1198
▁10:00 1197
bert 1196
▁ea 1196
肴 1194
▁40% 1194
ide 1192
-50 1192
饵 1191
腓 1190
卦 1190
dan 1190
pen 1190
▁tags 1189
md 1189
幌 1189
牟 1187
▁[[ 1187
eno 1186
▁عندك 1186
▁ستار 1186
وئ 1186
8-1 1186
▁آر 1185
▁لوم 1185
抨 1184
诬 1184
▁سود 1184
▁مجرم 1184
赏赐 1183
▁صاغ 1183
ces 1182
▁dc 1182
xt 1181
梳 1181
▁520 1181
萘 1180
▁قاتل 1180
air 1178
▁جسم 1178
cript 1176
▁♦ 1175
▁انج 1175
▁تاس 1175
▁تماس 1175
gra 1174
─ 1173
那日 1173
uni 1171
樱 1170
钠 1168
sg 1168
▁(3. 1167
沈 1166
馨 1166
nn 1166
ray 1166
ven 1165
ty 1165
inc 1164
▁خالص 1164
讳 1163
拙 1163
▁ama 1163
▁زخ 1162
ung 1161
max 1159
ony 1159
vis 1158
▁john 1158
ene 1156
悍 1156
▁1994. 1156
瓷 1155
猿 1155
]: 1155
▁مطبوع 1155
aya 1154
▁﴾ 1154
明证 1152
ade 1151
▁304 1151
,000 1151
惫 1150
▁لفظ 1150
徘徊 1149
yd 1149
▁جاز 1149
vs 1148
xy 1148
▁1200 1147
▁木 1144
拮 1144
lim 1144
اهه 1144
orer 1143
肋 1143
▁pa 1143
全然 1141
▁ja 1141
萤 1140
ord 1140
ics 1139
▁06 1139
桂 1138
rome 1136
jer 1136
line 1135
蔗 1134
der 1134
▁30% 1134
▁شراب 1134
▁زخم 1134
rep 1133
▁مقاصد 1133
皱 1132
▁خزان 1132
rich 1131
ats 1130
丫 1130
▁or 1130
▁خات 1130
▁عه 1130
皈 1129
▁؛ 1129
锌 1127
▁فون 1127
栅栏 1126
sat 1125
mad 1125
▁70% 1124
不义 1123
age 1123
膛 1123
氯苯酚 1122
▁1920 1121
茵 1120
▁عنق 1120
― 1119
▁\ 1119
▁4000 1119
oni 1118
翠 1118
▁5). 1118
ush 1116
绊 1116
ياني 1116
راش 1115
ربه 1115
殷 1114
bd 1114
cam 1114
▁1942 1114
ble 1113
lic 1113
yl 1113
呗 1113
▁€ 1113
ele 1112
毋庸 1112
▁sw 1112
▁سلس 1112
▁دنيا 1112
esa 1111
cts 1111
邑 1111
锰 1111
寇 1111
▁غار 1110
▁مام 1110
mg 1109
▁ده 1108
谕 1107
lab 1107
▁1941 1107
▁chr 1107
:7 1106
▁― 1106
▁متعلق 1106
▁tv 1103
bal 1102
▁es 1102
▁19) 1102
意欲 1101
ati 1099
ira 1099
:8 1099
妃 1098
▁ib 1098
bol 1097
∗ 1097
▁ِ 1097
跤 1096
▁1925 1096
-2016 1096
تله 1096
ese 1095
rs 1094
▁سرطان 1094
red 1093
戳 1093
ye 1093
抖 1093
蚁 1093
莽 1091
▁قات 1091
gn 1090
2-1 1090
tri 1089
ima 1089
bat 1089
▁→ 1089
▁□ 1086
▁bar 1086
▁حقي 1086
▁تصوير 1085
:) 1084
▁ذاتي 1084
▁باغ 1083
▁آرا 1083
/97 1081
灿 1079
fox 1079
稼 1079
郭 1078
▁26) 1077
زور 1076
ريو 1074
star 1073
mag 1073
萌 1071
cker 1071
▁نادر 1071
▁محفوظ 1071
1-1 1071
籽 1070
▁18: 1070
▁غل 1070
ua 1069
壶 1069
傍 1068
▁(4. 1068
汝 1067
lat 1067
刃 1067
▁١٢ 1067
▁بى 1067
嚣 1066
伎 1066
info 1064
▁واب 1064
lay 1063
▁har 1061
▁شت 1060
▁سنه 1060
涛 1059
▁os 1059
▁درس 1059
gre 1058
谭 1058
勺 1058
▁02 1058
▁4). 1058
tics 1057
▁5% 1057
▁يور 1057
焉 1055
湄 1055
▁60% 1055
ئام 1055
睐 1054
▁المثل 1054
厥 1053
▁mis 1053
▁27) 1053
ella 1052
哄 1052
加盟 1051
▁twitter 1051
▁ساخ 1051
真主是 1050
同我 1050
pas 1049
直面 1049
sha 1048
▁(60 1048
翰 1047
ete 1047
枉 1047
拘束 1047
ory 1047
▁04 1047
▁1917 1046
▁ur 1046
沛 1045
▁درج 1044
▁3-4 1044
▁1982. 1042
كاي 1042
锂 1041
颅 1041
wn 1041
ندان 1041
internet 1040
暇 1040
هار 1040
▁بافت 1040
tify 1039
▁[...] 1039
du 1038
▁آه 1038
hen 1037
▁© 1037
av 1036
ult 1036
咽 1036
"[ 1036
▁1888 1036
مانه 1036
唉 1035
mark 1034
gan 1034
cre 1032
矛 1032
▁1900 1032
▁03 1032
▁محب 1032
▁صورت 1032
睿 1031
▁ساي 1031
排出 1029
▁1986. 1029
بب 1029
▁باش 1029
/95 1028
fl 1027
watch 1026
▁950 1026
穆斯 1025
▁急 1024
osa 1024
ings 1024
-33 1024
ame 1023
lash 1022
确已 1021
▁gt 1021
▁عس 1021
ori 1020
▁22) 1020
▁ياس 1019
诀窍 1018
bro 1018
蒜 1018
000. 1018
▁قرن 1018
宗族 1017
oz 1017
▁23) 1017
笃 1015
ban 1015
ren 1014
▁cn 1014
▁تار 1014
弟子 1011
nu 1011
▁صادق 1011
你们不要 1009
nor 1009
zer 1008
▁1.0 1008
▁7). 1008
if 1007
wan 1007
▁سنج 1007
▁غور 1007
var 1006
▁عالي 1006
▁معتقد 1006
觅 1005
▁720 1005
▁يري 1005
驭 1004
mann 1004
黏 1003
▁29) 1003
برد 1003
怯 1002
▁25) 1002
ندن 1002
”” 1000
狡猾 1000
▁24) 1000
▁教会 999
vol 999
▁2500 998
وقت 998
▁歌 997
oll 997
臀 997
赞颂 996
cho 996
au 996
bl 994
rom 994
itt 994
تار 994
▁لار 994
钾 993
▁متق 993
大半 992
well 992
拱 991
▁宇宙 991
ors 991
▁ap 991
▁4, 991
str 990
▁1860 990
▁غال 990
fan 989
拢 988
▁حتما 988
▁مرغ 988
ctor 987
▁led 987
▁كا 987
ceo 986
ee 986
▁540 986
呵 985
plus 985
燔 985
暨 984
宋 984
oss 984
bel 984
嫖 984
▁pi 984
ford 983
▁1918 983
fid 982
,100 982
edd 982
捅 982
▁1-3 982
alt 981
"... 981
vas 980
ett 980
椒 980
禄 979
tim 979
▁ne 979
/43 979
天神 978
kr 978
▁op 978
inter 977
▁5, 977
..... 977
▁يقين 977
kin 976
辣椒 976
○ 975
▁2021 975
3-1 975
py 974
fran 974
▁14: 974
烘 973
铀浓 972
▁sch 972
cent 971
锚 971
uth 971
▁max 971
▁16: 971
ef 970
▁١٥ 969
▁طبق 969
▁-1 968
دولار 968
▁نفوذ 968
▁يوس 968
oma 967
erson 967
▁black 967
▁"10 967
▁1943 966
橘 965
▁2016. 965
▁اعتقاد 965
has 963
tie 963
正道 962
▁罪 962
鳍 962
▁آي 962
癫痫 961
杭 961
dar 961
km 960
窑 960
ists 959
ala 958
唾 957
لص 957
bis 954
舔 954
焊 953
▁server 953
▁فاس 953
▁مخدر 953
天国 952
wer 951
▁ro 951
惶 950
pira 950
▁جاي 950
▁6). 950
▁داغ 950
az 949
楷 949
"- 949
رل 949
low 948
▁dv 948
▁زود 948
del 947
睾 946
tar 946
mos 946
zz 946
ette 946
ody 945
▁شوه 945
拇 944
▁gr 944
▁مطلق 944
▁be 943
___ 943
灶 941
釜 941
vel 940
酝酿 940
use 940
▁en 940
xa 939
kp 939
osh 939
usa 939
▁whats 939
▁مورد 936
▁(2). 935
▁et 933
眨 932
▁ذري 932
铃薯 931
▁; 930
شياء 930
uss 929
▁اضاف 929
焕 928
▁امتحان 928
弧 926
cla 926
wood 925
作成 925
cir 925
▁1980. 925
▁بؤ 925
ode 924
扛 924
▁pdf 924
▁ماء 924
ومان 924
▁lin 923
恢 922
mor 922
寝 922
▁لاش 921
▁ساحل 920
زد 920
掺 919
ناو 919
▁se 918
داي 918
▁最大 917
ach 917
▁mo 917
-45 917
ٌّ 917
mw 916
wil 916
▁انح 916
▁1904 915
▁ok 915
娇 914
痊 913
,2017 912
垦 912
tom 912
▁08 912
ort 911
▁例 911
彗 911
▁必 910
▁ماب 909
ust 908
▁"9 908
اشت 908
وون 908
▁تال 907
thon 906
窘 906
尧 906
▁ga 906
▁معلوم 906
▁بروز 906
柿 905
leg 905
over 903
痒 902
▁911 902
nb 901
mus 901
蘑菇 901
▁1800 901
▁بنظر 901
▁4-5 901
ema 900
▁ex 900
ake 899
▁ag 899
▁ارا 899
▁tr 898
梗 897
▁ir 897
吟 896
▁ps 896
▁فارغ 895
▁وسا 895
▁10). 895
sal 894
▁赤 894
omas 893
赃 893
▁bo 893
7-1 893
伺 892
拭 891
ose 891
aver 890
pil 890
▁510 890
sec 889
ational 889
太平 889
皿 888
▁oneno 888
ime 887
ami 887
绷 887
扪 887
▁"... 887
▁rob 886
pre 885
ark 885
bak 885
may 883
▁ado 883
oro 882
▁(5. 882
ico 881
visor 881
▁اول 881
▁استد 881
糙 880
▁街 880
喧 879
amb 879
aro 878
/46 878
▁li 874
挟 872
00) 872
▁2020. 872
hel 871
▁موسى 871
▁خوان 871
同僚 870
jim 870
▁1919 869
nik 868
ree 868
黯 867
菊 867
▁1938 867
▁خلا 866
▁将来 865
▁باي 865
▁تما 865
▁10000 864
▁ارد 864
耸 863
ron 863
绣 863
▁فرز 863
▁言 862
▁30) 862
▁جذب 861
沐 860
绰 860
杏 860
烁 860
▁fran 860
▁6, 859
▁يام 859
蝇 858
cks 858
殃 858
eme 857
蹄 857
▁1914 857
ick 856
熙 856
آل 856
▁موضوعات 856
畔 855
▁عمد 855
oto 854
field 854
ond 854
▁ale 854
▁1936 854
▁me 854
amwe 853
++ 852
يدير 852
arch 851
▁575 851
▁الاب 851
闸 850
jack 850
家畜 849
tur 849
▁sm 849
▁١٨ 849
▁زور 849
上手 848
ky 848
嗑 847
▁رضا 847
ايي 847
hats 846
褐 846
▁فيك 846
▁هاو 846
نجو 845
▁محقق 845
全能 844
esh 844
ank 843
躬 842
▁اتم 842
berry 841
urah 841
▁برس 841
kat 840
اتان 840
秦 839
fat 839
榨 839
▁واقعي 839
陨 838
▁bb 837
▁واقعا 837
娼 836
nas 835
ونج 835
row 834
喽 834
ؤن 834
蝎 833
叮 833
oh 833
▁تولد 833
▁تصاد 831
ase 830
▁معذ 830
bot 829
len 829
不信道 828
▁25% 828
nc 827
韵 827
▁موم 827
▁so 826
▁رخ 826
栗 824
eli 824
sap 824
▁[2 824
靖 823
any 823
▁ss 823
磐 822
ster 822
ينيز 822
she 821
▁我必 821
,2018 820
▁طاقت 820
傀儡 819
▁ho 819
▁404 819
▁دوب 819
hy 818
料理 818
▁vi 818
屉 818
▁mc 818
لاش 818
婉 817
js 817
:00 817
ign 816
殆 815
jar 815
ورس 815
牵扯 814
oli 813
▁mt 813
▁pc 812
يندي 812
缀 811
mal 811
署名 811
gov 811
▁15% 811
ماغ 811
魄 810
world 810
▁قه 810
▁he 809
ew 809
▁6000 809
枣 808
wat 808
砾 808
الذ 808
札 807
ئع 807
▁جور 807
瞰 806
hor 806
腻 805
▁مود 805
mel 804
don 804
cus 804
ć 804
لاري 804
bay 803
ander 803
舵 803
▁٢٠ 803
emy 802
’’ 802
لاة 802
rog 801
荫 801
▁دوام 801
الفت 801
兰经 800
eld 800
猥 800
忿 800
▁post 800
▁ra 800
▁نفت 800
bus 799
▁07 799
▁صنعت 799
4-1 799
颤 798
zar 798
▁هور 798
哮 797
▁ساعت 797
悚 796
降下 796
chen 796
孚 795
bor 795
ild 795
men 795
▁1932 795
nie 795
鲑 794
bir 794
edin 793
谚 793
庚 793
▁1889 793
▁401 793
▁17: 793
菱 792
imp 792
瑕疵 792
▁tri 792
▁فوت 792
pic 791
烃 791
2" 791
▁باق 791
منى 791
5-1 791
rat 790
ling 789
苟 789
诏 788
▁28) 788
渍 787
▁درب 787
叭 786
赘 785
渺茫 785
▁ali 785
▁7, 785
دوم 785
▁1% 784
呋喃 784
الض 784
假若 783
烹 783
‘‘ 783
▁next 782
dam 782
▁مهاجر 782
view 781
illi 781
▁go 781
naq 781
帧 780
lyn 780
囤 780
zen 780
reg 780
mes 779
bank 779
犀 779
▁dr 779
nh 778
▁元 778
▁فساد 778
aly 777
▁8). 777
imo 776
inn 776
ally 776
火狱 775
窖 775
哼 775
蠕 773
under 773
ela 773
▁آج 773
تلي 773
▁مطلب 773
isis 772
嬉 772
凳 772
▁3.0 772
吏 771
fu 771
bin 770
近代 769
咐 769
eta 769
▁انتقاد 769
▁فط 768
▁سوي 768
绒 767
pos 766
pri 765
煞 765
▁(194 765
▁محسوب 765
ware 764
kn 764
hat 763
舅舅 763
氯氟烃 763
phi 762
桨 762
疽 762
siri 760
谛 760
tec 760
link 759
des 759
yk 759
▁آلات 759
sar 758
▁-19 758
rey 758
▁we 758
▁eb 758
镁 757
gg 757
盏 756
:15 756
▁ha 756
▁inf 756
مادي 756
ily 755
▁[3 755
▁رزق 755
omi 754
▁siri 754
]) 754
ance 753
enn 752
肛 752
▁aw 752
,2016 751
▁app 751
▁one 751
▁1400 751
راست 751
ids 750
unt 749
▁[4 749
钛 748
key 748
孀 748
▁ميم 748
敛 747
烬 747
澜 747
▁fi 747
▁access 747
▁play 747
store 746
fore 746
umb 746
▁ni 746
▁expl 746
▁شرم 746
你们应当 745
烙 745
▁0, 745
寥寥 744
▁نان 744
ودو 744
匆匆 743
▁blockchain 743
oned 742
ove 742
tp 742
▁1923 742
5%) 742
▁9). 742
̇ 741
light 741
sem 741
罔 741
▁12). 741
蝗 740
rian 740
▁300. 740
芥 739
▁روم 739
ader 738
trans 738
▁1935 738
▁internet 738
▁1979. 738
袁 737
▁si 737
1-2 737
那末 736
友情 736
窍 736
壕 736
]" 736
嗽 735
kov 735
anda 735
:12 735
law 735
▁11). 735
朕 734
ves 734
》《 734
bre 733
荆 733
sur 732
bet 732
画像 732
掸 732
▁di 732
▁my 732
-197 732
▁يهود 732
茫 731
ops 730
ken 730
▁wil 730
▁oc 730
ener 729
竿 729
house 728
沥 728
▁3-5 728
elli 727
asi 727
375 727
▁برج 726
▁食 725
ito 725
ider 725
▁for 725
▁شا 725
cry 724
kas 724
▁who 724
▁1921 724
inder 723
撮 723
▁> 723
pha 722
髦 722
10, 722
▁ber 722
喋 721
▁--- 721
▁ماش 721
“哦 720
chat 720
▁< 720
▁1981. 720
▁قرض 720
▁داني 720
▁اطلاع 719
素材 718
媳 718
▁par 718
▁blu 718
凹 717
▁cloud 717
▁فلس 717
via 716
▁sim 716
▁[1 716
cad 715
缝纫 715
▁سوم 715
虞 714
攫 714
▁bit 714
!) 714
▁cm 713
▁com 713
▁sq 713
栽培 712
▁友 712
por 712
▁亦 712
急速 712
楠 712
秃 712
-4. 712
▁1975. 712
鼎 711
▁جذاب 711
dis 710
!. 710
▁درست 710
狠狠 709
▁cl 709
▁معرف 709
atra 708
跋 708
-100 708
蔡 707
rah 707
ui 706
宙 706
▁++ 706
nm 705
inger 705
lit 705
窜 705
شام 705
娴 704
▁red 704
▁(20) 704
اهو 703
▁برق 703
劾 702
rd 702
oper 702
▁آت 702
吝 701
胱 701
rist 701
▁pr 701
▁لازم 701
6-1 701
burg 700
▁1978. 700
跻 699
巅 699
▁cor 699
▁-2 699
،، 699
阪 698
its 698
part 697
▁1928 697
▁mon 697
eni 696
bou 696
▁تقريب 696
淑 695
▁ri 695
缄 694
▁1984. 694
mak 693
يندا 693
jon 692
酚 692
岔 691
▁eur 691
vit 690
半期 690
uts 690
▁حاضر 690
اسين 690
work 689
-60 689
栈 687
omo 687
镶 687
涝 687
▁داو 687
酰 686
enger 686
丐 685
夭 685
凄 685
▁cs 685
▁▲ 684
丈 684
嫂 684
inda 684
▁2% 684
▁بست 684
elo 683
哗 683
煎熬 683
nes 682
▁يولى 682
祀 681
坍 681
掐 681
▁1931 681
▁بابا 681
瞪 680
洼 680
▁tom 680
▁75% 680
cur 679
媚 679
凤 679
sy 679
蒿 679
▁1937 679
-3. 679
▁عقل 679
يتن 679
▁char 678
▁20: 678
hol 677
磺 677
▁4.0 677
TM 676
嗓 676
踊 676
▁mat 676
anti 675
▁lyn 675
▁[10 675
▁محبوب 675
rader 674
lex 674
拧 674
ix 674
▁gb 674
▁مؤثر 674
幔 673
dom 672
砷 672
曙 672
▁can 672
▁ماج 672
涯 671
fre 671
▁up 671
اتى 671
迥 670
碾 670
▁1977. 670
昨日 669
▁理解 669
tern 669
姨妈 669
▁唔 669
天经 668
isk 668
▁-" 668
▁بيش 668
lib 667
ango 667
ters 667
▁son 667
otos 666
蟹 666
怠 665
aki 665
▁ben 665
嘿嘿 665
▁fr 665
▁زان 665
fire 664
andre 664
茹 664
茉 664
اجي 664
出演 663
神殿 663
▁صفح 663
lik 662
omb 662
▁8, 662
▁مهر 662
▁نحب 662
api 661
汪 661
凤凰 661
kam 661
orge 661
rank 661
▁8000 661
رفته 661
▁دن 661
lad 659
base 658
shi 658
mur 658
▁1934 658
咧 658
▁نقد 658
wo 657
mr 657
惭 657
umay 657
ــــــــ 657
okie 656
箴 656
log 656
aka 656
▁1926 655
▁inc 655
▁طريقي 655
▁راغ 654
cht 653
〝 653
1" 653
▁gala 653
pify 652
屌 652
▁mor 651
茁 650
卉 650
mir 650
lee 650
pol 650
وندو 650
制限 649
0.000 649
▁396 649
▁ممنوع 649
pf 648
ont 647
eka 647
dre 646
قافت 646
▁تقا 646
▁watch 645
dou 644
▁1905 644
▁سوت 644
لش 644
颤抖 643
▁دوس 643
hab 642
嚼 642
▁19: 642
▁اخذ 642
dn 641
uma 641
戊 641
).. 641
▁[5 641
▁راجع 641
ئس 641
月末 640
ovi 640
kal 640
▁ba 640
▁توي 640
lov 639
▁ti 639
▁[6 639
▁برش 639
▁تعمير 639
▁تعالى 638
▁信仰 637
垢 637
忱 637
卯 637
▁ارب 637
java 636
ence 636
uh 636
▁مها 636
gala 635
▁may 635
▁سالم 635
▁انتي 635
sil 634
▁命 634
寐 634
兵器 634
▁iii 634
▁hp 634
-5. 634
有好多 633
mh 632
匣 632
iro 632
ngo 632
é 632
甫 631
mil 631
amo 631
ations 630
▁sun 630
▁super 630
▁7000 630
▁باري 630
jen 629
▁pen 629
ابن 629
▁آنا 629
▁◆ 628
ula 628
撬 628
▁2022 628
oup 627
∙ 627
nam 627
▁"' 627
▁دوران 627
褪 626
nja 626
睬 626
炬 626
bob 626
obo 625
瓣 625
zh 625
ison 625
崽 625
▁ng 625
▁vol 625
渝 624
dh 624
踝 624
▁man 624
▁740 624
叩 623
姻 622
尹 622
醚 622
浓铀 622
拽 621
▁مشهور 621
襟 620
▁737 620
gy 619
绌 619
闺 619
▁色 618
kir 618
淤 618
解析 617
yt 617
bh 617
廖 617
tre 617
▁wal 617
▁براد 617
▁95% 616
/100 616
▁news 616
▁ep 615
▁برون 615
▁زائد 615
kor 614
▁spo 614
., 614
▁محض 614
▁دوغ 614
cast 613
▁قطعا 613
俭 612
辽阔 611
▁1910 611
univers 610
秤 610
jas 610
,] 609
يشه 609
▁برف 609
emba 608
rin 608
▁31) 608
xel 607
▁inter 606
:21 605
枷 605
邱 605
▁pe 605
▁su 605
jane 605
哇哦 605
alo 604
idi 604
溅 604
蟑螂 604
imana 604
▁جال 604
fit 603
nan 603
edo 603
恙 603
▁om 603
摈 603
▁─ 602
▁az 602
▁1600 602
▁استقل 602
organ 601
翘 601
▁jo 601
▁حلو 600
敕 599
憋 599
▁[7 599
ورم 599
هره 599
《濒 598
▁1100 598
▁store 598
٪ 598
بوع 598
““ 597
gal 597
yar 597
▁1894 597
～ 596
瘠 595
nah 595
▁dre 595
▁ce 595
▁il 595
昵 594
nat 594
iri 594
lot 594
jes 594
▁سدا 594
vic 593
▁title 593
一言 593
鹦鹉 593
蜗 593
▁1927 593
▁باع 593
▁然 592
鳏 592
▁1912 592
03. 592
▁international 592
▁plus 591
َّ 591
▁تعجب 591
▁مضبوط 591
intern 590
fal 590
ange 590
▁mer 590
الآن 590
-2- 590
圳 589
▁ted 589
粥 588
oks 588
卤 588
▁av 588
ender 587
raf 587
唔 587
▁oh 586
ترو 586
渲 585
弈 585
ots 585
qo 585
▁اختلال 585
氦 584
yi 584
馑 584
朔 584
mond 584
▁tra 584
▁مرد 584
iti 583
lav 582
烛 582
uli 582
苔 581
▁1908 581
▁3% 581
▁مهاج 581
铎 580
ced 580
禀 580
wen 580
ونون 580
▁fire 579
▁express 579
鞠 578
bes 578
芮 578
钳 577
▁arch 577
▁مصنوع 577
kan 576
orton 576
最良 576
▁1906 576
▁22: 576
▁غوا 576
▁جرم 576
time 575
had 575
送信 575
▁راح 575
access 574
▁بعدا 574
▁1916 573
▁ot 573
▁› 573
▁rs 573
▁33) 573
ــــــــــــــــ 573
▁مختصر 573
-1- 573
note 572
镀 572
▁[8 572
▁ايت 572
sho 571
enti 571
urs 571
▁con 571
▁surface 571
آد 571
螨 570
▁"19 570
▁1903 569
▁عاق 569
涩 568
1; 568
匕 568
▁online 568
/2013. 568
▁1896 567
▁1850 567
▁جاس 567
▁(18) 567
▁ros 566
osp 566
▁photos 566
...) 566
吠 565
but 565
olo 565
ction 565
犊 565
mun 565
▁university 565
裘 564
▁ju 564
▁ke 564
ورش 564
扉 563
▁by 563
睁睁 563
[2 563
6-2 563
ative 562
mah 562
tab 562
lis 562
تلر 562
sin 561
▁hi 561
-2018 561
▁bi 561
ika 560
▁999 560
▁راه 560
رئ 560
:18 559
▁رون 559
ومه 559
▁13). 559
io 558
出会 558
soft 558
hri 558
sun 557
care 557
蛊 557
▁na 557
▁كى 557
غاندا 557
jose 556
usta 556
ips 556
劈 556
▁1300 556
مره 556
恍 555
ems 555
滔 555
琢 554
▁bu 554
▁(19) 554
face 553
炊 553
▁1915 553
▁1983. 553
ato 552
铢 552
ola 552
________ 552
leid 551
prog 551
▁,, 551
زمان 551
get 550
▁奴 550
tv 550
▁1899 550
▁محروم 550
湛 549
攒 549
:11 549
赦的 548
ville 548
▁trans 548
▁9, 548
eto 547
道具 547
ilo 547
▁tor 547
▁dan 547
ille 546
hs 546
edu 546
hah 546
▁ie 546
▁قطار 546
lak 545
▁nt 545
▁1972. 545
▁力 544
cit 544
uf 544
▁ll 544
vu 543
not 543
bag 543
eu 542
▁gu 542
bos 541
鞑靼 541
▁ai 541
dg 541
rod 540
汐 540
渺 540
cci 540
笞 540
蚤 540
▁بشن 540
ites 539
lou 539
鹤 539
alla 539
ull 538
馏 538
α 538
▁15). 538
roso 537
kim 537
risto 537
oe 537
ido 537
uer 537
▁bitcoin 537
▁1961. 537
vir 536
lock 536
▁1922 536
▁10, 536
يى 536
▁فيض 536
وفان 536
▁ناخ 536
uch 535
inson 535
dor 534
▁dec 534
▁21: 534
وندا 534
▁موجب 534
hub 533
cra 533
▁jack 533
emo 532
ment 532
憧 532
▁1924 532
▁ارتب 532
媲 531
cin 531
怡 531
emi 531
婿 531
▁lu 531
▁instagram 531
asp 531
▁منتخب 531
▁16). 531
▁ببن 531
9-1 531
他们的主 530
rie 530
▁1911 530
▁pl 530
▁32) 530
lid 529
▁image 529
sir 529
▁مساف 529
station 528
elf 528
▁-3 528
change 527
lian 527
sense 526
感想 526
▁3500 526
wit 525
dj 525
雏 525
镰 525
chu 525
擒 525
▁537 525
▁(24) 525
觐 524
穹 524
anna 524
▁leon 524
▁nasa 523
ila 523
arah 523
姑姑 523
镉 523
▁md 523
▁cou 523
▁14). 523
pod 522
歼 522
惋 522
侏儒 522
elt 521
▁met 521
rus 521
▁ظن 521
▁مصلحت 521
▁خور 521
bian 520
讹 520
dex 520
▁previous 520
憬 520
臆 520
uber 518
穗 518
edi 518
讷 518
鳕 518
颊 518
mod 517
right 517
虱 517
蹦 517
▁per 517
▁cap 517
▁شيل 517
▁تجه 517
bul 516
ando 516
3" 516
▁نسل 516
open 515
kit 515
chan 515
anga 515
-2019 515
وسو 515
▁(22) 515
悄 514
葵 514
gas 514
lus 514
will 514
▁gl 514
▁※ 513
▁مسلم 513
ery 512
hip 512
nov 512
hil 512
▁her 512
▁39) 512
▁رهي 512
▁ازد 512
:* 511
▁eli 511
▁new 511
甥 510
▁cy 510
ماو 510
ret 509
yer 509
▁space 509
▁666 509
بحت 509
萃 508
ih 508
wis 508
合意 508
bad 507
hin 507
hir 507
db 506
绎 505
obal 505
day 505
蛛 505
▁kh 505
▁لطف 505
4-2 505
降示 504
,' 504
肽 504
孰 504
▁sho 504
لوط 504
信士 503
map 503
簧 503
haw 503
▁君 502
ones 502
腌 502
qq 502
绥 502
▁اعداد 502
▁(21) 502
赦宥 501
疮 501
暮 501
eur 501
esp 501
绽 501
▁اولا 501
افت 501
tele 500
dt 500
涸 500
روش 500
ads 499
xxi 499
▁آذ 499
hay 498
ject 497
top 497
阂 497
目指 497
vii 497
▁85% 497
_____ 497
▁ثبوت 497
▁★ 496
寅 496
peg 496
vil 496
噶 496
iah 496
ington 496
▁gn 496
رست 496
camp 495
oria 495
andy 495
▁jam 495
你们的主 494
ovic 494
▁win 494
▁// 494
amy 494
▁gac 494
▁بوم 494
▁رول 494
▁احتمالا 494
▁(...) 494
▁سئ 494
蒲 493
瞥 493
玲 493
氯氟 493
▁34) 493
٠٠ 493
opro 492
nic 492
▁1901 492
▁539 492
*. 492
2-2 492
▁if 491
ants 491
pec 491
▁sk 491
▁gre 491
▁tp 491
new 490
婢 490
▁pat 490
▁好多 490
▁sd 490
▁7% 490
▁روي 490
溃疡 489
缕 489
▁lg 489
潭 488
蚕 488
▁ns 488
') 488
▁2023 488
▁9000 488
▁اذ 488
آر 488
ates 487
kha 487
▁£ 487
)". 487
▁متخص 487
num 486
▁思 486
ral 486
▁cla 486
lg 485
枫 485
hun 485
thur 485
▁ثقافت 485
▁ظاهر 485
block 484
禾 484
cky 484
▁do 484
ives 484
◎ 483
”《 483
nap 483
仕 483
坤 483
west 483
sna 483
opo 483
淌 483
oi 483
elly 483
的人们啊 482
raw 482
yu 482
▁rev 482
▁analy 482
▁بحال 482
毋 481
ines 481
qa 481
脐 481
▁1700 481
▁دفتر 481
▁موط 481
▁آد 481
▁ورز 481
庶 480
vat 480
▁(23) 480
kon 479
ogo 479
筝 479
▁open 479
▁"- 479
▁san 479
▁35) 479
ovo 478
▁ah 478
▁po 478
▁سط 478
wiki 477
椭 477
jac 477
ono 477
▁1913 477
▁je 477
▁ser 477
▁star 477
▁برو 477
▁حفا 477
ple 476
nad 476
▁kr 476
oline 476
amar 475
tan 475
镯 475
▁18). 475
侬 474
pra 474
揪 474
▁؟" 474
ital 473
揣 473
fred 473
uz 473
▁4% 473
▁امام 473
▁4-6 473
jd 472
alis 472
铬 472
揉 472
-400 472
▁19). 472
enka 471
ical 471
ede 471
▁40) 471
氰 470
ges 470
呛 470
الله 470
▁ناز 470
خوا 470
bil 469
β 469
▁(1). 469
鳞 468
lag 468
ich 468
hali 468
▁dell 468
真主和 467
post 467
qi 467
舷 467
瘸 467
咀嚼 466
ents 466
▁ta 466
▁alc 466
▁يوز 466
abb 465
kg 465
urt 465
[[ 465
▁23: 465
مران 465
-198 465
fari 464
孺 464
fn 464
ئى 464
board 463
din 463
ref 463
▁ka 463
▁mike 463
▁mg 463
▁36) 463
اسون 463
cet 462
啬 462
▁jer 462
确是至 461
hid 461
rem 461
mari 461
ning 461
蜥蜴 461
▁qu 460
[3 460
▁آدم 460
疱 459
df 459
gis 459
′′ 459
ago 458
wei 458
▁مؤمن 458
wes 457
▁系 457
yb 457
hus 457
isi 457
▁sand 457
▁kat 457
hod 457
▁12, 457
'. 457
靡 456
hon 456
诶 456
▁قوب 456
visa 455
arm 455
ayo 455
厮 455
扒 455
4" 455
-7. 455
▁بيم 455
now 454
sel 454
orn 454
20, 454
jos 454
酥 454
▁aa 454
▁ut 454
➢ 454
▁قومي 454
lr 453
痢 453
sey 453
eman 453
▁pop 453
▁exchange 453
▁اعلان 453
▁مدل 453
部落格 452
沌 452
zu 452
tal 452
▁fin 452
اوس 452
▁جمه 452
诧 451
pub 451
芜 450
ight 450
cro 450
▁مقام 450
襄 449
vers 449
vor 449
诘 449
stat 449
hum 449
唠叨 449
▁جواب 449
unk 448
▁fl 448
▁لوت 448
ودور 448
▁خطا 448
kom 447
19, 447
▁fo 447
▁747 447
-196 447
宥 446
say 446
hm 446
sas 446
kur 446
▁world 446
藜 445
imi 445
bnb 445
ness 445
fir 445
圃 445
bek 445
▁col 445
-80 445
弛 444
bah 444
stein 444
孳 444
-70 444
▁خدا 444
,- 443
rou 443
mik 443
last 443
gab 443
▁2" 443
▁38) 443
اتن 443
tou 442
water 442
▁kar 442
dah 442
▁باند 442
筵 441
掣 441
秃鹫 441
▁5-6 441
▁زنج 441
殡 440
dal 440
羟 440
news 440
▁py 440
▁link 440
▁مشر 440
amba 439
itas 439
▁mb 439
▁ذرا 439
栅 438
▁emba 438
▁fer 438
essa 438
▁music 438
▁jiu 438
▁اخبار 438
▁مانع 438
rit 437
aman 437
stra 437
eti 437
nar 437
ile 437
▁nord 437
▁note 437
▁2021. 437
▁1848 436
▁kb 436
▁41) 436
ائش 436
咆哮 435
姑妈 435
wm 434
ape 434
tel 434
vie 434
11, 434
core 434
▁visa 434
▁صدا 434
ايان 434
code 433
咄咄 433
俣 433
▁ايه 433
8-2 433
你应当 432
誊 432
袱 432
▁دود 432
▁17). 432
amm 431
akh 431
▁iv 431
▁sha 431
abu 431
▁tur 431
▁of 431
▁kas 431
سوس 431
▁نجام 431
park 430
hom 430
▁لال 430
مدا 430
▁دؤ 430
诃 429
ils 429
炽 429
esi 429
iner 429
nis 429
乒 429
▁te 429
▁ver 429
▁خز 429
▁حمد 429
7-2 429
旭 428
onda 428
bell 428
iller 428
鄂 427
裁判所 427
wy 427
▁andre 427
▁gar 427
▁دفن 427
jekt 426
嚏 426
12, 425
tin 425
:16 425
拴 425
yle 425
sid 425
▁== 425
友人 424
聂 424
炖 424
▁jim 424
▁37) 424
▁حاصل 424
ames 423
jah 423
俏 423
▁ts 423
掰 423
▁6% 423
阎 422
澈 422
cen 422
aye 422
囱 422
aron 422
屯 422
ericht 422
bile 421
dig 421
橇 421
鱿 421
▁1898 421
蔼 420
绸缪 420
/96 420
oka 419
纾 419
吁 419
踵 419
▁mark 419
▁cal 419
鸡鸡 419
▁اختراع 419
3-2 419
14/ 419
兮 418
▁1902 418
▁8% 418
▁2024 418
乾 417
works 417
瘀 417
atherine 417
▁ران 417
pto 416
chin 416
:14 416
kins 416
// 416
妲 416
▁مهند 416
裴 415
乓 415
▁intel 415
▁جهت 415
conne 414
rol 414
was 414
▁mad 414
▁tar 414
▁مراسم 414
檐 413
枭 413
▁val 413
▁mm 413
▁45) 413
/93 413
霾 412
ology 412
lal 412
ario 412
▁fa 412
▁du 412
拂 411
hart 411
▁11, 411
▁دس 411
岖 410
帷 410
瘫 410
arian 410
瞳 410
▁意味 410
▁1880 410
▁pm 410
gge 410
-10) 410
▁ig 409
▁jan 409
▁برات 409
▁(30) 409
浙 408
nit 408
hos 408
yam 408
陡 408
irs 408
闲逛 408
indi 408
▁ala 408
√ 408
▁13, 408
rop 407
pla 407
ross 407
讫 407
▁mil 407
▁sr 407
▁dd 407
▁fe 407
▁42) 407
▁موب 407
ارج 407
esta 406
gin 406
het 406
▁nan 406
chel 405
晾 405
jay 405
▁group 405
..! 405
▁خوا 405
fil 404
wart 404
oke 404
兢兢 404
ako 404
▁rich 404
,. 404
▁mas 404
asy 404
index 404
兮兮 404
▁داه 404
赈 403
bab 403
逛逛 403
▁bob 403
氯碱 403
戛 402
doc 402
靓 402
妾 401
:25 401
qe 401
▁april 401
gard 400
cac 400
▁__ 400
▁24). 400
▁44) 399
▁فوج 399
خته 399
▁20). 399
犁 398
陡峭 398
fish 398
gie 398
▁dar 398
khan 398
砰 398
▁para 398
wr 397
umi 397
咏 397
umba 397
▁wo 397
tyre 397
铸铅 397
eder 396
inga 396
萎靡 396
ey 396
篱笆 396
▁she 396
▁af 396
▁del 396
▁bur 396
▁شاي 396
pin 395
issa 395
wski 395
iko 395
▁uc 395
▁coin 395
▁lo 395
▁اما 395
مند 395
▁وائ 395
pes 394
锢 394
▁sara 394
▁اور 394
ches 393
eric 393
鞍 393
▁global 393
▁± 393
amaz 392
▁mba 392
ition 392
mut 392
7; 392
▁business 392
،" 392
▁شوي 392
愣 391
ols 391
砌 391
sol 391
阉 391
omen 391
sung 391
▁500. 391
▁pre 391
ندى 391
form 390
xe 390
erra 390
ely 390
aker 390
lev 390
▁cop 390
▁ft 390
▁ديو 390
yas 389
裳 389
mand 389
mess 388
zip 388
抒 388
蔚 388
嘎 388
gun 388
▁flash 388
▁ham 388
阡 388
▁nov 388
▁رقص 388
▁يي 388
▁مجاز 388
/92 388
chain 387
檀 387
rav 387
card 387
葫芦 387
amu 387
▁ter 387
磺酰氟 387
▁غضب 387
آم 387
king 386
薰 386
plan 386
恣 386
ولر 386
نال 386
▁شول 386
信者 385
上院 385
raj 385
▁xx 385
▁مسلسل 385
▁9-1 385
cz 384
bw 384
▁hot 384
9-2 384
痉挛 383
igh 383
oko 383
rach 383
▁snap 383
.000 383
▁ram 383
羚 383
▁ny 383
▁sus 383
▁12% 383
cni 383
▁607 383
▁43) 383
▁وانه 383
:' 382
告白 382
ume 382
usi 382
olis 382
uki 382
▁mag 382
[4 382
真主所 381
榻 381
sig 381
aris 381
霞 381
fra 381
ongo 381
子供 381
雹 381
▁pas 381
▁march 381
▁جماعت 381
cons 380
dem 380
andi 380
hili 380
ople 380
▁van 380
lue 379
amin 379
▁bro 379
▁35% 379
▁وطن 379
▁5-7 379
嘈 378
alth 378
jet 378
kw 378
zak 378
arr 378
耿耿 378
-" 378
-90 378
▁24: 378
▁هال 378
馁 377
恃 377
▁wp 377
آه 377
▁مراد 377
▁ورم 377
欧米 376
沧 376
漩涡 376
yat 376
共通 376
蛾 376
hai 376
▁1909 376
▁nc 376
▁tu 376
▁che 376
02. 376
▁24/ 376
▁مخلوق 376
▁امن 376
▁حقيقت 376
rig 375
phen 375
褥 375
allen 375
筏 375
》” 375
ربان 375
▁ذل 375
罄 374
stan 374
adam 374
† 374
يدن 374
▁معتبر 374
窦 373
sos 373
▁fre 373
▁فضل 373
▁رز 373
اسان 373
豌 372
袤 372
chem 372
sah 372
illy 372
辽 371
sup 371
craft 371
odi 371
▁bin 371
⁄4 371
usan 371
▁*. 371
mys 370
gw 370
kt 370
cie 370
▁gi 370
mid 369
3; 369
▁far 369
ئله 369
▁25). 369
tes 368
blo 368
back 368
pap 368
eva 368
雁 368
bn 368
sara 368
蹭 368
▁hua 368
▁1.1. 367
dul 367
▁lab 367
ming 367
▁1" 367
▁[9 367
敬畏真主 366
铵 366
wol 366
▁smart 366
▁han 366
aut 365
魇 365
adh 365
褒 365
屡屡 365
aso 365
kho 365
▁ev 365
▁عذر 365
▁انتظام 365
انهن 365
昭示 364
leb 364
讪 364
▁hid 364
▁gh 364
→ 363
洙 363
rov 363
ump 363
eron 363
蕊 363
▁sar 363
▁15, 363
▁مثبت 363
▁آش 363
▁21). 363
lite 362
瓷砖 362
钶钽 362
zy 362
less 362
uti 362
vey 362
ady 362
▁equ 362
eks 362
"? 362
▁direct 362
▁phone 362
酐 361
vent 361
til 361
莅 361
alan 361
meg 361
▁creative 361
▁touch 361
▁22). 361
▁―― 360
“嗯 360
arn 360
vy 360
ista 360
fic 360
▁ru 360
kila 360
▁مسئول 360
drag 359
辫 359
== 359
ِِ 359
emp 358
tik 358
esc 358
会社 358
vet 358
侥 358
sion 358
▁hotel 358
腮 358
▁pan 358
▁cis 358
▁javas 358
▁od 358
▁gen 358
▁hen 358
▁rec 358
▁dean 358
fta 357
▁1897 357
▁jul 357
sum 356
磕 356
▁bp 356
▁45% 356
▁(2015) 356
▁ثبات 356
ـــــــــ 356
我确已 355
spot 355
arc 355
ards 355
暧 355
ston 355
uno 355
桅 355
zim 355
▁cas 355
▁1861 355
▁bla 355
pass 354
ather 354
骷髅 354
▁sat 354
▁college 354
hot 353
imba 353
▁nf 353
▁bs 353
▁† 353
▁1870 353
▁pol 353
▁ray 353
phone 352
head 352
霆 352
nos 352
痘 352
轧 352
阮 352
lon 352
▁ol 352
-) 352
▁غلط 352
*** 352
شدا 352
▁آباد 352
曳 351
pir 351
颓 351
)? 351
kel 351
螃蟹 351
▁1871 351
▁1893 351
vista 350
@ 350
受信 350
► 350
轩 350
sic 350
lec 350
暹 350
dev 350
uter 350
aran 350
oms 350
▁tim 350
▁آك 350
▁اتر 350
▁مقصد 350
lare 349
祐 349
藩 349
搐 349
▁ci 349
戎 348
孜孜 348
kot 348
▁cam 348
▁خج 348
▁هين 348
€ 347
mill 347
倪 347
mul 347
uns 347
嚷 347
啃 347
▁wh 347
▁ast 347
▁مراقبت 347
mont 346
▁nik 346
▁16, 346
rea 345
漱 345
sv 345
辗 345
ardo 345
▁mel 345
▁august 345
cket 344
eller 344
芹 344
zab 344
▁live 344
٢٠ 344
▁الزام 344
真主而 343
rent 343
trade 343
ores 343
ugh 343
▁ub 343
▁gra 343
▁alt 343
▁فتا 343
冀 342
yp 342
uro 342
zan 342
cott 342
▁ora 342
▁mys 342
▁1890 342
▁safari 342
▁mini 342
▁iel 342
اسى 342
▁منتشر 342
▁23). 342
猝 341
浩瀚 341
rencies 341
ensen 341
▁جلال 341
蝉 340
syn 340
何故 340
“嘿 340
敖 340
yg 340
edia 340
orf 340
呻 340
:13 340
pers 340
boy 340
▁nok 340
▁− 340
▁تبديل 340
لارا 340
pres 339
joh 339
wt 339
aru 339
dz 339
▁sl 339
▁sy 339
▁res 339
▁30, 339
▁1308 339
▁خيال 339
isp 338
rag 338
琉 338
2; 338
▁ico 338
▁sn 338
zt 338
▁حرام 338
映像 337
cont 337
投稿 337
lig 337
see 337
▁abb 337
gem 337
▁ang 337
▁99% 337
uka 337
▁war 337
暗号 337
偈 336
lac 336
onia 336
stone 336
oki 336
ian 336
▁bil 336
▁tm 336
踹 336
[5 336
▁آند 336
姚 335
vik 335
:17 335
andra 335
enda 335
驹 335
rica 335
▁vo 335
▁project 335
▁محتوا 335
git 334
media 334
dim 334
etta 334
呜 334
▁#1 334
hof 334
▁den 334
▁bre 334
▁dam 334
▁jane 334
▁عيسى 334
▁فاح 334
▁آلت 334
دئي 334
ovie 333
娄 333
uu 333
tions 333
pur 333
贻 333
tap 333
瞌 333
xiv 333
▁vr 333
becca 333
▁tech 333
dean 333
墉 332
孢 332
som 332
▁hal 332
▁باخ 332
–– 331
qs 331
rip 331
rix 331
gon 331
ress 331
骡 331
▁amd 331
.1. 331
▁will 331
klaus 331
铂 330
intel 330
kk 330
鳟 330
dia 330
▁2.1. 330
▁don 330
▁1895 330
▁min 330
▁quick 330
kira 330
▁انقلاب 330
▁سرو 330
埠 329
忡忡 329
tas 329
anne 329
jp 329
dk 329
愕 328
vision 328
牡蛎 328
ili 328
yev 328
▁ima 328
▁shi 328
▁محصول 328
اغي 328
/94 328
迷误 327
;- 327
丞 327
enter 327
spe 327
itu 327
alk 327
▁1.2. 327
ae 327
▁bl 327
▁sel 327
▁ann 327
▁17, 327
▁خيان 327
▁نمائ 327
途上 326
ises 326
唷 326
刽 326
羹 326
▁sop 326
▁روان 326
px 325
ful 325
牒 325
beth 325
嗤 325
▁all 325
▁reports 325
وود 325
鸠 324
被害者 324
gil 324
饺 324
唧 324
▁1958. 324
▁مجدد 324
فرانس 324
▁سته 324
xs 323
耿 323
ogen 323
琦 323
▁light 323
▁cry 323
▁1964. 323
▁وقتي 323
ares 322
aks 322
嚎 322
elen 322
跛 322
]; 322
fort 321
忒 321
enta 321
篝 321
alu 321
蹋 321
▁(. 321
▁جاري 321
▁اود 321
agu 320
脓 320
蛀 320
rac 320
锣 320
aku 320
ering 320
▁ُ 320
lep 319
dv 319
yes 319
pot 319
ear 319
玺 319
wald 319
▁sap 319
▁سرت 319
bios 318
涎 318
sn 318
ister 318
自分 318
▁ia 318
xon 318
▁gif 318
▁20, 318
▁داد 318
isc 317
ox 317
辄 317
桔 317
剿 317
▁mu 317
▁pd 317
▁1830 317
▁19, 317
ريء 317
嘻 316
魅 316
mem 316
xis 316
浣 316
jj 316
▁ari 316
▁chi 316
▁1840 316
▁flor 316
▁(- 316
▁يوش 316
▁هه 316
blu 315
ria 315
fas 315
▁hy 315
▁TM 315
▁جلد 315
lass 314
凋 314
vice 314
more 314
▁1865 314
▁عو 314
▁متوقف 314
يندو 314
رمت 314
kos 313
big 313
ther 313
pon 313
ski 313
feld 313
▁west 313
▁18, 313
▁14, 313
▁دق 313
▁نشي 313
▁10-1 313
blog 312
cial 312
不安定 312
▁65% 312
dol 311
pack 311
rap 311
unc 311
▁nh 311
ork 311
鸥 311
▁ind 311
婶 311
▁1989. 311
abo 310
udo 310
mich 310
舅 310
▁time 310
▁يوه 310
▁قبلا 310
put 309
bridge 309
mine 309
孜 309
witz 309
▁tre 309
▁مريم 309
▁13:1 309
city 308
婷 308
beck 308
iki 308
roy 308
▁mir 308
here 308
▁get 308
▁فاج 308
俺 307
lesi 307
ashi 307
lek 307
emb 307
:1. 307
▁cos 307
▁nor 307
▁tes 307
▁mal 307
▁api 307
▁lt 307
لود 307
ائين 307
“妈妈 306
dur 306
lap 306
浚 306
tir 306
jn 306
吵闹 306
萦 306
擂 306
盹 306
厩 306
pel 306
▁sv 306
▁hr 306
landes 306
00- 306
وردو 306
8-3 306
seo 305
彷 305
cii 305
bio 305
cti 305
6; 305
▁au 305
▁hol 305
▁gov 305
▁^^ 305
'1 305
راون 305
龈 304
bg 304
簇 303
athan 303
冢 303
fur 303
俑 303
钨 303
8; 303
▁gold 303
▁9% 303
...] 303
▁[14 303
........ 303
وتن 303
تره 303
蒋 302
kl 302
kun 302
瑕 302
曦 302
晦 302
sti 302
ides 302
kol 302
 302
▁bat 302
− 302
▁house 302
▁25: 302
▁دى 302
3-3 302
live 301
kap 301
屹 301
sor 301
aram 301
▁ger 301
簸 301
cum 301
▁sol 301
▁sta 301
▁fal 301
▁dis 301
▁bel 301
▁uh 301
حمت 301
شتم 301
▁روغ 301
-4). 301
孪 300
erts 300
咩 300
yang 300
deb 300
▁sal 300
ادير 300
super 299
uv 299
leh 299
疾患 299
osi 299
jor 299
懊 299
狡 299
癫 299
iley 299
nya 299
▁cyber 299
exe 299
▁ستون 299
▁فرصت 299
سوز 299
ace 298
啮齿 298
翌 298
zir 298
asha 298
闩 298
▁bon 298
fiz 298
ِّ 298
▁بانه 298
▁ناك 298
信士们 297
dire 297
mou 297
ingo 297
炙 297
▁3.1. 297
熨 297
▁tl 297
▁mess 297
zach 297
嗯哼 297
▁1/1 297
ether 296
good 296
谩 296
琥 296
惦 296
ustin 296
باز 296
▁حمله 296
▁زد 296
آك 296
磊 295
angu 295
epa 295
轶 295
蜕 295
tia 295
潢 295
茧 295
婶婶 295
▁مسجد 295
▁وزارت 295
lut 294
iman 294
ishi 294
▁uni 294
▁mr 294
18] 294
▁25, 294
“” 293
烘焙 293
cot 293
lights 293
how 293
arb 293
荼 293
00, 293
ados 293
bey 293
bach 293
槿 293
▁ul 293
▁wifi 293
伶 293
▁mobile 293
▁انحراف 293
▁caption 293
▁29). 293
sto 292
phe 292
geo 292
worth 292
▁syn 292
▁option 292
▁11% 292
▁سرعت 292
stre 291
pac 291
force 291
gaz 291
hur 291
gum 291
轭 291
unis 291
ober 291
缰皎 291
udio 290
jak 290
ball 290
high 290
lio 290
ades 290
imb 290
sad 290
aug 290
▁nas 290
▁nb 290
▁1956. 290
▁ايم 290
▁راند 290
▁11-1 290
禹 289
home 289
osta 289
亢 289
bri 289
rid 289
arma 289
ffer 289
芋 289
hia 289
▁line 289
▁ee 289
▁article 289
▁va 289
▁كند 289
▁معب 289
▁6-7 289
灸 288
omar 288
liv 288
upp 288
▁bet 288
▁wat 288
▁lan 288
▁sms 288
▁َ 288
▁موفق 288
-20) 288
蕃 287
zel 287
jud 287
骰 287
baa 287
▁oli 287
▁aac 287
^ 287
▁december 287
!.. 287
▁سوس 287
▁شروع 287
以便你们 286
untu 286
gro 286
祇 286
para 286
oran 286
沾沾 286
hard 286
iec 286
riel 286
▁اصلاح 286
▁خلاق 286
硒 285
bac 285
oney 285
reen 285
mach 285
start 285
place 285
▁ko 285
▁13% 285
▁well 285
tara 285
▁هارون 285
5-2 285
lege 284
醛 284
耦 284
set 284
data 284
vier 284
olu 284
▁good 284
哎哟 284
وزه 284
واره 284
▁معمول 284
缤 283
illiam 283
ills 283
sab 283
bia 283
gha 283
▁bank 283
▁26: 283
▁توت 283
night 282
qui 282
opa 282
stu 282
霹雳 282
bility 282
▁swi 282
cto 282
箫 282
▁امري 282
▁تاج 282
▁راو 282
▁نوس 282
▁ندي 282
vos 281
urn 281
chs 281
cw 281
:24 281
▁bh 281
▁cha 281
赊 281
▁big 281
▁sub 281
 281
20] 281
▁(195 281
وسون 281
esk 280
?! 280
olog 280
uto 280
chos 280
gat 280
吮 280
茬 280
▁dj 280
gni 280
▁lng 280
ھ 280
▁سى 280
inton 279
› 279
cca 279
fon 279
ird 279
▁moz 279
ury 279
ordon 279
▁sem 279
▁um 279
▁bir 279
▁day 279
▁green 279
▁تجارت 279
谙 278
bai 278
zd 278
ello 278
ques 278
endo 278
唁 278
坂 278
霰 278
▁wa 278
mot 277
esu 277
vest 277
onic 277
wang 277
wire 277
刨 277
.2. 277
▁nd 277
▁art 277
▁17% 277
▁وئ 277
rot 276
霄 276
xus 276
hala 276
柑橘 276
cil 276
sea 276
rak 276
uman 276
▁1881 276
▁bra 276
isha 276
▁jen 276
tober 276
-300 276
▁معبد 276
▁شود 276
淳 275
鲤 275
ments 275
fam 275
镣 275
刁 275
jab 275
rum 275
joe 275
▁دماغ 275
▁سوار 275
god 274
erd 274
unch 274
捂 274
喂饱 274
lity 274
tam 274
戟 274
mans 274
镳 274
jali 274
捎 274
beit 274
▁vision 274
وبار 274
螯 273
偕 273
cell 273
ente 273
aria 273
yon 273
bha 273
ئان 273
fli 272
邂逅 272
惚 272
颐 272
room 272
ision 272
pak 272
迂 272
/- 272
ووس 272
▁مداخ 272
降示的 271
odo 271
oman 271
郝 271
桎梏 271
dale 271
眩晕 271
inski 271
tig 271
▁1.3. 271
苷 270
tok 270
cep 270
inst 270
gir 270
嗡嗡 270
leman 270
atha 270
▁خول 270
鹏 269
master 269
rar 269
mana 269
ondo 269
bour 269
lub 269
筐 269
kay 269
food 269
蹩 269
▁vir 269
▁nick 269
毘 269
佃 268
□ 268
wel 268
eter 268
leo 268
muh 268
▁fat 268
enga 268
▁media 268
▁mail 268
▁crypto 268
▁hri 268
16] 268
▁2022. 268
ادان 268
▁سرب 268
▁مهرب 268
ماندا 268
麸 267
market 267
wl 267
free 267
eso 267
梢 267
榷 267
▁cort 267
▁cit 267
▁dh 267
▁kal 267
': 267
▁enter 267
屁屁 267
▁زمان 267
munic 266
band 266
poli 266
bart 266
uw 266
▁vip 266
uke 266
▁[19 266
vich 266
▁bios 266
▁ins 266
▁ty 266
amd 265
缭 265
▁top 265
伯拉 265
4; 265
咦 265
lai 265
▁str 265
▁cu 265
▁land 265
▁1957. 265
الاي 265
浊 264
咫 264
lest 264
ompson 264
oa 264
zin 264
潦 264
tive 264
帚 264
[7 264
▁شيطان 264
▁مبه 264
▁مصاح 264
cip 263
enc 263
蹒跚 263
lang 263
yak 263
▁tan 263
缇 263
▁18% 263
mada 263
莹 262
dav 262
udi 262
fen 262
itz 262
觊觎 262
vt 262
non 262
菠萝 262
vh 262
▁kp 262
urg 262
▁master 262
缜 262
▁epa 262
▁por 262
▁coll 262
谏 261
?) 261
bud 261
gus 261
xo 261
apa 261
reb 261
pher 261
mam 261
nz 261
▁2.2. 261
痔疮 261
▁rad 261
▁real 261
▁ظلم 261
▁خن 261
丶 260
quin 260
斌 260
wind 260
ved 260
nico 260
tha 260
lish 260
gia 260
adan 260
▁:1 260
▁ise 260
▁ماق 260
▁نوي 260
اى 260
iness 259
葩 259
irt 259
tex 259
rec 259
▁kim 259
kum 259
镛 259
珂 259
amanda 259
آي 259
spr 258
oph 258
enge 258
恺 258
bee 258
rand 258
饷 258
nate 258
▁55% 258
▁1080 258
▁28: 258
▁بئر 258
黜 257
蟒 257
fri 257
ige 257
udia 257
▁spe 257
▁uk 257
▁update 257
▁1959. 257
sons 256
mol 256
ims 256
list 256
ynn 256
貂 256
▁now 256
cole 256
▁km 256
-8. 256
▁اثبات 256
▁راهن 256
ssa 255
hoo 255
坷 255
ums 255
▁seo 255
掂 255
ough 255
oster 255
oj 255
▁(* 255
▁6-8 255
廿 254
atur 254
次第 254
ures 254
cess 254
ikh 254
ordan 254
空港 254
▁ku 254
钽 254
痞 254
▁mh 254
-500 254
▁21, 254
▁drive 254
▁® 254
rock 253
inen 253
arin 253
just 253
柚 253
brad 253
iny 253
妍 253
bie 253
▁bal 253
烊 253
▁ابر 253
衪 252
okies 252
elm 252
pam 252
nk 252
etti 252
岱 252
anu 252
rr 252
rash 252
ridge 252
hang 252
腑 252
▁dn 252
▁mit 252
▁pt 252
sica 252
▁true 252
▁2018: 252
▁+1 252
19] 252
绚 251
cio 251
ities 251
nak 251
nr 251
▁robo 251
▁ze 251
-9. 251
▁ماهر 251
▁دوني 251
诛 250
real 250
岑 250
bru 250
erm 250
esse 250
elin 250
▁hu 250
▁law 250
▁ff 250
▁earth 250
嘿咻 250
▁cryptocurrency 250
▁1971. 250
▁عاي 250
剽 249
苦痛 249
gor 249
fia 249
▁drop 249
▁sb 249
itar 249
▁za 249
muk 249
炒鱿 249
▁pal 249
▁communic 249
▁sg 249
▁1949. 249
▁مربوط 249
cape 248
euro 248
sus 248
搀 248
hana 248
rio 248
▁ubuntu 248
呎 248
▁blue 248
剁 248
▁arm 248
∮ 248
▁مذهب 248
▁者 247
premi 247
ctr 247
onom 247
fy 247
oo 247
》“ 247
bara 247
© 247
町 247
▁alpha 247
etooth 247
▁hey 247
....... 247
[6 247
17] 247
▁november 247
▁لري 247
▁سنو 247
▁بوي 247
祠 246
olin 246
nin 246
life 246
憩 246
liz 246
ated 246
bers 246
▁↑ 246
▁16% 246
▁city 246
▁29, 246
▁september 246
▁طلاق 246
▁فرار 246
rn 245
笺 245
prov 245
fah 245
och 245
▁ant 245
▁national 245
嚷嚷 245
}} 245
▁منظر 245
▁@ 244
caa 244
多分 244
eres 244
cri 244
▁mf 244
hak 244
zam 244
儆 244
lands 244
5; 244
▁med 244
▁cle 244
▁acc 244
06. 244
▁مانه 244
▁محنت 244
ustr 243
眺 243
ket 243
汹 243
ror 243
eke 243
cco 243
▁lar 243
ukh 243
蜚 243
▁dou 243
瘪 243
▁vs 243
▁bay 243
▁14% 243
兔崽 243
امع 243
▁هت 243
7-3 243
gea 242
剌 242
陕 242
芸 242
lh 242
髋 242
ped 242
ovan 242
邹 242
pier 242
cab 242
疙瘩 242
▁ing 242
▁hel 242
»» 242
▁cryptocur 242
fee 241
lette 241
enz 241
ruz 241
yy 241
anton 241
▁mayo 241
▁mw 241
▁studio 241
"] 241
▁يعقوب 241
▁تيار 241
▁غرق 241
这等人 240
fel 240
惬 240
● 240
amas 240
缛 240
sed 240
kok 240
jin 240
hope 240
▁euro 240
▁fort 240
loe 240
▁micro 240
▁people 240
▁ستا 240
譬 239
stem 239
淮 239
late 239
莞 239
acc 239
vn 239
遛 239
cov 239
槌 239
▁janu 239
game 238
絮 238
pag 238
gel 238
亘 238
挞 238
ulla 238
▁log 238
خوان 238
inte 237
骏 237
敞篷 237
you 237
fis 237
垣 237
狈 237
▁iq 237
▁sil 237
▁eg 237
gib 237
▁yahoo 237
▁und 237
▁داعش 237
ــــــــــ 237
▁سني 237
▁ضربه 237
觑 236
lind 236
wha 236
龚 236
apo 236
sing 236
wick 236
▁3.2. 236
rik 236
蹴 236
▁bud 236
秃鹰 236
▁tw 236
▁eth 236
▁code 236
▁3" 236
▁vista 236
▁22, 236
1-3 236
host 235
zn 235
rub 235
鸡汤 235
獭 235
▁about 235
喂喂 235
▁street 235
▁ماف 235
fte 234
fed 234
iter 234
lv 234
hew 234
啻 234
ited 234
9; 234
〞 234
▁98% 234
▁rom 234
pherd 234
▁pf 234
[8 234
▁ارسال 234
▁مذاق 234
سيز 234
4-3 234
fh 233
lum 233
笋 233
rib 233
30, 233
yen 233
igo 233
got 233
ande 233
媛 233
盥 233
vens 233
beh 233
▁2008- 233
▁cru 233
-6. 233
path 232
▁category 232
,... 232
ei 232
wu 232
glas 232
ous 232
gos 232
:28 232
颚 232
嗝 232
▁reg 232
▁redd 232
楣 232
▁mos 232
▁electr 232
▁xia 232
▁23, 232
▁رسول 232
▁انسان 232
يشن 232
suite 231
羯 231
睾酮 231
itor 231
,) 231
fect 231
borg 231
ante 231
adar 231
kis 231
amer 231
蔻 231
▁int 231
痳 231
▁منتظر 231
▁12-1 231
▁ope 230
桓 230
heli 230
僭 230
jun 230
桦 230
lines 230
chts 230
撂 230
碉 230
▁energy 230
▁شاء 230
▁جوش 230
▁اؤ 230
▁دقت 230
eddit 229
wards 229
omet 229
oge 229
gate 229
湮 229
茸茸 229
aj 229
搂 229
jm 229
蚯蚓 229
▁mk 229
啰嗦 229
▁شور 229
cli 228
蜿蜒 228
nite 228
ason 228
kul 228
wk 228
▁♥ 228
,* 228
▁gal 228
鼬 228
▁lis 228
▁page 228
▁22% 228
alna 228
واهد 228
▁قور 228
mini 227
*, 227
rell 227
dra 227
comp 227
gam 227
眩 227
center 227
ude 227
yz 227
tet 227
uta 227
onn 227
痰 227
雯 227
hale 227
ombo 227
▁ki 227
kab 227
▁nat 227
:. 227
لئ 227
▁عاف 227
▁دش 227
▁1985. 227
▁تمه 227
prop 226
弑 226
illo 226
him 226
nancy 226
撵 226
05. 226
▁رجوع 226
▁حله 226
▁عبارت 226
tier 225
pli 225
obs 225
宕 225
vad 225
ater 225
鞘 225
弩 225
uld 225
▁hm 225
▁key 225
▁cho 225
▁gem 225
▁park 225
糗 225
5%. 225
▁1974. 225
ⴗ 225
▁اهم 225
▁سحر 225
▁وآل 225
鼾 224
wid 224
讥 224
弭 224
fly 224
act 224
啼 224
user 224
▁mich 224
▁health 224
hti 224
▁*** 224
▁▼ 223
dha 223
宜家 223
lif 223
纭 223
bird 223
ador 223
este 223
言及 223
rahim 223
ij 223
▁mid 223
嗯嗯 223
▁core 223
▁pete 223
▁مقدس 223
▁خاس 223
阑 222
hem 222
半分 222
prise 222
jit 222
▁ele 222
▁mari 222
▁lot 222
▁ds 222
sche 222
▁lou 222
▁bri 222
▁des 222
kie 222
▁mart 222
:] 222
▁kn 222
♪ 222
吋 221
姗姗 221
ambo 221
usha 221
case 221
:22 221
ulu 221
▁cad 221
hank 221
▁bg 221
▁bis 221
▁wt 221
▁jake 221
ristian 220
毡 220
先祖 220
amos 220
uren 220
彬 220
凛 220
isy 220
allo 220
ungu 220
▁mol 220
▁anti 220
-10. 220
activ 219
wd 219
zm 219
tran 219
jk 219
vac 219
esti 219
璧 219
lez 219
bash 219
sak 219
奄奄 219
yun 219
▁from 219
ennan 219
▁2006- 219
▁....... 219
▁yeah 219
ردى 219
dat 218
菠 218
tron 218
佤 218
bang 218
itra 218
好似 218
潇洒 218
bec 218
”栏 218
▁dani 218
nell 218
▁bill 218
onet 218
▁dor 218
▁usa 218
▁dex 218
▁engineering 218
▁سق 218
fine 217
pros 217
衙 217
alm 217
fund 217
lion 217
墩 217
耶和 217
▁mur 217
γ 217
▁bor 217
▁phi 217
▁33% 217
孬 217
▁بايد 217
/2009. 217
霖 216
vand 216
oly 216
avi 216
wing 216
躇 216
拌 216
kara 216
▁chat 216
nel 216
lard 216
▁christ 216
▁mus 216
▁adam 216
▁28% 216
▁path 216
▁31, 216
25] 216
▁febru 216
▁فخر 216
▁لباس 216
اسبه 216
▁ٱل 216
▁اطلا 216
lips 215
ever 215
nom 215
铠 215
茫茫 215
ieg 215
llo 215
丙烷 215
▁ef 215
▁clar 215
▁esp 215
▁tel 215
▁js 215
▁austra 215
▁games 215
خدا 215
▁تاو 215
▁مناط 215
▁著 214
pho 214
agi 214
name 214
down 214
▁tagged 214
nab 214
daf 214
gol 214
cem 214
long 214
翡翠 214
uko 214
拎 214
ember 214
麋 214
▁xxx 214
▁visual 214
▁gab 214
唿 214
خره 214
dos 213
sit 213
boh 213
fair 213
uda 213
惘 213
anner 213
bow 213
gad 213
uru 213
▁ih 213
hou 213
olt 213
▁بران 213
۔ 213
▁تائ 213
▁مقاومت 213
▁آره 213
iq 212
臻 212
耘 212
hyd 212
夯 212
鸵 212
指摘 212
愆 212
cola 212
odd 212
蟋蟀 212
驮 212
蜻蜓 212
▁fit 212
▁jac 212
▁vin 212
氪 212
▁hub 212
▁service 212
▁26, 212
▁طرفان 212
cup 211
怖 211
艮 211
lara 211
ried 211
page 211
bili 211
ow 211
▁bas 211
▁1969. 211
▁نوح 211
▁بيا 211
▁شواهد 211
3-4 211
颌 210
igi 210
ovich 210
cj 210
▁apa 210
▁der 210
▁ever 210
▁https 210
▁ober 210
▁28, 210
▁ماو 210
يرام 210
▁واقف 210
?? 209
邵 209
vig 209
匡 209
臃肿 209
gul 209
eds 209
▁一体 209
▁rub 209
蘸 209
抠 209
蹊跷 209
耙 209
▁wes 209
▁zo 209
alb 209
ieh 209
01. 209
▁[" 209
▁focus 209
ading 208
ends 208
hea 208
file 208
wam 208
zig 208
▁yo 208
噜 208
烩 208
▁git 208
▁way 208
▁ob 208
讣 208
▁africa 208
▁mig 208
▁pent 208
▁27, 208
真主确是 207
pect 207
eras 207
uj 207
maz 207
▁家族 207
ries 207
cock 207
钵 207
nia 207
鳗 207
倔 207
▁trading 207
▁god 207
30] 207
▁شهادت 207
▁سمت 207
▁7-8 207
beta 206
enni 206
ells 206
syl 206
▁#2 206
engine 206
▁var 206
▁mak 206
▁meg 206
▁pin 206
▁hay 206
▁corpor 206
▁aven 206
-195 206
▁عشق 206
▁昨日 205
▁俺 205
edy 205
cog 205
cholas 205
蜷 205
litt 205
cub 205
▁wood 205
涓 205
▁act 205
á 205
▁cia 205
▁zach 205
-194 205
矗 204
atom 204
佼佼 204
诩 204
noc 204
leton 204
imir 204
羁绊 204
mons 204
amat 204
sala 204
kes 204
lier 204
▁sur 204
umo 204
▁42% 204
yari 204
▁(3). 204
▁بره 204
▁لحظه 204
cx 203
cut 203
rup 203
hand 203
yal 203
ez 203
nag 203
moni 203
.3. 203
▁ud 203
▁ken 203
▁asp 203
æ 203
▁cg 203
▁(... 203
▁باطل 203
.[1] 203
▁بئ 203
tius 202
aaa 202
pala 202
蓖 202
ffe 202
迸 202
bid 202
alina 202
mati 202
祟 202
umar 202
die 202
dov 202
▁zen 202
▁19% 202
噎 202
ammad 202
▁δ 202
..) 202
▁[1] 202
▁بله 202
▁احمق 202
鳌 201
mec 201
system 201
chool 201
ses 201
alin 201
iden 201
hul 201
opi 201
stad 201
gap 201
篱 201
:26 201
kate 201
▁ras 201
▁prot 201
▁pack 201
确是全 200
road 200
cash 200
fol 200
hua 200
ulus 200
ikipedia 200
mani 200
壑 200
off 200
泞 200
踌 200
vera 200
▁hom 200
manuel 200
▁oe 200
phy 200
铃铛 200
镣铐 200
▁free 200
▁auto 200
[10 200
▁end 200
14] 200
2-3 200
以物配 199
蜀 199
驿 199
翱 199
叨 199
atan 199
daw 199
▁ash 199
▁1879 199
狒狒 199
沥滤 199
▁connect 199
▁siem 199
▁24, 199
▁case 199
▁احس 199
岐 198
check 198
bea 198
ports 198
mn 198
coins 198
bli 198
wie 198
invest 198
xit 198
angela 198
kra 198
pus 198
dun 198
ayn 198
asia 198
▁les 198
▁energ 198
§ 198
▁ecc 198
“咱 197
istic 197
wor 197
ento 197
text 197
erre 197
cience 197
佯 197
hanna 197
▁deep 197
▁rod 197
▁control 197
煎锅 197
▁stu 197
▁found 197
▁ختم 197
▁1987. 197
-5). 197
痤疮 196
wir 196
fle 196
eland 196
巳 196
asti 196
沓 196
bala 196
hani 196
etty 196
铯 196
qd 196
erta 196
yne 196
▁king 196
▁37, 196
▁clini 196
▁8-10 196
taf 195
active 195
rim 195
zza 195
orah 195
傻傻 195
菇 195
▁pic 195
▁unic 195
chou 195
冻僵 195
dana 195
▁娘 195
▁jag 195
濑 195
▁life 195
▁system 195
▁dol 195
ghe 195
▁year 195
▁ّ 195
-6) 195
inic 194
粤 194
ups 194
imin 194
熵 194
prom 194
恸 194
eria 194
hend 194
:2. 194
琵琶 194
▁host 194
▁has 194
▁np 194
▁aud 194
▁ssa 194
idov 194
▁raw 194
shane 194
▁premium 194
▁island 194
▁ats 194
▁يات 194
▁نمي 194
adia 193
膺 193
fax 193
tad 193
ole 193
ulos 193
撩 193
eko 193
gene 193
orti 193
ellen 193
我地 193
othy 193
▁ban 193
邋遢 193
▁fh 193
▁mes 193
▁bell 193
▁اقد 193
▁متوجه 193
刍 192
眸 192
俞 192
“噢 192
fut 192
vana 192
樟 192
gian 192
dea 192
atson 192
绯 192
bury 192
fern 192
cari 192
筷 192
tl 192
:3. 192
rai 192
isen 192
kaz 192
▁bos 192
隼 192
▁rem 192
à 192
▁player 192
▁{{ 192
▁ياش 192
▁ْ 192
▁اجتناب 192
丨 191
全知 191
粟 191
dic 191
aq 191
stock 191
cod 191
犸 191
vili 191
翩翩 191
etto 191
▁cer 191
▁dom 191
▁data 191
▁باعث 191
侃 190
other 190
email 190
lei 190
lm 190
吭 190
▁inn 190
▁ly 190
hey 190
▁ml 190
▁you 190
ḳ 190
▁dynam 190
▁13-1 190
漓 189
邃 189
ogi 189
hara 189
erica 189
ords 189
aster 189
itat 189
gou 189
▁43% 189
▁digital 189
pete 189
▁2003, 189
almas 189
▁1948. 189
儡 189
▁فيص 189
ww 188
遽 188
遁 188
patri 188
chit 188
痣 188
unice 188
锄 188
atic 188
菅 188
鲷 188
nifer 188
roc 188
闷闷 188
瞭 188
eee 188
▁lor 188
▁stan 188
▁fri 188
▁hello 188
▁bio 188
▁nature 188
▁1976. 188
▁ويا 188
9-3 188
kind 187
mers 187
彪 187
hoz 187
cic 187
das 187
arp 187
gio 187
喱 187
reas 187
math 187
hap 187
茴 187
▁aut 187
ril 187
▁sum 187
dep 187
▁ve 187
import 187
祟祟 187
-11. 187
▁محسوس 187
diy 186
辊 186
cke 186
kah 186
hit 186
绰绰 186
▁lee 186
▁sas 186
▁51% 186
▁96% 186
▁matt 186
▁block 186
甭 186
gee 186
▁pap 186
▁sac 186
▁high 186
▁23% 186
▁(= 186
▁2004/3 186
自体 185
medi 185
oker 185
瘙痒 185
jat 185
狎 185
fact 185
▁一方 185
idd 185
cou 185
赝 185
rence 185
兢 185
▁lum 185
▁just 185
嫔 185
▁og 185
▁38% 185
蛆 185
▁call 185
癣 184
kop 184
矜 184
omp 184
main 184
shin 184
blan 184
樊 184
eden 184
鼎鼎 184
fun 184
olan 184
onica 184
zal 184
峭 184
fone 184
▁pres 184
▁ww 184
uny 184
▁bw 184
▁27% 184
▁2010- 184
▁over 184
lulu 184
04. 184
▁29: 184
ئص 184
dyn 183
鹌鹑 183
unda 183
▁abs 183
镭 183
anger 183
▁back 183
▁len 183
bati 183
▁dev 183
姗 183
▁gro 183
▁book 183
".. 183
ئمه 183
▁بوو 183
萍 182
tiv 182
澎湃 182
lein 182
inde 182
唏 182
楔 182
bic 182
erto 182
gui 182
叁 182
olds 182
wed 182
滔滔 182
bed 182
▁nts 182
哒 182
▁cre 182
▁china 182
▁joe 182
▁deb 182
akes 182
▁افس 182
گ 182
璋 181
槃 181
▁◇ 181
瑰 181
iste 181
ince 181
hh 181
ech 181
yos 181
▁ø 181
equ 181
erez 181
▁1.4. 181
zah 181
▁97% 181
bih 181
▁kot 181
pek 181
▁2000- 181
.* 181
▁30: 181
▁2001, 181
▁باور 181
▁بزر 181
abs 180
otte 180
fab 180
merce 180
usion 180
榆 180
china 180
lake 180
sep 180
ring 180
戍 180
ages 180
▁4.2. 180
adu 180
栩栩 180
stal 180
manu 180
arius 180
wad 180
▁start 180
onna 180
▁arc 180
jav 180
▁21% 180
▁airport 180
▁قيمت 180
▁هوش 180
胥 179
control 179
anc 179
铰 179
朦胧 179
joy 179
ways 179
ota 179
豺 179
jal 179
次元 179
▁", 179
▁what 179
▁14-1 179
▁سوو 179
▁gart 178
boot 178
otel 178
into 178
sport 178
ties 178
mara 178
flo 178
istan 178
荚 178
▁#5 178
arl 178
utu 178
oy 178
叼 178
▁ay 178
讧 178
▁ces 178
5.000 178
▁mv 178
呦 178
瓮 178
▁doc 178
▁هوس 178
متو 178
▁بابت 178
▁اظه 178
▁راحت 178
صورت 178
▁بصورت 178
▁مندرج 178
阙 177
inin 177
舜 177
mind 177
cure 177
aqu 177
allah 177
iser 177
nus 177
zed 177
nich 177
tym 177
睽睽 177
zov 177
▁hyper 177
xii 177
▁nano 177
legal 177
▁α 177
‬ 177
▁غاف 177
وور 177
6-3 177
gaga 176
摹 176
prim 176
昙 176
gur 176
▁#3 176
omba 176
zie 176
搓 176
▁avast 176
chik 176
《〈 176
▁lite 176
▁non 176
碱酯 176
words 175
vian 175
rese 175
wall 175
run 175
梳妆 175
heim 175
霓 175
ners 175
ingu 175
very 175
sean 175
▁ao 175
啄 175
滓 175
▁gam 175
夭夭 175
▁sae 175
▁fla 175
ردو 175
▁صبر 175
ئني 175
hotel 174
where 174
桐 174
bing 174
欲求 174
sight 174
wak 174
麾 174
hob 174
fall 174
gue 174
neh 174
abi 174
amir 174
:27 174
龌龊 174
▁search 174
▁نفر 174
نتون 174
istre 173
琛 173
喃喃 173
thom 173
wave 173
lea 173
ilton 173
撸 173
芦苇 173
sio 173
inas 173
hes 173
▁isa 173
▁blo 173
▁spa 173
▁pho 173
hie 173
▁mod 173
▁sca 173
▁خوار 173
▁سهم 173
”– 172
mate 172
bug 172
“嗨 172
rer 172
adow 172
wash 172
▁univers 172
tian 172
▁vu 172
▁team 172
▁pu 172
▁spot 172
▁illustr 172
▁,,, 172
ئيه 172
▁isis 171
▁lady 171
tain 171
rain 171
ship 171
ulin 171
baba 171
tak 171
▁joh 171
冇 171
vert 171
tul 171
▁libra 171
午前 171
▁sit 171
▁mah 171
emma 171
ikka 171
▁hor 171
▁avi 171
▁raj 171
彀 171
▁ذهن 171
▁اصل 171
neo 170
最善 170
niki 170
悸 170
agen 170
ppe 170
sten 170
湍 170
..., 170
gri 170
otti 170
sham 170
adz 170
iy 170
tun 170
chet 170
钍 170
▁wy 170
▁atlas 170
拈阄 170
.: 170
▁eh 170
[14 170
▁<< 170
▁عضل 170
▁مطمئن 170
براه 170
اغا 170
▁توخت 170
apach 169
睑 169
ardi 169
esis 169
邢 169
捶 169
tip 169
encia 169
lima 169
ating 169
▁part 169
wend 169
▁dem 169
▁sf 169
usuf 169
▁ü 169
▁tind 169
▁north 169
▁dur 169
尓 169
update 168
徨 168
itan 168
rel 168
磷虾 168
emer 168
訇 168
teri 168
▁veri 168
iguel 168
盯梢 168
▁36% 168
▁24% 168
09. 168
▁2005, 168
.' 168
-193 168
elk 167
cul 167
寰 167
atr 167
lement 167
rero 167
europ 167
pun 167
kad 167
▁jon 167
hail 167
▁sec 167
▁europ 167
chester 167
▁tam 167
▁44% 167
▁bad 167
▁pk 167
ueil 167
▁خرا 167
bau 166
rh 166
钧 166
tw 166
chap 166
ax 166
angel 166
haus 166
stream 166
tib 166
rett 166
walt 166
fus 166
▁esc 166
▁sin 166
yum 166
▁hk 166
▁ocean 166
▁eu 166
هيه 166
瑜珈 165
cian 165
炔 165
cond 165
褶皱 165
kil 165
pid 165
dot 165
hall 165
atu 165
zor 165
▁ace 165
nica 165
tem 165
lari 165
eline 165
riz 165
chir 165
▁capital 165
▁wol 165
▁dash 165
▁ass 165
▁type 165
▁ايل 165
▁نحوه 165
امبر 165
▁بدم 165
يدار 165
اكان 165
vv 164
anta 164
alen 164
wag 164
蹊 164
cara 164
▁bol 164
lars 164
ikov 164
▁dat 164
▁mate 164
▁26% 164
kont 163
layer 163
祗 163
zio 163
lica 163
tro 163
苞 163
sz 163
rae 163
侏 163
town 163
ining 163
ental 163
ggs 163
:23 163
huba 163
▁bing 163
▁rh 163
️ 163
!... 163
▁lock 163
▁:2 163
▁اشخاص 163
▁جاؤ 163
artner 162
荟萃 162
upal 162
葱葱 162
倩 162
踞 162
flu 162
粱 162
夙 162
atti 162
缰 162
mug 162
iga 162
▁pier 162
▁jun 162
cury 162
isar 162
▁1829 162
▁info 162
▁mic 162
iom 162
▁داب 162
ـــــــــــ 162
昊 161
雍 161
ystem 161
found 161
click 161
ivan 161
limited 161
sip 161
inu 161
fsa 161
蛰 161
晦涩 161
oger 161
mai 161
usse 161
sle 161
▁stat 161
▁spr 161
'" 161
▁long 161
▁ext 161
▁insp 161
▁2006, 161
▁!" 161
▁تره 161
▁جى 161
ogan 160
seas 160
­ 160
fet 160
arden 160
lil 160
tis 160
猖 160
eless 160
ende 160
onga 160
hood 160
aton 160
shir 160
嬷 160
tai 160
▁ach 160
▁ice 160
▁tal 160
▁wir 160
ctu 160
▁jet 160
:... 160
▁dl 160
▁love 160
▁leg 160
▁¶ 160
▁10.000 160
▁1939. 160
▁00: 160
▁باران 160
闰 159
sma 159
俨 159
诣 159
苑 159
pela 159
rest 159
pio 159
pit 159
unn 159
zing 159
adio 159
iran 159
miss 159
otta 159
ctive 159
瓢 159
耶路 159
inian 159
rina 159
▁mot 159
▁yam 159
;) 159
▁sid 159
▁bul 159
▁pod 159
哦哦 159
▁́ 159
▁اعمال 159
ذبه 159
▁شاع 159
▁ماست 159
▁قسمت 159
▁اولاد 159
▁مهمان 159
▁ياد 159
▁بدست 159
硅胶 158
撷 158
prot 158
rys 158
涟漪 158
鹅绒 158
count 158
ged 158
guer 158
asan 158
gom 158
▁camp 158
▁ax 158
pere 158
▁aqu 158
eney 158
▁cons 158
嘿嘿嘿 158
▁systems 158
▁1940. 158
▁برود 158
]". 158
牡 157
dio 157
冉 157
uby 157
fla 157
apt 157
pping 157
颞 157
缎 157
astr 157
kou 157
ugu 157
孱 157
飘飘 157
▁las 157
▁rog 157
ekaa 157
▁network 157
-13. 157
▁american 157
坨 157
▁قالب 157
▁اضافي 157
▁داش 157
-7) 157
楞 156
erin 156
fast 156
zit 156
恬 156
alism 156
ular 156
fix 156
tif 156
raz 156
zia 156
litz 156
roe 156
姥姥 156
onen 156
rose 156
▁ker 156
▁jd 156
▁ya 156
▁gol 156
▁cass 156
▁pos 156
▁gul 156
▁electric 156
▁research 156
2), 156
ekta 156
ينن 156
麝 155
rera 155
oku 155
emar 155
cale 155
tat 155
纶 155
拈 155
tah 155
jur 155
仨 155
ote 155
▁gw 155
蛤 155
▁gas 155
▁not 155
oldt 155
▁kell 155
兜兜 155
馊 155
▁notes 155
▁يره 155
▁خاطر 155
▁خرد 155
legra 154
溥 154
鹃 154
沽 154
his 154
ety 154
mov 154
sang 154
iks 154
丙酮 154
鲈 154
ester 154
coe 154
▁ae 154
ural 154
▁shar 154
鲱 154
▁lat 154
idae 154
eddie 154
▁kos 154
▁yes 154
睿的 153
bim 153
sele 153
啜 153
rok 153
“哇 153
class 153
alli 153
ytes 153
iler 153
oven 153
emis 153
ska 153
anan 153
astro 153
ute 153
▁ric 153
醺醺 153
▁fast 153
▁nom 153
▁dim 153
▁pur 153
▁dap 153
▁active 153
▁tara 153
▁posted 153
▁5-10 153
سمه 153
▁مخصوص 153
膦 152
kee 152
soci 152
敝 152
懵 152
esto 152
edic 152
anto 152
诿 152
kod 152
▁opera 152
usti 152
jus 152
cion 152
encer 152
▁hil 152
▁mine 152
◦ 152
▁white 152
▁dha 152
▁$1 152
▁2004, 152
▁2000, 152
▁مسافر 152
تناب 152
ستى 152
仄 151
vita 151
yor 151
orm 151
sias 151
“冻 151
dag 151
phin 151
etz 151
idan 151
kak 151
氡 151
onics 151
▁admin 151
晃晃 151
▁but 151
gay 151
▁cast 151
▁gene 151
▁trust 151
▁beta 151
08. 151
▁جاب 151
▁شفا 151
midi 150
cali 150
—“ 150
笙 150
± 150
▁enka 150
wiss 150
喵 150
chis 150
苔藓 150
sis 150
akar 150
pine 150
unga 150
lisa 150
▁gat 150
鼹 150
▁zu 150
▁hag 150
▁chu 150
▁apr 150
▁ο 150
▁وارن 150
锲 149
gali 149
噱 149
lama 149
atio 149
lich 149
▁mand 149
▁silver 149
▁eco 149
▁pes 149
镕 149
♥ 149
▁ine 149
▁aug 149
ekah 149
aties 149
▁union 149
▁standard 149
嗷 149
▁33: 149
▁منج 149
’” 148
奚 148
?, 148
akin 148
elis 148
俸 148
gba 148
ories 148
hla 148
fig 148
倭 148
憔悴 148
ollo 148
喙 148
enne 148
glo 148
▁anna 148
▁grand 148
▁1234 148
嘞 148
▁club 148
▁gib 148
▁2002, 148
▁35, 148
nal 147
asc 147
four 147
琅 147
adas 147
umm 147
zone 147
shu 147
彬彬 147
igu 147
lett 147
fom 147
bun 147
铤 147
atta 147
▁kir 147
▁ren 147
▁pla 147
▁92% 147
size 147
▁maria 147
▁glo 147
▁≤ 147
▁okay 147
▁times 147
▁moja 147
▁ايس 147
لی 147
▁معمولا 147
studi 146
£ 146
qas 146
aba 146
ping 146
byt 146
chuk 146
偌 146
tay 146
ania 146
dip 146
疮痍 146
dob 146
ement 146
isti 146
porter 146
hle 146
andon 146
▁tay 146
tn 146
omes 146
▁pep 146
uar 146
▁travel 146
▁water 146
▁europe 146
▁روش 146
displaystyle 146
▁تاغ 146
“‘ 145
▁☆ 145
峦 145
sia 145
衬垫 145
imus 145
agan 145
anic 145
urop 145
ingen 145
hold 145
腱 145
搪 145
都合 145
dali 145
finn 145
rance 145
▁eas 145
rique 145
lata 145
掮 145
▁greg 145
▁rus 145
樽 145
rows 145
▁audi 145
▁ten 145
aty 145
▁est 145
▁shift 145
union 144
nts 144
okup 144
cid 144
odor 144
qua 144
▁皆 144
偎 144
strom 144
tica 144
vard 144
zzi 144
匝 144
yag 144
alto 144
urus 144
▁wind 144
ronic 144
▁dun 144
▁mul 144
▁nar 144
嵴 144
▁sco 144
▁mont 144
▁boot 144
▁ايران 144
▁صاب 144
▁اوا 144
▁ابد 144
▁آغ 144
iru 143
akte 143
槐 143
龛 143
mund 143
juli 143
overy 143
arts 143
peri 143
lers 143
atics 143
ilan 143
cay 143
bali 143
jt 143
媾 143
▁kor 143
colm 143
wara 143
▁sla 143
kali 143
▁wit 143
▁photo 143
▁amp 143
▁south 143
▁dana 143
▁marine 143
▁2014/ 143
▁رحم 143
▁آرت 143
∶“ 142
prime 142
dba 142
兵士 142
sla 142
ext 142
▁御 142
chang 142
cko 142
rari 142
韶 142
chai 142
腋 142
idas 142
year 142
von 142
bog 142
hic 142
馒 142
elsen 142
cone 142
《纺 142
meh 142
fai 142
▁rock 142
▁jud 142
▁cro 142
unu 142
▁ry 142
fata 142
▁micros 142
▁market 142
▁sea 142
▁غلام 142
شمان 142
ماند 142
indow 141
“妈 141
匍匐 141
uten 141
brand 141
憨 141
amal 141
祁 141
ayi 141
▁iru 141
beli 141
ays 141
涣 141
yrus 141
窿 141
mez 141
bund 141
▁nr 141
▁spi 141
▁cog 141
▁bak 141
10] 141
▁eng 141
▁ret 141
▁جمعه 141
囹圄 140
pok 140
hed 140
wise 140
pool 140
燎 140
ghts 140
rud 140
orld 140
wah 140
cost 140
ging 140
锭 140
urd 140
胫 140
ensis 140
saf 140
▁#4 140
yf 140
▁step 140
ziz 140
▁psa 140
▁bru 140
yre 140
cte 140
▁think 140
nata 140
▁ana 140
▁tt 140
▁mem 140
quot 140
坨屎 140
▁32, 140
..!! 140
يميز 140
羲 139
bba 139
imeo 139
beg 139
俚 139
pul 139
indo 139
anza 139
onte 139
emon 139
钴壳 139
μ 139
aga 139
dian 139
tical 139
wig 139
ned 139
ulo 139
nett 139
wala 139
▁more 139
poc 139
▁ide 139
daq 139
▁solar 139
獾 139
▁geo 139
入面 139
彭滕 139
▁khan 139
▁zip 139
▁under 139
arra 139
▁1946. 139
▁سوز 139
يندان 139
lte 138
asonic 138
耆 138
麟 138
棠 138
alyst 138
juni 138
疣 138
emm 138
ffa 138
猬 138
nod 138
泯 138
mek 138
lice 138
intr 138
imas 138
rics 138
荻 138
otto 138
oston 138
▁read 138
▁‹ 138
氟烷 138
▁men 138
ungi 138
andar 138
▁rain 138
▁tele 138
▁No 138
▁آلم 138
癜 137
aken 137
:, 137
vot 137
electr 137
ights 137
▁翌 137
诟 137
sian 137
cim 137
nig 137
isu 137
斓 137
iris 137
ctions 137
pend 137
lene 137
▁tet 137
▁tit 137
▁feb 137
▁robots 137
▁37: 137
▁38, 137
▁باو 137
▁زا 137
贰 136
lekt 136
蜱 136
qt 136
?... 136
stant 136
gla 136
quest 136
kus 136
菁 136
pis 136
neg 136
沁 136
luk 136
elu 136
onos 136
andr 136
穹苍 136
rab 136
▁marc 136
cun 136
▁sir 136
pton 136
腾腾 136
▁71% 136
▁ix 136
▁bus 136
▁tig 136
▁iw 136
阿富 136
▁multi 136
▁pra 136
▁security 136
▁markets 136
ــــــــــــ 136
▁شنا 136
遄 135
釉 135
mala 135
opt 135
璀璨 135
ving 135
cili 135
箔 135
唑 135
erik 135
onis 135
asis 135
ontra 135
umen 135
radi 135
omon 135
edel 135
erty 135
舀 135
▁poli 135
kai 135
▁hit 135
▁oled 135
▁pip 135
▁vl 135
▁aj 135
碧翠 135
▁insig 135
▁night 135
29] 135
 134
aps 134
lel 134
urce 134
image 134
rade 134
site 134
rift 134
漾 134
burn 134
瘁 134
inner 134
inar 134
衹 134
enes 134
dod 134
硼 134
cao 134
▁rw 134
kek 134
heed 134
锯齿 134
vega 134
asse 134
▁jas 134
idad 134
amber 134
▁sab 134
▁face 134
pali 134
ushi 134
▁kam 134
yuz 134
▁dt 134
ú 134
▁cur 134
enzo 134
▁box 134
-------- 134
▁sep 134
▁dia 134
vironment 134
▁oct 134
▁2007, 134
riya 134
3), 134
▁ضرورت 134
他所意欲 133
疱疮 133
庐 133
yin 133
jel 133
cue 133
猕猴 133
andu 133
nim 133
pia 133
cour 133
氚 133
骁 133
ersen 133
麒麟 133
ogu 133
中略 133
mina 133
eries 133
▁blog 133
kent 133
rug 133
tein 133
olf 133
onio 133
utz 133
state 133
蓓 133
▁pir 133
kell 133
▁best 133
▁fu 133
abad 133
▁vik 133
▁game 133
▁gard 133
ophie 133
▁sean 133
▁cx 133
07. 133
▁40, 133
▁34: 133
▁1960. 133
▁امان 133
اوه 133
▁نيست 133
▁مشاغل 133
يلى 133
ual 132
meta 132
岚 132
kv 132
isson 132
arta 132
tek 132
hk 132
love 132
temp 132
alma 132
隅 132
esha 132
ires 132
ices 132
vog 132
lux 132
dir 132
stop 132
csi 132
adin 132
arg 132
maq 132
▁autom 132
▁chem 132
▁esa 132
▁ou 132
▁bou 132
▁total 132
▁sig 132
蚱蜢 132
▁run 132
▁≥ 132
▁apply 132
揍扁 132
▁ادا 132
▁^_^ 132
▁مزاح 132
¥ 131
print 131
ego 131
gram 131
itty 131
omis 131
test 131
锆 131
bst 131
nut 131
sav 131
疵 131
angi 131
anya 131
赅 131
惺惺 131
dad 131
脯 131
eson 131
undo 131
zzo 131
▁file 131
▁cel 131
▁1831 131
▁xi 131
▁liber 131
▁adw 131
boj 131
▁paris 131
▁mits 131
▁squ 131
▁wr 131
▁honor 131
▁filter 131
▁tue 131
ابقه 131
▁1/4 131
翟 130
“哎 130
rane 130
写真 130
aries 130
ilder 130
chd 130
tos 130
kla 130
eros 130
imer 130
ief 130
prote 130
uters 130
yeh 130
▁trade 130
▁ibo 130
氯硝 130
▁2008, 130
▁press 130
《汞 130
▁1945. 130
▁لوط 130
▁روه 130
▁اخراج 130
ووه 130
▁سولي 130
▁بشم 130
اردان 130
bly 129
pom 129
▁fao 129
cted 129
sex 129
nem 129
bula 129
lade 129
擘 129
dela 129
日付 129
adr 129
obar 129
pie 129
idh 129
eber 129
hav 129
usen 129
oda 129
莺 129
vez 129
holm 129
吱吱 129
咯咯 129
chase 129
▁kw 129
"3 129
鹈鹕 129
▁medi 129
▁ik 129
▁hand 129
▁het 129
chn 129
varez 129
▁grace 129
哔 129
▁36, 129
......... 129
▁limited 129
▁1920. 129
▁عذاب 129
▁ناو 129
اوان 129
隋 128
▁昔 128
蓟 128
hta 128
医者 128
rez 128
zek 128
othe 128
agar 128
oner 128
箍 128
born 128
▁jar 128
▁rap 128
dez 128
bass 128
▁set 128
▁cross 128
▁stem 128
哎呦 128
▁🙂 128
.[2] 128
▁موش 128
▁15-1 128
▁دفت 128
with 127
inal 127
omat 127
cta 127
risti 127
iac 127
aniya 127
osha 127
oble 127
unta 127
pov 127
▁uw 127
inet 127
▁bix 127
▁idea 127
摁 127
▁aur 127
▁cra 127
▁dig 127
▁32% 127
▁first 127
镎 127
anning 127
▁gla 127
▁itu 127
▁2010, 127
▁(4). 127
[4]. 127
▁جلدي 127
▁ورت 127
〜 126
ao 126
鹊 126
elisa 126
遨 126
jr 126
aras 126
strat 126
绮 126
lane 126
eus 126
cea 126
ffy 126
拗 126
vio 126
aden 126
mang 126
fos 126
sour 126
lix 126
elsa 126
▁chapter 126
▁cent 126
borne 126
▁dal 126
▁apt 126
▁map 126
▁russ 126
胯 126
▁cooper 126
▁gate 126
▁1782 126
煳 126
ديغ 126
嘅 125
瞋 125
ppt 125
~~ 125
imal 125
叟 125
徇 125
rut 125
mass 125
asat 125
ernet 125
buch 125
▁ibs 125
▁pela 125
sul 125
itte 125
isse 125
▁som 125
agh 125
rico 125
腈 125
▁ue 125
赀 125
▁miss 125
▁los 125
dit 125
▁vent 125
▁sic 125
▁rene 125
翘翘 125
▁acad 125
▁اثر 125
raid 124
”— 124
谒 124
zis 124
闽 124
色列 124
谧 124
nga 124
kup 124
pert 124
辘辘 124
onne 124
谄媚 124
job 124
rant 124
action 124
sie 124
胄 124
▁ox 124
ü 124
▁edu 124
▁ian 124
▁science 124
▁aaa 124
>> 124
▁تارت 124
▁دونم 124
apu 123
忤 123
csa 123
株式 123
egu 123
onian 123
asu 123
emu 123
endi 123
wab 123
ussa 123
麓 123
zil 123
jani 123
amor 123
bourne 123
垠 123
lj 123
怂 123
uge 123
kem 123
躯壳 123
anor 123
▁fred 123
▁soft 123
▁cir 123
▁nz 123
酩酊 123
peace 123
“蓬 123
▁μ 123
▁story 123
▁midi 123
▁1918. 123
▁والله 123
▁ارتباطات 123
لستان 123
▁راست 123
湘 122
fts 122
ints 122
弼 122
imm 122
汹汹 122
asim 122
匾 122
wik 122
ared 122
dog 122
gang 122
璜 122
fk 122
mia 122
omy 122
▁chan 122
ague 122
▁port 122
▁jay 122
笨笨 122
▁card 122
▁video 122
▁gran 122
▁const 122
▁cin 122
▁angel 122
▁comp 122
▁poly 122
▁2007- 122
▁road 122
▁‐ 122
氢氟氯烃 122
▁{\ 122
▁رقابت 122
部落客 121
谊” 121
噤 121
嫡 121
蔷 121
quis 121
pper 121
懊恼 121
眶 121
chak 121
cala 121
lop 121
nova 121
olla 121
assa 121
wet 121
hag 121
俐 121
ctic 121
▁uf 121
▁sto 121
▁sant 121
▁switch 121
▁2011, 121
▁point 121
▁report 121
▁(2016) 121
آش 121
▁اشتباه 121
▁دايان 121
荨 120
痿 120
hov 120
jad 120
cek 120
arab 120
鲶 120
mud 120
榛 120
钼 120
▁kon 120
dai 120
tus 120
than 120
yton 120
sein 120
▁alien 120
jem 120
indu 120
臼 120
▁ade 120
pou 120
rita 120
▁raid 120
▁gil 120
▁neur 120
▁design 120
薮 120
▁36: 120
unod 120
▁(+ 120
▁رن 120
▁1/2 120
﴿ 120
.[4] 120
لوق 120
ّْ 120
opera 119
-, 119
ffic 119
enk 119
放送 119
aph 119
cula 119
shot 119
rei 119
emas 119
onal 119
bron 119
eral 119
▁mpa 119
arte 119
inta 119
▁sage 119
ubin 119
ullah 119
00.00 119
ege 119
▁nu 119
▁brand 119
▁sos 119
▁winter 119
▁hun 119
'- 119
▁sad 119
gail 119
▁santa 119
▁kan 119
irg 119
▁remove 119
瑢 119
▁nate 119
▁1970. 119
؟". 119
▁ماند 119
▁دات 119
▁نجه 119
▁دوش 119
丕 118
晖 118
秸秆 118
tot 118
otis 118
籁 118
ravi 118
xim 118
inem 118
chal 118
vim 118
hele 118
phan 118
umu 118
agr 118
ugo 118
omer 118
kut 118
"5 118
guez 118
hanie 118
uls 118
杳 118
amma 118
讥诮 118
▁kin 118
▁hum 118
wana 118
蚌 118
▁lam 118
痒痒 118
▁string 118
▁fir 118
▁sis 118
zoe 118
▁cab 118
▁2012- 118
▁view 118
▁text 118
irim 118
▁prop 118
▁price 118
碴 118
rast 118
▁34, 118
▁1973. 118
▁مهارت 118
▁لرئ 118
“爹 117
model 117
auto 117
spir 117
eran 117
sted 117
asta 117
hann 117
iw 117
inos 117
氩 117
oder 117
ㄧ 117
fak 117
篓 117
rier 117
▁vil 117
▁fed 117
irah 117
琪琪 117
▁plan 117
lach 117
alim 117
▁fish 117
▁dog 117
▁kate 117
′ 117
▁40: 117
▁يهودا 117
▁امور 117
▁مطابقت 117
5-4 117
▁بونا 117
△ 116
懿 116
ies 116
hog 116
naf 116
ayan 116
illing 116
weet 116
嬴 116
镑兑 116
ctors 116
咁 116
oshi 116
ences 116
闵 116
chy 116
▁mik 116
ting 116
eny 116
gle 116
tsd 116
肓 116
蜃 116
▁vii 116
sts 116
▁grab 116
inez 116
▁cali 116
juan 116
deh 116
▁name 116
▁english 116
▁nad 116
uction 116
▁tro 116
篾 116
+. 116
▁ياخ 116
▁مأمور 116
▁واته 116
▁معاف 116
▁آرو 116
佚 115
▁信道 115
谆谆 115
蕨 115
date 115
club 115
擢 115
bod 115
seg 115
itis 115
瑾 115
晌 115
ambi 115
vari 115
wers 115
ych 115
moon 115
what 115
苇 115
予定 115
madi 115
ardu 115
▁ky 115
ined 115
▁rach 115
▁β 115
pour 115
▁nic 115
▁studi 115
kare 115
▁dw 115
▁1941. 115
ََ 115
狺 115
▁۲ 115
اندان 115
wwe 114
yh 114
pras 114
纣 114
建物 114
liber 114
tage 114
遑 114
enix 114
iska 114
impa 114
alta 114
浑浊 114
蹶 114
蟾蜍 114
idu 114
▁asi 114
跆 114
▁aer 114
杵 114
zet 114
▁uv 114
▁hall 114
▁ua 114
▁els 114
▁anne 114
▁gali 114
nings 114
▁dream 114
掴 114
▁magic 114
▁dark 114
▁kg 114
▁خراب 114
-12) 114
bix 113
耸耸 113
tru 113
aer 113
nv 113
孑 113
mira 113
akay 113
trak 113
strong 113
cham 113
ogra 113
《魁 113
000, 113
amax 113
atian 113
nur 113
砥 113
汛 113
irm 113
vod 113
焙 113
cking 113
》丛 113
jamin 113
gua 113
榭 113
recht 113
▁aba 113
human 113
ladi 113
▁imo 113
í 113
cze 113
▁show 113
▁nl 113
▁test 113
amour 113
▁mass 113
▁>> 113
jha 113
▁احساس 113
▁شاو 113
-8) 113
idea 112
odu 112
娥 112
驰骋 112
chia 112
andro 112
咕噜 112
corn 112
mog 112
fes 112
▁fw 112
iger 112
鲟 112
绢 112
utt 112
urch 112
葺 112
reach 112
bei 112
ghan 112
本当 112
《“ 112
alf 112
pai 112
▁teleg 112
gut 112
▁ron 112
fem 112
▁rim 112
▁cli 112
疥疮 112
tina 112
▁nam 112
▁tir 112
▁vit 112
▁mission 112
oin 112
agos 112
▁pad 112
jib 112
▁nv 112
▁facet 112
汞浓 112
"0 112
▁اساس 112
▁منو 112
▁ترقي 112
▁صلح 112
–“ 111
∶ 111
logo 111
荀 111
蓉 111
瑜 111
komp 111
enzie 111
▁01. 111
plas 111
like 111
imiz 111
晟 111
itel 111
tang 111
ument 111
gers 111
adis 111
beng 111
秧 111
疝 111
foot 111
12] 111
瞅 111
▁ton 111
lickr 111
mete 111
quel 111
jala 111
搔 111
泮 111
kow 111
▁help 111
▁emma 111
▁dot 111
stats 111
▁child 111
▁lex 111
▁content 111
▁tab 111
▁45, 111
‐ 111
▁machine 111
؟) 111
▁تخم 111
▁كورد 111
▁شدت 111
曜 110
inx 110
ppi 110
ugan 110
lady 110
thi 110
lef 110
奕 110
tid 110
verse 110
hev 110
沂 110
faa 110
rise 110
tav 110
cow 110
ample 110
try 110
enson 110
nac 110
▁ape 110
dee 110
eler 110
濯 110
镊 110
amis 110
鳖 110
ugar 110
quet 110
fay 110
lech 110
▁sor 110
▁vp 110
▁eras 110
鳃 110
▁sound 110
▁dead 110
teb 110
qat 110
▁say 110
haj 110
▁yang 110
wolo 110
mittee 110
-191 110
▁اسل 110
▁سوش 110
2-4 110
irect 109
utions 109
aller 109
霜冻 109
obser 109
div 109
腼腆 109
酣 109
ulti 109
stor 109
tit 109
▁nin 109
buy 109
aus 109
ands 109
fied 109
锑 109
oval 109
come 109
terra 109
眯 109
orat 109
vien 109
kaka 109
▁tha 109
纰 109
▁nm 109
taw 109
won 109
▁pam 109
▁lisa 109
▁vas 109
▁kit 109
„ 109
▁pala 109
蒺藜 109
neal 109
▁radio 109
姥鲨 109
▁42, 109
وسه 109
▁خاو 109
阱” 108
mega 108
伫 108
egas 108
铝箔 108
obu 108
xer 108
orte 108
▁nit 108
mfa 108
egr 108
goni 108
jum 108
uku 108
engo 108
enko 108
olina 108
xes 108
dial 108
ej 108
bran 108
rif 108
nen 108
belle 108
type 108
▁als 108
fik 108
gai 108
olle 108
立派 108
▁activ 108
illian 108
bik 108
estar 108
:31 108
chl 108
▁ent 108
▁wiki 108
tuk 108
nash 108
▁hl 108
▁via 108
▁east 108
▁2009, 108
hrani 108
▁cerd 108
▁[2] 108
▁شوم 108
▁ياق 108
▁سارا 108
▁بخش 108
】【 107
arac 107
嫣 107
loop 107
video 107
vul 107
eki 107
zes 107
front 107
wb 107
brid 107
ossa 107
erius 107
ieb 107
zem 107
案内 107
篑 107
cius 107
囿 107
鲭 107
adem 107
rice 107
tari 107
▁pinter 107
芙蓉 107
▁hans 107
蜇 107
:4. 107
▁kap 107
▁kil 107
mission 107
onds 107
▁gg 107
▁fb 107
▁pot 107
bena 107
▁prime 107
▁rat 107
烷浓 107
chum 107
▁nest 107
▁chin 107
聼 107
▁hat 107
▁kel 107
▁à 107
▁دز 107
wix 106
晏 106
nologies 106
cron 106
hist 106
烽 106
yst 106
鸳鸯 106
ansa 106
ense 106
脓肿 106
opp 106
riga 106
拄 106
杞 106
zg 106
uring 106
uran 106
uso 106
▁lind 106
▁2014- 106
cation 106
wai 106
▁hov 106
▁bab 106
裱 106
▁ist 106
naya 106
▁mun 106
itch 106
gher 106
▁ws 106
pee 106
fication 106
▁ifa 106
vak 106
▁bac 106
yama 106
yder 106
▁neo 106
ombe 106
辣酱 106
buta 106
imis 106
铍 106
▁karen 106
褓 106
▁pros 106
▁horiz 106
opie 106
▁action 106
▁41: 106
▁ila 106
▁حرارت 106
▁توسط 106
▁قود 106
“喂 105
瑶 105
amai 105
jil 105
iea 105
inse 105
bok 105
铱 105
ier 105
omor 105
bashi 105
cribe 105
鹳 105
athy 105
痼 105
▁正直 105
radar 105
嘟嘟 105
ias 105
mig 105
itia 105
lotte 105
cing 105
▁div 105
jai 105
▁angela 105
▁fair 105
▁pul 105
▁planet 105
eru 105
▁tg 105
▁saint 105
癫癫 105
▁ear 105
tart 105
▁43, 105
▁crist 105
▁1998, 105
覂 105
ينجا 105
▁ظالم 105
▁موند 105
.[3 105
▁10-12 105
ردم 105
yit 104
ribu 104
usc 104
hagi 104
葆 104
⋅ 104
cier 104
veg 104
垛 104
jans 104
meth 104
biz 104
embo 104
掷骰 104
ymp 104
犒 104
enner 104
lain 104
sama 104
enia 104
resh 104
oti 104
ava 104
▁pia 104
alba 104
ganda 104
egy 104
ungs 104
▁nos 104
▁kom 104
▁pris 104
▁sing 104
▁care 104
alq 104
▁mn 104
▁prog 104
fad 104
▁moon 104
cee 104
▁shan 104
▁voice 104
▁list 104
▁daily 104
▁ark 104
▁basic 104
▁right 104
tout 103
lassi 103
etic 103
mum 103
mish 103
槟榔 103
etr 103
alp 103
讥讽 103
article 103
jed 103
lir 103
rama 103
寮 103
zion 103
edes 103
ologi 103
嘀咕 103
mata 103
ilor 103
莠 103
cious 103
 103
▁09. 103
iku 103
嘶 103
inah 103
odes 103
nj 103
胳 103
cama 103
icos 103
"2 103
痫 103
▁baby 103
▁tik 103
▁rest 103
獠 103
蛭 103
▁casa 103
炯 103
镅 103
▁pon 103
▁soc 103
▁dy 103
▁sup 103
▁1997, 103
▁41, 103
٠٠٠ 103
ودن 103
▁ارشاد 103
وندور 103
▁[...]. 103
▁علاقه 103
uthor 102
偃 102
stel 102
 102
wine 102
tq 102
oris 102
brat 102
eren 102
吕宋 102
rg 102
uste 102
恻 102
chip 102
铉 102
◊ 102
sule 102
onk 102
lika 102
thy 102
able 102
砧 102
isto 102
ideo 102
ffin 102
ln 102
hib 102
雏菊 102
iment 102
edra 102
▁phen 102
跺 102
yem 102
▁tod 102
▁pub 102
▁cup 102
▁job 102
▁was 102
▁after 102
▁work 102
▁tok 102
...? 102
▁anton 102
▁supra 102
issi 102
嗨嗨 102
窝赃 102
▁school 102
▁جهن 102
▁دارو 102
▁غص 102
▁منبع 102
usas 101
梓 101
cook 101
tsa 101
cate 101
unit 101
plat 101
oub 101
牦 101
mend 101
cka 101
cken 101
lary 101
byr 101
扑朔 101
atar 101
lando 101
antos 101
mok 101
zma 101
uly 101
xin 101
ç 101
▁ford 101
wari 101
▁astr 101
▁arg 101
istics 101
▁bot 101
▁ug 101
蜥 101
▁iph 101
zou 101
涮 101
▁had 101
▁ven 101
▁tf 101
▁bridge 101
▁look 101
▁pac 101
▁ita 101
▁supr 101
▁today 101
4), 101
▁france 101
▁جنت 101
▁دمه 101
راحت 101
دوز 101
1-4 101
【“ 100
nok 100
秩 100
苍穹 100
order 100
《铲 100
aming 100
chle 100
osc 100
onse 100
玫 100
▁05. 100
芦 100
isch 100
yad 100
liu 100
oux 100
tali 100
alog 100
kamp 100
akat 100
elon 100
udy 100
qin 100
aros 100
lick 100
enza 100
▁akin 100
▁sci 100
▁second 100
yab 100
▁wonder 100
▁ran 100
▁site 100
▁urban 100
▁iz 100
ulation 100
▁kick 100
▁conf 100
啪 100
▁bag 100
▁eag 100
▁mars 100
▁rig 100
裤裆 100
▁mach 100
fwe 100
▁aver 100
ُّ 100
▁مسئ 100
▁2/3 100
▁ilm 100
jave 99
帛 99
atlan 99
servi 99
cator 99
cool 99
岬 99
uy 99
sula 99
遐 99
zag 99
▁hell 99
orio 99
▁io 99
elan 99
phere 99
atis 99
ffen 99
sai 99
kari 99
fj 99
enas 99
颧 99
▁rot 99
▁meta 99
徳 99
缦 99
kid 99
▁jos 99
aren 99
蝾螈 99
▁gri 99
▁avg 99
igr 99
▁gon 99
▁syl 99
▁metal 99
hano 99
▁leo 99
▁sed 99
▁2016, 99
▁general 99
▁heb 99
▁lond 99
./ 99
ylla 99
▁cum 99
▁46: 99
▁فدر 99
▁راز 99
villa 98
皓 98
irc 98
vide 98
嘻嘻 98
ekit 98
hra 98
sut 98
onder 98
lok 98
anah 98
iap 98
erk 98
maa 98
zos 98
ask 98
nir 98
writ 98
铆 98
lius 98
roll 98
ersch 98
jee 98
eker 98
lob 98
▁bim 98
▁easy 98
哼哼 98
jug 98
▁cod 98
▁alan 98
崴 98
frica 98
▁publish 98
chus 98
▁react 98
▁bea 98
ité 98
▁2009- 98
▁nk 98
▁dod 98
▁ess 98
lats 98
▁assemb 98
▁انواع 98
▁خا 98
▁1/3 98
اندير 98
▁آيري 98
▁مخالفت 98
7-4 98
bene 97
lol 97
useum 97
arth 97
isma 97
lator 97
gari 97
nikov 97
aur 97
cki 97
jana 97
orde 97
ident 97
err 97
table 97
vano 97
osti 97
ograph 97
icus 97
elor 97
ameen 97
laro 97
pore 97
芦笋 97
蹬 97
lile 97
uray 97
猥琐 97
▁fra 97
殓 97
蝌蚪 97
▁ov 97
aid 97
imah 97
钹 97
▁fur 97
zerland 97
▁hunt 97
▁stone 97
▁vega 97
▁miles 97
loan 97
vun 97
yeah 97
▁build 97
▁beach 97
ـــــــــــــ 97
▁موجوده 97
interest 96
稷 96
祛 96
elh 96
else 96
▁02. 96
煲 96
psi 96
xia 96
program 96
gli 96
dab 96
castle 96
dub 96
谗 96
shire 96
hole 96
mant 96
咀 96
ostat 96
▁eva 96
wink 96
pisa 96
▁2015, 96
嗦 96
ó 96
anie 96
arat 96
▁psy 96
fara 96
▁flo 96
▁kind 96
▁class 96
▁forex 96
▁ek 96
▁bart 96
▁imp 96
aday 96
▁ses 96
▁color 96
afi 96
▁prec 96
▁ultra 96
▁hmm 96
▁bn 96
gins 96
▁public 96
oua 96
▁central 96
皂荚 96
啼啼 96
▁عاشق 96
▁لرم 96
الار 96
▁اجر 96
▁سانه 96
“朕 95
ftware 95
gta 95
pti 95
wii 95
cant 95
angeli 95
tev 95
nice 95
lema 95
fest 95
hind 95
zara 95
maya 95
eris 95
obra 95
锏 95
ean 95
yana 95
糯 95
垩 95
emias 95
pah 95
cey 95
obil 95
egar 95
antes 95
▁eit 95
▁mirt 95
▁mim 95
褂 95
▁ara 95
▁prince 95
▁rud 95
▁disc 95
▁band 95
▁snow 95
▁tol 95
▁mam 95
▁wash 95
▁wu 95
▁plat 95
opu 95
qam 95
▁devin 95
▁labs 95
▁42: 95
،000 95
▁سامان 95
▁ی 95
/46/ 95
▁مغز 95
▁مرده 95
▁آغا 95
泗 94
mie 94
谥 94
徜徉 94
韭 94
mong 94
prob 94
▁prim 94
alys 94
cana 94
ilding 94
爹爹 94
chiki 94
erne 94
jell 94
π 94
erus 94
emia 94
yson 94
zur 94
anaan 94
opol 94
laing 94
onu 94
bale 94
嬷嬷 94
uga 94
cular 94
nay 94
pta 94
rium 94
nou 94
ensi 94
redit 94
▁pom 94
鹫 94
erf 94
▁ans 94
uder 94
▁2012, 94
▁premi 94
▁lund 94
▁fly 94
▁heart 94
bwe 94
▁tos 94
ische 94
 94
naz 94
螳螂 94
▁professional 94
omt 94
▁walt 94
▁swit 94
▁وده 94
▁فره 94
after 93
悌 93
roz 93
mom 93
鬃 93
astra 93
itsa 93
lant 93
haz 93
镐 93
inus 93
分野 93
hud 93
coa 93
▁dra 93
骛 93
bari 93
▁juli 93
erie 93
jou 93
lili 93
hula 93
▁hir 93
▁patri 93
ament 93
▁gun 93
欸 93
▁aq 93
▁cher 93
▁double 93
茍 93
▁victoria 93
▁pri 93
▁two 93
oba 93
▁alfa 93
zun 93
▁hem 93
▁syd 93
ّٰ 93
▁latte 93
انم 93
ونم 93
▁اتي 93
”吴 92
aja 92
amics 92
疸 92
sana 92
幂 92
ically 92
olution 92
sik 92
dut 92
read 92
quez 92
adda 92
ulis 92
bras 92
aking 92
prin 92
zat 92
靳 92
athi 92
苜蓿 92
ardy 92
orum 92
hiba 92
rene 92
islam 92
荤 92
meet 92
乜 92
apr 92
zai 92
▁lov 92
鬓 92
劵 92
ansen 92
▁rand 92
▁reality 92
▁date 92
▁wel 92
▁oz 92
▁xe 92
▁proc 92
▁cub 92
▁table 92
▁lake 92
▁rex 92
▁assist 92
-20. 92
▁works 92
▁$100 92
▁اون 92
ــــــــــــــ 92
▁بولا 92
5-3 92
قتى 92
诂 91
毂 91
cani 91
弋 91
bela 91
commerce 91
find 91
瞠 91
angan 91
aser 91
kart 91
produc 91
uo 91
cope 91
mena 91
谔 91
pose 91
ological 91
raja 91
assemb 91
amah 91
lies 91
final 91
▁thor 91
面倒 91
inform 91
蚜 91
oter 91
▁camb 91
opr 91
▁sym 91
▁jf 91
bius 91
vai 91
▁river 91
▁bang 91
叨叨 91
kang 91
 91
▁exp 91
▁infin 91
▁diet 91
▁hap 91
▁human 91
zation 91
浓稠 91
▁classi 91
▁display 91
▁match 91
▁solutions 91
اندن 91
▁برند 91
彤 90
effe 90
殚 90
chid 90
nest 90
industri 90
eq 90
trad 90
esen 90
usp 90
ikos 90
vasi 90
amh 90
enstein 90
糠 90
paa 90
踱 90
msa 90
level 90
▁07. 90
tum 90
odia 90
hut 90
大丈夫 90
ambu 90
掖 90
秃秃 90
sud 90
▁kee 90
▁dax 90
▁tess 90
vali 90
sterd 90
跷 90
眈眈 90
righ 90
▁gk 90
鬣 90
▁ema 90
cter 90
rani 90
▁sie 90
▁jessi 90
▁lut 90
▁last 90
▁que 90
iker 90
▁them 90
^^ 90
▁author 90
▁pw 90
▁2011- 90
=" 90
▁invest 90
暨《 90
▁plaza 90
▁hank 90
▁1963. 90
▁3/4 90
▁نوش 90
▁2006/4 90
嫦娥 89
occ 89
飨 89
prem 89
okia 89
antis 89
edon 89
wani 89
lod 89
芦荟 89
炳 89
睇 89
gent 89
↓ 89
lese 89
sib 89
alon 89
龋齿 89
dum 89
到着 89
cane 89
▁oce 89
zas 89
bib 89
load 89
bom 89
tio 89
鸨 89
qar 89
sible 89
olos 89
hek 89
▁tap 89
oret 89
ulan 89
▁gis 89
▁ei 89
锹 89
δ 89
▁moto 89
▁0% 89
艹 89
▁luke 89
č 89
▁moni 89
▁dragon 89
▁mode 89
▁zero 89
▁pass 89
▁rep 89
▁anywhere 89
哇噢 89
▁1962. 89
▁شاعر 89
2]. 89
▁...) 89
▁عهده 89
]]. 89
▁فئر 89
▁امتح 89
▁برتر 89
▁نرم 89
▁آلو 89
hulu 88
igin 88
ipt 88
甾 88
koh 88
iet 88
ogr 88
mone 88
buk 88
apost 88
chule 88
yota 88
kala 88
sions 88
idin 88
espe 88
unds 88
arai 88
quer 88
笠 88
elos 88
teg 88
erg 88
ized 88
artin 88
yel 88
rigo 88
叵 88
ppy 88
▁vivo 88
▁aja 88
懑 88
gah 88
jl 88
elles 88
▁iss 88
isan 88
▁radi 88
adha 88
▁math 88
▁ultr 88
▁vita 88
assi 88
▁cris 88
▁bug 88
artha 88
cuba 88
▁old 88
lization 88
▁square 88
ruk 88
udin 88
▁kay 88
zira 88
阄 88
▁ime 88
▁slo 88
zob 88
gender 88
▁break 88
▁final 88
▁1968. 88
▁اموال 88
▁حوال 88
▁نرس 88
沪 87
wfo 87
sole 87
纺纱 87
laz 87
vate 87
戾 87
kong 87
arie 87
uden 87
cev 87
amen 87
itus 87
loc 87
itim 87
iele 87
襁褓 87
igen 87
rang 87
鸮 87
onge 87
duk 87
igan 87
氙 87
social 87
舅妈 87
full 87
akan 87
uai 87
orial 87
atus 87
▁mira 87
▁diy 87
aney 87
ikin 87
â 87
▁nsa 87
▁tem 87
apos 87
▁mega 87
抡 87
finan 87
gara 87
andes 87
shim 87
▁local 87
zano 87
▁terra 87
▁are 87
蚂蚱 87
▁vh 87
essie 87
▁sports 87
zizi 87
zey 87
▁court 87
▁sport 87
▁44, 87
▁1966. 87
▁ربه 87
ئري 87
▁24/7 87
موش 87
▁نظرات 87
▁استدلال 87
idis 86
荔 86
钯 86
嚎啕 86
pens 86
殒 86
asio 86
iron 86
ilu 86
cover 86
iston 86
tol 86
anian 86
sei 86
lipse 86
akt 86
鲸鲨 86
week 86
jung 86
reich 86
chez 86
ethi 86
orian 86
ustan 86
veni 86
anos 86
褶 86
ilt 86
晕眩 86
ders 86
cah 86
vale 86
噗 86
ements 86
iday 86
▁visi 86
velop 86
gau 86
ebe 86
▁royal 86
▁phot 86
▁ther 86
臊 86
▁pant 86
ovina 86
▁nut 86
▁social 86
▁stra 86
ö 86
▁food 86
▁eut 86
▁family 86
atura 86
▁wed 86
▁swe 86
usin 86
ziza 86
...! 86
▁اوت 86
▁نظارت 86
爻 85
cau 85
fold 85
past 85
iper 85
tod 85
ule 85
crit 85
hean 85
omin 85
绫 85
chim 85
ondon 85
aten 85
蚝 85
dist 85
椿 85
▁sita 85
cai 85
stadt 85
utin 85
《《 85
eger 85
▁ism 85
痘痘 85
sau 85
urin 85
bam 85
pj 85
▁bach 85
yto 85
▁kenn 85
▁foss 85
▁ew 85
▁ath 85
inth 85
platz 85
▁with 85
▁pil 85
▁delta 85
▁oo 85
▁gor 85
akir 85
▁qi 85
▁down 85
▁finn 85
叽 85
▁ceb 85
疥 85
▁aid 85
▁remote 85
6), 85
▁1965. 85
▁،، 85
▁اصطلاح 85
砺 84
物配 84
lipp 84
兀 84
chas 84
▁一度 84
滞在 84
tau 84
篪 84
nih 84
aston 84
etes 84
antar 84
jara 84
lom 84
kob 84
amon 84
usia 84
enna 84
aring 84
汪汪 84
曷 84
▁bull 84
▁how 84
▁..., 84
▁ike 84
fow 84
▁sales 84
▁alma 84
▁vide 84
yna 84
▁sti 84
膑 84
▁yu 84
▁pok 84
▁four 84
▁imi 84
▁young 84
▁din 84
▁reach 84
▁nova 84
▁prom 84
▁ads 84
▁dll 84
▁lem 84
▁model 84
▁safe 84
▁$5 84
tov 84
▁acqua 84
▁ايمان 84
▁منابع 84
بوو 84
“唉 83
榕 83
ereum 83
鑫 83
荞 83
mim 83
tup 83
jour 83
best 83
quir 83
叱 83
self 83
堰 83
etu 83
weh 83
▁✔ 83
辕 83
etra 83
arium 83
ffi 83
hair 83
inum 83
urces 83
thar 83
莴苣 83
kana 83
▁hus 83
▁oi 83
▁prov 83
▁put 83
ulli 83
▁pure 83
zona 83
▁luc 83
▁mai 83
▁ddr 83
▁tn 83
▁iron 83
inya 83
铅浓 83
dara 83
▁ped 83
chani 83
▁sj 83
擀 83
▁lip 83
▁mut 83
赒 83
▁level 83
ré 83
▁eph 83
▁mill 83
撚 83
▁boe 83
▁sue 83
▁cole 83
▁econom 83
▁hold 83
▁software 83
és 83
8), 83
issant 83
▁kuf 83
لارين 83
▁درو 83
نگ 83
ريشن 83
▁تلاش 83
adic 82
nets 82
roi 82
ulle 82
ager 82
atri 82
adel 82
akti 82
nw 82
itr 82
zad 82
tela 82
iton 82
涛汹 82
hama 82
urban 82
prof 82
eln 82
akam 82
arak 82
many 82
antom 82
慵懒 82
idge 82
pana 82
olph 82
▁rit 82
viv 82
aste 82
akim 82
orola 82
欧州 82
thia 82
laus 82
erman 82
▁hyd 82
迢迢 82
▁dz 82
▁nint 82
2.1. 82
▁mix 82
▁dos 82
▁gram 82
▁abi 82
▁stock 82
▁cj 82
baka 82
锰壳 82
▁una 82
▁cov 82
▁india 82
▁fund 82
▁shin 82
▁ameri 82
11] 82
tiya 82
▁hod 82
闲晃 82
▁resources 82
▁ـــ 82
دايت 82
داره 82
rimin 81
佗 81
baut 81
阜 81
laris 81
eo 81
▁fus 81
esch 81
璇 81
zap 81
unde 81
onke 81
ceu 81
皙 81
▁­ 81
wide 81
orth 81
zs 81
estr 81
糜 81
ctiv 81
erif 81
undi 81
cycle 81
▁aida 81
marks 81
urat 81
maj 81
umption 81
鲔 81
egi 81
蹑 81
edz 81
vend 81
antha 81
reid 81
嘟 81
zeg 81
▁sen 81
▁sav 81
▁echo 81
▁thom 81
飚 81
▁̈ 81
▁nata 81
罐啤 81
▁gir 81
▁user 81
▁iar 81
▁$3 81
▁2013, 81
▁motion 81
▁women 81
«» 81
▁دانا 81
ḥ 81
▁laptop 81
[...] 81
▁نوز 81
▁عزت 81
▁زرد 81
滇 80
dao 80
铣 80
institu 80
did 80
versa 80
oros 80
忐忑 80
pax 80
sev 80
maker 80
✓ 80
anak 80
asar 80
imt 80
饯 80
anus 80
aca 80
腋窝 80
rish 80
eve 80
det 80
tour 80
tale 80
gren 80
area 80
喃 80
uris 80
entes 80
osis 80
▁talk 80
▁mum 80
tea 80
ellis 80
▁abu 80
▁hind 80
▁zh 80
reso 80
cind 80
ilm 80
khat 80
▁quot 80
iao 80
▁ref 80
▁bash 80
yee 80
 80
▁medic 80
▁hon 80
atam 80
▁money 80
▁scho 80
▁emp 80
▁die 80
▁pun 80
▁full 80
辣妈 80
喔喔 80
▁linda 80
▁kep 80
菈 80
▁magazine 80
▁بی 80
▁شيون 80
▁مرز 80
▁19-2 80
| 79
▁insta 79
佢 79
峪 79
璞 79
eser 79
isal 79
榈滩 79
nai 79
ifa 79
raa 79
orit 79
entu 79
囧 79
wish 79
arna 79
aler 79
“遏 79
矾 79
econ 79
omm 79
tsch 79
alls 79
upr 79
nee 79
bhar 79
hari 79
bele 79
yet 79
ography 79
sive 79
▁surf 79
uba 79
蛹 79
baz 79
links 79
cedes 79
▁mind 79
夹缝 79
liy 79
gob 79
boro 79
hanyo 79
umbi 79
▁oa 79
哔哔 79
▁gop 79
cano 79
oration 79
▁vig 79
▁ves 79
▁let 79
▁bah 79
▁whe 79
▁wall 79
▁century 79
▁inst 79
▁form 79
▁cann 79
▁education 79
▁environment 79
▁fos 79
熘 79
1]. 79
▁رست 79
▁آز 79
▁20-2 79
žen 79
《楞 78
rency 78
铨 78
嵩 78
boll 78
娟 78
sens 78
rao 78
梧桐 78
趸 78
冉冉 78
iex 78
acs 78
roh 78
羸 78
elb 78
hips 78
cik 78
bez 78
quia 78
sier 78
trim 78
apan 78
loss 78
opy 78
▁bitt 78
crip 78
chil 78
帼 78
ulture 78
beni 78
lug 78
bahn 78
▁samu 78
gawa 78
▁nak 78
arias 78
▁ppi 78
obin 78
▁posts 78
▁prin 78
▁ies 78
▁queen 78
▁lh 78
kend 78
wadi 78
habb 78
▁same 78
▁hut 78
▁kine 78
▁vij 78
▁kub 78
▁num 78
▁eeg 78
貘 78
yabr 78
rigs 78
3]. 78
▁وردي 78
▁بدات 78
▁توش 78
ئنه 78
怔 77
cida 77
咤 77
煌 77
lagen 77
?' 77
lje 77
vap 77
”哦 77
靛 77
zero 77
hing 77
皎 77
pand 77
otr 77
round 77
jag 77
iep 77
edit 77
《汤 77
捩 77
film 77
eton 77
lete 77
!, 77
暄 77
thing 77
prod 77
塾 77
哑铃 77
馋 77
anson 77
恳恳 77
:5. 77
cna 77
vao 77
sach 77
adal 77
▁summer 77
翎 77
ein 77
itude 77
irk 77
sent 77
ovas 77
砜 77
oves 77
ophi 77
xico 77
▁wow 77
▁nag 77
▁flex 77
▁why 77
▁vis 77
"6 77
纨绔 77
蜈蚣 77
啪啪啪 77
▁select 77
vention 77
?. 77
▁hero 77
兀鹫 77
▁kol 77
▁lib 77
-19. 77
ardian 77
▁1513 77
dza 77
▁52, 77
▁sach 77
7), 77
▁false 77
▁ابتلا 77
▁ويندي 77
▁21-2 77
▁ساغ 77
4-4 77
▁نشد 77
▁خالى 77
gaba 76
戕 76
“喔 76
▁lav 76
iras 76
淬 76
essen 76
轼 76
☆ 76
mona 76
rans 76
hau 76
stru 76
phon 76
hada 76
粽 76
pani 76
≥ 76
cini 76
roch 76
entin 76
yale 76
▁cookies 76
umer 76
黩 76
湎 76
oby 76
▁tj 76
weg 76
emen 76
姘 76
瞑 76
onas 76
▁maz 76
elsi 76
▁fall 76
adne 76
jona 76
jing 76
▁wor 76
gte 76
▁rov 76
▁kha 76
▁qual 76
▁kl 76
▁kur 76
▁special 76
▁prote 76
antz 76
terson 76
▁shaw 76
▁hop 76
▁sent 76
▁roman 76
▁shu 76
▁diam 76
▁juda 76
▁index 76
▁ngin 76
▁thu 76
▁apps 76
▁universal 76
▁1950. 76
▁انقل 76
▁علی 76
钤 75
lements 75
tsh 75
arad 75
nike 75
vine 75
hasan 75
黝 75
ught 75
wich 75
amoto 75
:6. 75
熨烫 75
tima 75
cles 75
oden 75
brit 75
筱 75
bana 75
lud 75
wali 75
jela 75
eshe 75
vern 75
蹦蹦 75
lita 75
牍 75
itions 75
ultan 75
diam 75
obb 75
▁alli 75
chib 75
tiger 75
rosa 75
organi 75
▁costa 75
▁speed 75
▁got 75
▁source 75
▁kv 75
▁number 75
▁ris 75
▁glass 75
▁rose 75
▁aka 75
▁solid 75
▁lud 75
▁isp 75
▁wave 75
▁iom 75
▁sex 75
▁vog 75
▁execu 75
▁suv 75
▁grid 75
juma 75
▁roll 75
▁finder 75
▁asia 75
▁kare 75
▁command 75
▁financial 75
▁detective 75
▁راضي 75
▁افر 75
▁براي 75
.[5] 75
‫ 75
▁22-2 75
▁لطفا 75
۲ 75
▁بارش 75
萼 74
▁在那日 74
esim 74
癸 74
缬 74
contr 74
峨 74
iu 74
xos 74
bella 74
deli 74
design 74
rogen 74
胛 74
odus 74
▁subs 74
inan 74
tob 74
yria 74
illon 74
grad 74
▁lol 74
icas 74
parti 74
heel 74
沏 74
bles 74
bila 74
褴褛 74
nea 74
elman 74
▁vel 74
rof 74
魁梧 74
ariya 74
haid 74
urai 74
thu 74
❑ 74
yla 74
▁ati 74
▁font 74
atori 74
▁chang 74
amara 74
▁thi 74
▁dir 74
limo 74
▁tun 74
▁villa 74
锉 74
▁tak 74
▁seas 74
搽 74
tei 74
velt 74
▁ion 74
▁heli 74
lila 74
▁yield 74
▁crow 74
▁msi 74
▁nese 74
▁2014, 74
▁prem 74
▁value 74
哇哇 74
▁pit 74
chay 74
▁tas 74
▁stop 74
onel 74
▁isaa 74
▁nucle 74
▁see 74
▁vat 74
▁ball 74
▁girl 74
gesetz 74
▁$2 74
▁hope 74
▁dest 74
-9) 74
8-4 74
▁سودا 74
洱 73
铿锵 73
gets 73
enden 73
estre 73
vuk 73
plo 73
卅 73
amet 73
categ 73
usu 73
pte 73
sign 73
tax 73
cliffe 73
indy 73
kri 73
mouth 73
引退 73
uci 73
hv 73
ugen 73
衲 73
▁blogger 73
idium 73
iten 73
wade 73
onta 73
jol 73
ometer 73
inis 73
'; 73
kep 73
▁emo 73
▁mond 73
uses 73
▁root 73
▁find 73
vies 73
▁tru 73
antin 73
▁libre 73
vero 73
▁ada 73
▁aim 73
naj 73
tero 73
▁eure 73
▁kk 73
薏 73
▁giga 73
shon 73
▁lara 73
▁bau 73
▁bj 73
▁joy 73
▁clean 73
enzi 73
▁telecom 73
喽啰 73
▁allen 73
▁train 73
▁cari 73
▁50, 73
▁elli 73
nega 73
▁nj 73
▁room 73
呣 73
agiza 73
▁communications 73
1), 73
▁1,5 73
▁hosting 73
▁تزه 73
-11) 73
▁مقابله 73
▁خود 73
ردار 73
▁ساده 73
▁96/ 73
愍 72
autom 72
jevo 72
aac 72
酊 72
quo 72
arag 72
wow 72
zana 72
uras 72
instein 72
eles 72
idence 72
onde 72
嘧啶 72
esy 72
鹜 72
ground 72
sek 72
nbsp 72
lala 72
iber 72
hare 72
ilen 72
atural 72
chor 72
burgh 72
istr 72
ingi 72
uen 72
cima 72
▁dav 72
知能 72
vea 72
etown 72
▁rol 72
ave 72
wyer 72
hong 72
▁hur 72
elet 72
▁fun 72
rati 72
jesh 72
▁sud 72
睚 72
▁head 72
▁click 72
▁techni 72
▁study 72
▁ame 72
▁cash 72
▁mom 72
▁duo 72
vatore 72
▁tb 72
ekka 72
▁copyright 72
▁asy 72
▁â 72
▁alliance 72
罂粟籽 72
醡 72
▁partners 72
噢噢 72
▁boy 72
▁channel 72
▁(193 72
ئو 72
▁نسخه 72
▁آتا 72
▁حاق 72
▁تاني 72
▁بهش 72
▁تى 72
▁اقدام 72
ticle 71
“傻 71
熹 71
+, 71
gener 71
vec 71
rafa 71
▁犬 71
expl 71
laman 71
fib 71
edom 71
肼 71
lla 71
ica 71
brig 71
皑皑 71
rein 71
inge 71
cept 71
illion 71
erian 71
gag 71
risk 71
idos 71
wagen 71
vem 71
chie 71
bry 71
alg 71
攥 71
inia 71
ekk 71
agent 71
nav 71
搡 71
伶俐 71
egan 71
lesia 71
jian 71
pari 71
ators 71
alus 71
amine 71
leu 71
saw 71
▁pak 71
liya 71
š 71
▁niko 71
▁esse 71
govern 71
ographic 71
▁tex 71
iria 71
▁grant 71
▁aus 71
▁fle 71
▁wha 71
▁rar 71
▁iu 71
鸡儆猴 71
▁jak 71
▁sata 71
▁bee 71
▁track 71
▁petro 71
▁ln 71
▁designer 71
▁here 71
▁pages 71
翘臀 71
adina 71
▁gross 71
▁liv 71
▁oil 71
▁wav 71
▁1962, 71
▁1947. 71
▁27: 71
▁thoughts 71
[...]
